0b
00
0f
2f
3c
13
19
e3
f1
0b
1e
fe
01
fb
10
1d
e5
f0
0a
21
02
eb
ed
1b
15
fa
06
11
0c
ee
fb
07
fa
09
10
e3
fb
0b
17
15
ea
fe
fd
f6
ef
00
f5
03
00
f5
eb
17
19
fe
ed
df
e7
fd
00
0e
ca
17
17
ee
ee
ec
07
10
05
f8
ff
1b
f6
f4
ef
01
fd
fe
02
ea
f3
0b
04
0f
01
04
01
fe
17
02
fd
02
fd
00
f0
00
0e
ff
fc
fc
f7
21
1d
0d
f0
ff
f2
e8
07
ff
e1
01
24
0f
0e
ff
f4
0b
07
e5
00
0f
fb
09
e1
bc
f3
08
18
12
db
eb
f4
0e
20
f0
0d
0c
03
f1
12
0f
06
e1
c2
00
04
f2
e0
d4
e1
ce
e9
e7
05
0e
0c
ee
f9
0d
0b
05
18
0f
00
18
05
13
fc
f7
06
0a
06
05
f6
10
20
11
e2
bb
40
1d
fe
dc
d3
03
fa
0c
04
ef
db
e5
01
06
16
e0
ea
0d
f7
03
e6
f3
02
05
11
e4
00
fa
0d
13
fa
ff
12
02
0d
fd
18
ff
eb
dd
ef
0d
fa
f6
e1
de
fe
19
28
67
a4
db
1a
2d
43
ec
08
03
03
f9
f3
03
05
fe
bc
fa
1c
0d
0d
de
d0
ea
0c
f9
eb
07
01
04
14
01
2c
fc
0b
0c
ef
15
08
e8
0b
f4
e5
00
eb
ed
ed
19
1a
1a
f0
e2
1f
00
02
cf
d8
fc
e4
15
06
00
00
00
0e
f6
c0
04
fc
15
f2
00
d3
f6
00
13
14
e0
f7
f9
f3
f6
f1
f5
0f
18
0a
fa
10
10
01
e7
00
fb
0b
fa
e6
f1
f3
e7
fe
20
0b
20
ee
fc
17
18
0c
fe
fd
fd
0c
03
ee
05
1d
f4
ec
ea
02
1c
15
08
d3
ca
41
0c
05
f4
11
23
13
15
17
0e
29
16
f6
f1
f3
f0
f3
fc
0a
22
f9
f2
ed
db
ec
f2
f9
07
e2
0c
02
39
28
f6
fd
13
12
06
ff
19
0d
ec
f8
fb
f9
03
f2
12
12
1a
14
02
1e
04
0b
0c
eb
ff
ef
fd
fc
0c
fc
08
09
ed
fe
ef
00
07
e8
e6
06
ee
e5
e6
fe
06
f1
00
fa
f9
fb
f5
06
fd
ef
f6
f0
0d
f0
fe
05
f4
eb
f6
f6
e6
f2
04
ea
02
ff
f4
e7
f1
02
fe
07
15
02
00
f6
00
fe
06
f4
03
eb
01
ff
f3
eb
05
f4
00
f9
ea
ee
ed
f6
ee
e7
ff
f4
f4
fd
12
f6
f1
ee
ff
fa
fb
f0
f2
1c
f6
f5
ef
05
0c
e8
fd
e5
f1
08
ef
05
ee
ff
fd
0a
05
fb
f6
f7
0d
09
f5
ee
f7
f8
ed
eb
03
00
06
f1
fa
f2
f8
ef
fc
08
fd
f5
03
11
0a
f7
02
00
f0
f3
08
fc
0a
ea
fc
03
00
00
07
fb
00
fa
fa
ee
f9
fc
12
ff
00
fb
f8
f3
f5
f0
ff
eb
1b
fb
12
12
ff
e6
f6
08
0d
06
f9
07
fb
e9
11
f4
01
0b
f5
08
f9
0a
fa
08
07
0e
e6
f2
f2
f3
f1
f5
f1
ec
f9
03
fb
04
07
13
00
05
fb
0f
ed
f0
f9
ed
02
07
ed
f6
ff
fc
f7
1e
fd
f3
fd
12
04
0c
0f
f5
f0
fb
ff
0a
03
00
fb
ee
f8
04
05
fd
02
f3
ef
f6
fe
f3
ff
fd
f2
00
eb
f4
f6
ed
fa
09
fa
ff
f4
ee
fc
fa
fc
05
f0
eb
ee
ee
fd
ee
05
0f
fa
1c
fe
03
f2
00
0c
04
0d
f2
fb
f1
fa
ef
f0
f2
06
f7
ec
ea
e9
fc
fa
e6
00
e8
f1
06
04
f3
fa
fc
fb
02
f3
00
02
05
f2
f9
f7
08
fa
07
ea
ff
fd
e9
ee
04
f3
fe
00
ef
f7
f3
04
f0
eb
f9
f2
e6
ee
06
fa
03
00
0c
00
ff
fe
13
00
01
ed
02
08
07
04
fb
0e
07
01
00
0a
fd
00
f1
f5
0f
05
fc
05
f8
ea
07
ec
ff
fa
f0
ee
f6
ef
e3
f2
02
09
07
06
14
ef
fa
ef
06
f2
f3
0a
f3
00
eb
11
f6
f7
06
16
1e
02
08
f1
11
0b
ea
e9
00
12
0a
1b
fc
00
1a
07
0e
14
05
02
08
05
07
02
f3
14
03
0e
0c
12
10
fc
01
ef
f9
10
f6
e9
e7
f8
01
02
18
ff
0b
f0
0e
f2
14
16
ef
0f
15
f5
0e
0d
0f
1a
e9
04
09
fa
12
e8
e3
ea
01
02
10
06
02
fe
f9
0c
f7
13
f2
f8
06
08
0f
fe
ed
f4
ed
ff
05
01
df
f8
06
e3
0d
ff
00
08
18
fd
0d
ee
f2
1a
1c
16
e9
03
07
1a
f2
f8
14
e2
ed
f7
f9
f3
e7
18
0d
05
f8
fc
19
09
0a
fe
10
2a
25
0a
09
00
0b
01
12
03
13
f1
f8
df
f8
ea
0d
0f
ef
03
08
17
0c
0a
0a
fa
08
1a
1d
0e
f6
ee
f6
15
07
04
f2
eb
ee
02
02
fb
ef
ec
17
08
0c
0b
f6
20
04
fd
ff
fa
f4
00
fa
f3
f1
06
08
f1
0e
09
0e
18
18
10
e7
f9
08
04
03
f8
0c
04
05
0b
0d
20
18
07
f7
fa
fb
ef
05
fc
00
e0
e2
e7
e7
f5
e5
e9
17
f8
07
0c
13
ff
f9
16
ff
12
21
28
22
05
05
20
13
f1
f9
e2
10
15
f5
00
02
1f
0f
04
f5
f9
10
16
f2
06
00
fb
e8
f4
0c
03
e6
f5
ed
0b
f7
0a
09
f4
15
18
02
04
f7
1f
34
fe
fc
e8
e3
f2
ff
f9
fd
07
f4
00
15
15
05
17
1d
00
e3
fe
f4
14
10
ed
f2
f6
0d
fc
1c
fd
10
17
00
03
17
15
e3
fc
e6
ef
e3
fa
15
0b
fe
07
09
0e
18
fa
04
03
05
f9
00
fc
fa
0e
fb
e5
06
0a
f7
00
16
09
ff
ef
f4
07
00
16
f5
00
00
01
ea
fd
0a
15
fc
ee
11
1e
17
15
01
12
0d
04
f2
0e
26
1b
ff
09
07
16
18
fe
01
ff
0a
e9
f3
10
f0
03
fd
ec
04
05
dd
02
17
10
06
f4
01
fd
f8
ef
0b
fe
f4
0e
f4
0d
f3
03
f1
06
f4
09
f9
f1
00
00
0c
05
08
ee
f1
00
06
09
04
07
07
ed
ee
fd
fa
f1
ff
f9
f3
04
ea
fc
fb
ec
fd
f8
ed
02
f6
eb
f8
f9
fa
02
f5
07
ec
0c
f7
01
00
fb
03
fe
ef
f8
f5
00
fe
00
fc
f1
fd
00
f9
0b
ff
f3
f9
ec
f3
f1
00
09
06
eb
f3
fd
01
09
f7
ed
fc
f6
09
02
eb
02
04
f8
0e
ec
ee
00
eb
f7
fb
f1
f8
0b
f9
fb
04
eb
f5
0b
f0
ee
f8
ed
ee
fc
eb
07
f1
ee
fb
02
f2
fb
fc
06
f5
00
f6
00
fd
07
f1
07
fc
fb
07
09
0c
0b
fc
fe
fb
f4
06
0c
06
f0
f1
fe
04
05
0a
fc
f8
ee
00
ee
03
0b
f5
f8
03
ef
fe
fc
f0
f3
f3
05
fe
06
f1
07
ec
f8
0a
fb
f2
09
f8
f5
ff
fe
f3
00
ec
01
f4
fb
06
ef
0b
f2
03
09
f2
05
ee
00
07
04
ed
ff
0a
00
fa
03
0a
f5
0a
f3
f1
ff
04
0c
f4
07
00
ed
ed
04
06
f4
0c
f6
00
f1
06
0b
f1
04
ee
06
fe
f3
01
04
02
ea
f4
fc
0e
06
0b
fa
ee
f2
0b
fa
fe
ff
fa
09
fb
f1
ee
01
eb
f1
00
f5
0a
f7
f4
fe
f2
00
ec
f9
f3
fd
fd
06
f8
fd
05
eb
f5
05
f5
f4
fc
ef
08
05
06
ec
00
f3
0a
08
fa
f0
f5
f0
f4
f6
01
f0
07
f0
ec
f9
f1
00
07
07
ea
ed
f6
08
ec
f6
ff
fc
fc
f9
ed
fa
00
f9
fb
01
f4
0c
fe
03
04
f6
0a
f3
07
08
01
eb
f2
ed
f2
f2
ff
06
01
09
0f
f4
07
f6
08
00
00
08
f4
02
fa
f3
ff
03
fb
ff
0a
f4
f9
0a
f7
f1
f8
ee
f0
00
ee
f8
03
f1
06
04
fc
03
ef
00
f5
03
01
01
f0
0a
01
f9
f8
f0
f3
0a
14
10
03
05
ed
11
06
1b
1d
06
07
01
19
1f
12
0b
00
2b
4a
17
00
1c
37
31
ed
fc
f8
04
f8
f2
11
10
01
0a
00
fd
f3
03
ef
e6
f9
00
10
ed
fa
fe
f7
e9
ec
f8
0d
0b
0a
0c
02
01
f6
05
00
ff
12
07
11
0a
00
21
fd
f1
f8
f9
f9
f9
f6
fe
ea
0a
15
1c
02
0f
0e
f2
13
01
f5
ed
f9
f6
09
ee
0d
f3
fd
f0
0a
f6
e5
f2
ef
ee
0f
0c
f5
0c
02
09
1c
18
ee
08
13
07
ff
ff
e3
25
19
fd
f9
e3
02
fd
11
e5
f5
1e
20
19
05
f7
08
18
fb
17
f7
08
10
f6
06
fc
0b
f8
05
f1
f2
10
f8
f7
00
0d
15
0f
0e
0b
19
12
f6
0a
fe
18
fb
ed
14
0e
07
ef
f8
fd
0b
20
e4
f4
14
13
03
e5
fa
03
00
e4
fa
f7
0c
f8
ef
ec
f1
00
12
f5
fc
ed
ff
19
ef
0b
0d
05
ff
f5
00
15
16
0d
0d
0d
18
fa
0b
07
0f
fc
f7
fa
ee
1a
04
0e
ff
03
0f
00
00
f1
02
ea
f0
15
1c
ff
05
1f
fe
f2
1b
05
11
17
e6
d1
08
08
fc
f7
f4
14
09
f3
fa
f6
fd
00
01
f7
f7
09
f9
f8
15
06
06
ff
fe
f6
06
ec
f3
ee
06
0d
f0
fe
04
f6
f1
f8
0a
fb
04
00
0d
05
f6
0d
fe
f3
fd
13
00
08
11
f8
07
0b
10
04
15
20
00
14
00
0e
ec
07
08
fd
02
1f
22
0c
01
fc
13
f5
fd
06
ef
02
ef
fc
02
14
18
fb
f2
15
07
13
06
f9
fa
fa
0b
12
f9
07
0d
04
14
02
08
08
0f
0c
f8
0c
04
08
0e
00
f3
ff
0c
10
fc
f5
01
11
f9
02
ee
f1
09
0e
f1
e9
1f
1b
1c
17
00
1f
06
19
12
0a
01
0f
14
f6
0c
f1
f2
16
fb
09
f4
f9
0c
f6
f7
e9
fa
f4
e8
e6
e3
02
10
e7
07
fd
0e
0d
f7
0d
ee
01
f9
fa
e9
0f
f0
0c
0c
ef
20
09
2d
f3
09
fe
29
0c
d4
f7
00
14
0b
f9
01
e9
08
10
e6
f4
ef
08
06
f1
fa
03
07
06
f2
18
15
ed
01
17
05
0f
fe
05
07
19
07
ef
05
04
13
00
00
07
ec
0c
f1
00
01
f3
0e
0f
00
01
0f
f1
0e
16
00
02
f3
03
00
f3
03
ee
07
14
e7
e0
f3
fa
1f
00
02
f8
f7
16
f9
fd
f5
f4
11
0d
00
0e
f9
ff
06
0b
09
ed
0b
0f
0b
f3
0f
0b
ee
e7
10
18
10
e6
05
0e
1c
08
19
0d
13
14
03
f3
f6
06
05
ef
0f
f8
ed
0a
11
17
ec
0c
f4
12
22
1d
11
15
fc
fc
1c
13
06
02
f5
fb
fd
e9
08
f1
f3
de
0b
14
0f
17
ef
f6
17
07
18
d5
f9
12
06
07
ff
05
ff
11
05
e8
dd
16
11
e4
f0
04
1f
f2
e0
10
24
0a
f1
e8
f7
01
fc
16
13
1c
00
18
02
f4
ee
0b
fd
11
02
f2
09
03
09
06
01
0d
08
f2
08
fc
f3
01
1e
d6
0b
02
11
0d
0e
27
2c
fd
f0
06
fd
e7
e1
ed
22
ee
f4
0b
0b
03
f9
10
fb
02
04
08
fc
fb
10
ec
e9
fa
02
07
fa
f5
e8
00
03
fb
06
0e
0d
14
0a
fa
17
0b
16
fc
1c
0f
f9
0f
16
fe
00
12
13
12
14
fd
1d
fd
0a
00
14
ea
e3
13
fe
02
05
03
06
00
17
0a
12
09
00
00
ea
e5
eb
f6
f7
08
fd
eb
fc
00
01
f0
01
fa
fb
06
f7
0b
0b
00
0a
13
f7
f0
02
e7
1b
0b
fb
eb
03
13
f8
0d
10
25
14
f9
00
f4
0c
1b
07
de
05
1d
06
f0
f4
09
e9
f6
09
f6
0c
f9
02
21
01
f6
fe
01
f5
05
f9
01
0a
f7
f4
00
f8
00
eb
db
de
f5
19
e1
f1
e3
08
11
ff
0d
f0
02
22
10
fa
06
06
ed
dd
01
f1
1e
2b
f7
0b
02
06
0b
18
19
f4
02
13
1e
fb
03
18
20
17
06
08
09
ff
fa
fb
12
11
10
19
06
ff
f9
08
f8
f6
04
00
0d
f9
10
f9
f6
f0
f8
19
f5
09
0a
00
08
15
f9
09
02
00
06
f0
f8
21
0b
fa
fd
0c
0b
00
f6
02
f3
dd
fa
00
06
16
08
08
05
00
0f
0e
ff
f2
f4
01
02
fa
fd
fe
17
00
f4
f0
f0
fd
ea
18
0e
df
f0
02
13
10
08
f2
e2
09
f1
f9
02
fb
22
02
f1
16
1a
f5
14
06
f8
ed
0c
07
09
05
f6
ff
12
01
00
f1
f3
f7
f3
ee
06
09
fd
fe
fe
19
f4
f0
0c
f4
f8
f6
ff
16
0e
ea
ec
e3
09
04
0b
f9
06
01
13
f3
08
10
f3
e9
fc
ea
04
00
f9
f6
f8
cb
d9
09
00
f5
00
f6
0d
0f
1e
05
f9
18
21
ff
ec
00
2e
1d
ec
f8
10
2d
00
08
0d
11
0e
e7
07
f8
0d
0f
06
00
fe
fc
0c
03
15
e9
ff
fb
0b
ff
0e
0d
f0
e4
1e
2e
06
e0
b2
1c
1a
01
fd
cd
f1
02
02
00
e8
ed
15
17
fe
db
14
fe
e4
f6
14
12
00
09
02
0e
e7
ef
fb
09
04
1a
fd
ea
f5
00
0c
04
08
f3
f8
f1
f6
e9
03
f2
ec
ff
f9
f6
fa
04
09
12
09
0d
f9
27
0b
ff
0d
04
fd
0d
1a
24
01
00
30
10
fe
fd
fe
0b
f0
d3
0b
fd
1c
0d
00
ef
ea
04
0c
e8
0a
09
ec
fe
0d
08
05
00
0a
05
04
08
03
0a
19
fe
e6
ea
02
20
26
20
0b
08
1a
22
06
01
fe
f6
14
fb
ee
fa
f2
dd
05
18
f7
d6
06
0a
1f
10
ef
08
02
07
18
d1
eb
05
25
e9
00
03
1a
1a
0c
2b
12
e7
0a
18
18
0b
dc
db
0a
2b
21
11
ea
f8
17
3a
11
02
e8
04
25
ea
ed
fc
ed
00
fe
03
0f
d4
f9
f8
2a
13
fd
e4
fd
2d
14
ff
0f
14
1f
eb
09
16
31
1c
ea
f8
0b
0a
eb
09
f6
0a
0b
eb
04
fe
15
f7
f1
07
01
0c
07
0a
01
14
fb
fc
fc
fe
1c
ff
f8
06
ea
09
21
13
0f
eb
05
2f
fe
04
07
0f
09
e9
00
00
fc
f8
f4
f7
f1
fc
0d
f3
fa
ee
04
0b
f4
f9
06
00
02
01
04
04
f4
f4
0c
15
19
18
f6
ed
fd
ec
03
26
00
e5
fb
fe
05
14
f4
e2
e9
10
14
e2
01
f5
13
fb
02
ff
0a
e8
f8
0b
f3
0b
12
0f
ec
e2
03
2e
13
f7
07
fb
10
07
ed
00
10
e9
f4
f3
0f
12
f6
ff
ee
03
18
1a
28
07
01
01
01
f1
0e
13
fd
e0
e5
e5
fa
00
ee
f4
04
f7
23
f4
00
09
14
1e
0b
08
f3
12
27
f0
00
f7
0b
08
09
f4
ed
0c
0b
15
15
15
11
ff
19
11
22
f5
d3
17
11
f9
f8
f1
0b
f6
f6
0c
fe
0c
0d
f2
10
06
f7
08
f8
ff
2c
eb
0d
fa
f3
13
0c
ff
fa
0f
f2
2b
02
18
f2
ef
09
12
08
f4
fb
ef
f8
ef
da
42
e5
db
de
02
52
18
fc
01
03
ed
07
07
01
08
fc
dd
00
ff
0c
02
0a
07
0a
16
f5
08
05
08
15
14
fc
f8
e7
f5
11
05
01
fb
12
3a
06
06
01
0a
1b
0e
15
0f
14
2d
11
13
02
fb
06
0b
f8
ec
01
e6
15
08
fd
ec
00
f6
10
03
f1
e8
fe
0b
00
15
18
f4
04
00
05
0a
02
20
30
f9
f6
12
f5
2f
10
15
e7
ef
fe
f6
0d
e9
0e
0f
0f
ff
12
03
0c
f6
02
07
06
18
1e
e3
08
03
2a
08
e9
07
f4
04
00
e6
ff
0f
08
f4
1b
fa
fb
fa
fd
2c
15
16
0b
0a
ff
f9
04
11
ff
fc
e6
d8
fb
f3
16
f4
fc
f8
e8
f9
f5
eb
05
04
01
fe
02
01
ee
0f
f0
03
f2
ff
0e
0c
05
f8
00
ef
0a
00
f8
fd
f8
ef
ef
05
07
02
fe
ed
fb
f0
ff
f4
08
f4
05
0c
f7
02
ff
f7
02
06
fe
0a
00
f1
04
09
fc
f9
02
fb
f1
ed
0a
fe
05
f9
fa
04
05
08
f8
09
f7
0e
fe
00
f5
01
00
f8
fd
f3
00
ee
f3
f4
06
f0
fe
f7
03
fc
03
07
f4
fa
fe
f5
fe
f0
0b
f5
0c
ed
f7
00
f6
0c
fe
fb
08
00
0e
fa
f5
08
f3
ee
fe
f4
f6
00
fe
f3
0b
f1
0e
09
ee
00
00
ed
ff
f6
f7
ff
fd
fe
f9
f7
f9
f0
f0
f8
08
0c
f6
f2
f1
05
ef
ff
ee
f7
f5
fc
06
0b
ec
05
f9
f7
0a
fe
ff
01
09
fc
f5
ed
00
0d
fe
05
ef
0b
f1
07
fb
03
08
f1
f1
fa
f9
eb
fe
fa
ed
0d
f8
f2
0e
07
06
0a
09
05
fb
05
f5
05
06
0a
04
07
fd
f2
fb
09
fd
f7
fb
05
02
08
09
06
f8
f6
ef
fe
00
f4
04
f6
fe
0c
f2
f6
ed
f7
ed
00
0a
ff
02
08
f1
f6
ed
f5
fd
fc
ef
0a
fe
fa
09
ed
ed
0d
f6
ec
ee
f2
fc
f4
00
f0
f0
01
ef
fa
04
f9
f4
f4
fb
00
f1
05
03
ed
00
00
0b
ed
f5
0a
f4
09
00
f0
f9
02
ed
0c
07
f5
00
ee
fc
0d
ee
f1
fd
f7
09
f3
00
07
fd
02
fc
08
0b
01
f8
fc
f8
f2
02
f1
f6
fc
00
fc
02
ee
05
02
f9
f5
fc
f9
0c
04
f1
04
06
02
f7
0b
09
f9
fd
f9
fc
0b
fd
08
03
f1
f9
00
fb
01
06
0f
0f
ef
f1
fa
02
fd
f6
0a
01
ec
ee
0d
fa
04
02
f5
ef
ef
fc
f5
f9
f7
01
09
f2
0c
ec
06
08
f6
06
f5
05
ee
ff
04
f0
01
06
f4
f8
f0
04
0b
f8
ef
07
fe
f0
f8
00
01
fd
f3
00
fd
0d
0e
fc
0e
f6
05
04
09
03
f5
f0
f5
ff
0a
ee
0b
f0
06
06
0b
01
09
11
04
00
f3
f7
f2
0f
0c
ed
f0
f8
f7
0d
f6
fe
04
fa
07
f1
f0
07
ef
ee
ef
fc
00
f3
04
08
f3
f5
fc
0a
03
00
f9
fb
fa
05
f6
f0
f0
06
02
0d
f4
f9
05
f0
04
fd
f7
0d
f4
f7
f0
0e
f3
03
f9
f3
fb
06
f5
0c
f0
fb
f8
0b
fb
07
f5
02
f7
0e
00
fa
f5
06
0a
f7
0b
fc
f5
0c
02
ff
f9
f0
0e
0c
05
05
09
0b
01
fa
f4
f0
f7
fc
0b
0a
f9
f3
f1
00
ef
07
0d
08
10
0e
f6
01
00
00
04
09
f1
f7
0c
0a
12
f1
0c
05
0b
0d
08
01
0a
f7
f8
f4
05
f3
0b
01
0d
f9
fa
0c
00
08
03
ff
07
f9
ff
fd
ee
fe
03
fd
f7
fd
0c
fc
f2
06
f6
f2
f0
0e
f3
08
f1
ef
07
09
f4
09
f0
07
f7
04
fc
ed
ff
f1
fb
07
ef
0a
04
f6
f5
f8
0d
08
04
f5
ee
fc
fd
0a
0a
ed
f5
f4
0d
f5
fc
f4
01
f1
01
fd
fe
00
00
f3
00
02
05
fc
f1
05
f9
fc
0e
0b
0a
0d
f8
f1
11
fe
f4
0f
fb
03
fa
09
01
ed
f2
04
fd
05
ed
fe
f9
05
fb
fe
04
fd
f2
f6
f1
03
fa
01
00
0a
ed
f0
0a
0b
06
f3
f0
f1
f6
f1
ff
08
00
01
0a
0d
fe
fb
0a
00
f0
07
f5
02
fa
03
0e
06
00
fd
f3
06
f0
09
06
00
f4
fa
f4
03
fb
0c
ed
0b
0b
f8
ee
f5
fe
f7
01
03
09
fd
0c
f9
04
fb
05
09
f5
f7
07
f1
04
05
f8
fa
06
f1
f4
07
ee
ee
11
fe
08
00
f5
fb
07
f6
f4
03
fa
00
00
fc
ff
0a
f7
10
f6
fb
07
ff
09
f3
01
fb
f4
05
01
ff
fc
fe
0a
fc
f4
ff
fe
0e
f2
f5
0a
07
f8
0c
00
02
0a
f0
00
f6
ff
01
fb
f5
20
09
fd
ee
e7
15
02
f2
fc
e8
0e
15
00
f3
f4
05
21
f7
fa
ea
0c
f8
00
07
f3
0c
09
f6
f2
ef
ee
08
fd
01
fe
06
13
08
11
01
0c
03
06
06
05
05
ed
fb
00
e4
08
00
18
f8
06
00
06
19
21
02
f6
fb
13
10
fd
0c
e9
fb
07
fa
fa
07
fe
ff
f2
ec
0d
fc
e9
ed
fd
05
1b
fa
f4
1a
13
0e
17
01
ff
f7
13
fb
14
08
f4
f1
1c
0a
02
da
e9
ef
01
f5
f5
00
f7
1a
18
fb
0d
1a
f5
fe
10
00
f7
ff
0a
dc
e3
f7
ff
05
ff
ed
04
ef
ef
f7
fd
0d
ff
1f
f9
fe
05
09
18
03
01
0e
01
15
f5
f6
ea
09
00
fa
17
ea
fd
00
f4
06
df
ec
f3
00
0a
00
0d
12
13
13
06
01
12
12
1d
24
f1
fc
f7
13
02
f2
f9
f6
17
0d
03
0b
3e
32
f9
f5
e1
28
1b
e2
f1
ff
fd
06
00
f1
15
06
ef
f2
fb
0e
fe
ed
05
0b
08
18
15
1a
0c
09
09
0f
fc
19
13
13
11
f3
15
4a
00
f9
0b
0f
2a
11
fa
ea
fb
13
f7
f1
f2
ef
31
e7
00
03
18
18
f2
ec
f9
03
f3
07
0b
08
00
e7
06
0a
19
06
e7
06
0c
00
14
0b
16
09
11
02
11
fa
1f
07
04
eb
02
11
16
04
f8
1c
07
07
09
14
09
21
ff
fb
07
10
00
de
dd
ff
f2
ee
03
13
1e
01
fb
e6
e0
f1
07
f6
ea
ec
08
10
13
07
07
06
0e
f3
f8
fe
17
f9
14
10
fa
03
11
11
0b
10
f8
e0
ee
10
fe
fc
ee
04
1b
04
0d
00
00
14
fb
f8
05
00
07
0f
10
0f
e7
ea
0c
15
15
00
ed
f0
f9
26
e1
e8
ea
fd
0a
e3
e3
02
18
01
fe
06
eb
fb
ec
1c
0f
e2
fa
ef
01
12
ff
02
df
f1
18
fc
05
03
00
01
ff
10
11
fa
01
f2
d1
f8
03
00
0f
11
f9
05
f6
00
20
09
14
0e
10
ec
08
e8
12
e2
fd
ee
ee
19
11
10
f2
ec
f8
09
04
ec
f6
11
0e
f7
03
fa
14
f8
13
0e
09
f9
13
12
14
f6
fc
0e
02
1b
fa
f6
0d
ef
1c
03
00
06
f2
f7
0e
09
0d
00
15
ff
fc
08
02
f9
11
07
09
06
e7
f3
07
0c
f5
0e
00
0c
fd
f2
0a
fe
01
03
f2
05
f8
0c
f2
01
1b
fe
ff
01
fe
f5
ec
08
17
07
0e
f4
16
17
15
10
1c
19
ea
09
fa
0a
07
0f
18
27
04
0e
f0
ed
25
0e
fc
ff
e0
ee
00
fa
08
ed
00
fe
f6
ff
16
04
fd
08
02
13
00
0e
20
06
f3
f7
f6
f9
ff
f7
f9
fb
f1
fb
e3
f7
16
16
ff
0d
fc
06
fa
10
17
dc
c8
12
08
1d
cc
dd
00
0c
1f
f0
f7
10
00
fb
18
0a
fd
ff
f2
1a
1a
f8
09
e6
0d
10
0f
07
ff
fd
09
12
07
f5
fe
06
18
02
ef
fc
ff
02
fa
08
01
15
00
09
16
11
1e
1f
ee
81
2a
2e
0c
eb
b7
11
05
e8
df
dd
08
f8
e8
00
12
02
f7
01
10
12
0c
02
f7
09
07
df
e1
fa
17
fa
d4
dd
0c
03
12
0e
f0
0d
11
fb
12
14
1b
07
08
00
0c
09
09
0e
ec
f7
16
01
f7
15
11
0d
14
22
26
0b
05
f3
36
15
04
06
f2
f9
06
13
11
05
ed
02
fa
fe
11
f6
ec
04
f9
e4
f6
04
05
07
00
f6
ef
15
14
f7
00
10
f4
fd
16
18
06
d8
f2
05
18
f0
03
e5
12
08
17
0c
0d
21
f8
0a
16
19
f9
13
e7
1a
17
1f
d1
f1
1b
0f
f7
c9
f8
0d
fa
fd
d5
f3
05
ff
02
f7
04
00
00
01
f7
0b
e3
10
18
07
fe
c2
02
17
13
f8
c5
ea
0d
f3
09
f0
0b
00
f5
2c
01
1b
fe
fb
07
15
2e
00
c5
f2
fa
10
11
1a
00
fb
f8
0b
1a
04
01
f9
dd
0a
f7
02
ff
ff
16
ec
f4
f7
03
09
f4
00
f7
f5
04
06
07
fe
f1
01
f8
05
e9
f6
0c
01
0f
fa
fd
11
17
05
fc
06
0a
0e
ff
f9
00
f8
22
f1
f5
df
f4
07
02
ed
f6
0e
22
09
19
00
14
fa
05
04
1e
fd
e2
ee
0d
10
07
01
03
fd
08
05
0e
00
f8
02
fd
0e
fc
04
ff
fc
12
06
eb
db
f4
fe
0f
fd
1d
e8
09
f9
f9
00
00
00
f8
fa
12
11
ff
00
06
0a
0e
24
00
15
03
02
07
eb
ff
03
f4
e6
04
ee
f0
e9
f6
02
e9
ff
05
20
19
0d
1c
22
07
12
21
2a
15
e9
ed
f9
18
20
e0
ed
03
f8
fc
00
00
09
ee
00
0c
fb
12
10
00
dc
d0
dc
f2
02
e8
fa
f4
01
26
00
0c
f7
06
23
17
f3
e9
0b
11
fc
ea
ed
05
ff
08
02
0a
f1
fe
f5
04
f9
01
f5
07
07
fa
ed
e2
0f
04
f4
f6
08
09
10
fc
10
0c
16
50
2b
eb
a5
26
1e
14
ea
b8
f8
df
05
f9
13
fe
0e
00
fe
06
f4
ef
f0
fc
0f
09
f6
f2
18
20
e0
db
e5
f4
11
f3
fe
e9
01
09
11
00
03
06
f7
1d
17
00
00
f5
e9
e9
ff
dc
e9
02
08
19
03
e6
f5
17
14
0f
1a
0e
fc
f8
0f
36
ed
ed
10
05
f6
fd
1d
0f
17
03
ff
ed
14
11
0f
e6
00
03
ee
fd
01
f3
fa
d8
ff
02
09
00
13
16
ff
ff
e3
f8
11
0c
df
e9
f1
01
17
ee
11
ee
01
27
11
0a
08
06
10
10
f0
fb
f1
ea
10
2d
0c
d2
08
fc
16
13
dd
00
ef
fc
17
f1
f7
f7
00
f9
f3
02
ee
f5
f2
01
05
e0
fc
14
27
eb
d8
ec
ed
1c
17
f9
fa
f2
0c
1d
0f
00
fc
f2
23
0c
ef
e2
f9
04
0e
06
03
fa
16
12
df
f9
fe
11
0a
04
f9
26
06
e5
f3
f2
fa
00
fa
dc
02
1d
04
0f
18
05
1b
00
09
0e
16
13
08
13
0e
f7
ff
fc
fa
e5
ea
f1
01
f7
02
0e
ee
07
ff
0a
15
0e
f8
03
13
f6
fe
10
fb
f2
e4
f9
ff
f9
ed
fc
f6
ff
08
0b
19
07
02
19
09
0a
fe
05
ff
0e
ff
00
f9
fd
f2
03
f2
12
fd
ee
f5
ef
05
10
13
fe
0e
ed
0a
07
ff
f1
01
0b
01
14
fb
09
08
0a
00
00
f7
f4
09
07
07
12
00
11
0c
13
0c
09
1b
0a
18
fd
fa
fa
0c
08
ff
fd
00
ec
f0
f1
f5
ea
e2
e1
13
0c
08
ed
f2
ff
0d
1d
07
00
03
0a
01
10
1b
05
1c
fc
08
16
f5
f5
0e
00
00
fe
f8
07
05
f0
f2
05
fd
f4
ff
f9
09
09
f9
00
02
05
0b
02
f8
fb
03
ee
0d
05
0a
f1
e8
fc
1e
f8
14
11
03
0b
f1
fe
12
fd
17
ff
15
f1
e9
fd
08
06
e9
fb
00
0b
07
06
16
01
00
14
2d
14
f4
fe
00
0a
fa
00
f1
ec
ec
eb
04
0e
03
1a
f7
f5
15
17
0b
fc
da
08
00
0d
0b
02
f7
0c
14
13
16
fb
0f
f6
05
fb
04
10
f3
f2
ed
1a
02
0e
e9
f2
fe
f4
ff
f6
0d
04
19
0c
db
dd
02
00
fb
e2
ec
f5
ff
e5
06
fb
e5
ec
09
18
09
0a
10
18
0d
19
f7
00
10
1f
1f
f2
15
14
00
14
04
02
00
fa
f7
02
f6
f2
ea
fa
0e
05
ff
ff
fd
0e
09
ed
f2
fc
20
f0
fa
0f
04
1b
ef
fd
11
09
18
13
e3
0a
fc
f7
f4
04
f6
0f
01
14
09
fc
27
11
f0
ee
0f
23
02
f9
fa
0a
e5
07
f1
f1
07
e8
ff
f7
05
14
00
ea
0f
04
f4
0d
1e
05
ff
f6
05
0c
f2
07
0d
00
1a
fb
f3
fc
00
05
05
1e
03
37
0c
01
f1
07
1b
0a
1d
ec
e1
f5
fd
e9
ed
eb
fc
22
01
e1
f8
0e
f8
f8
0d
f2
03
07
0e
fb
ed
02
08
0d
10
0c
08
f4
15
04
14
fb
0d
fe
fe
0e
05
ef
05
00
08
06
f2
f6
fd
00
02
f3
0d
0b
f9
f1
f2
fe
07
f8
04
08
1b
16
0f
0c
fc
fd
02
e9
ff
05
01
04
f6
f5
f9
03
0b
0e
1f
02
fb
10
00
14
fe
1a
0c
03
25
06
14
24
1f
fe
10
0e
fb
04
f4
00
0e
f2
0d
05
fa
f6
0c
f3
fd
ff
03
07
13
00
df
f8
ec
f6
f6
eb
f1
fb
fa
09
fb
0b
18
13
07
06
0f
0b
04
ed
20
1d
25
1a
00
d8
e4
f9
e8
f4
f6
fd
fc
f1
fd
08
23
fd
0d
f8
1f
00
07
16
ec
1c
02
11
17
06
17
11
0a
07
eb
21
01
f9
e3
f1
14
fa
0f
04
fb
ec
f3
00
fa
16
e3
fc
fb
09
14
0a
f0
17
06
fa
fc
04
06
fc
f1
ff
09
12
05
13
06
f6
00
0f
fc
f6
1a
09
23
1a
06
00
e1
03
34
d6
da
fe
12
27
ef
f7
01
0a
18
00
0c
13
2a
04
0b
15
1d
f9
eb
f0
f1
0a
f6
f3
f9
0d
f8
fc
00
04
0c
ff
fc
0d
0b
09
0c
10
06
f7
0e
0a
fe
15
04
17
28
f7
09
06
fd
08
e9
f4
15
04
16
17
05
00
09
00
e6
dc
ea
0c
f7
e7
e5
09
03
f3
12
21
f2
fe
e4
00
00
f7
01
fe
fd
0c
0b
05
0a
0e
f1
19
0c
16
01
0c
0b
01
fd
f5
0d
0f
1b
0b
08
11
1c
06
f5
fe
fe
1e
f8
fe
ef
05
06
de
e4
e8
1a
04
06
f8
e2
20
fa
ee
fc
00
1a
10
14
0a
04
23
0c
f7
ee
11
eb
04
e6
01
ef
df
fc
e8
e9
ee
f4
ef
0f
09
fe
0e
17
0c
0a
f6
15
0c
fc
fd
05
23
e5
fa
04
ee
01
f1
07
ee
03
09
fc
fd
ef
01
f4
fd
07
0c
fd
f5
f4
f7
11
04
ef
03
00
f4
eb
f8
f0
0b
eb
ff
f5
fb
07
05
f1
ed
ef
08
f3
f8
f3
ed
0b
ef
ed
fa
ef
f2
f0
ec
fa
fc
f7
f6
00
fa
f9
0e
f1
ff
eb
fa
0a
f4
0c
0b
f0
0e
08
f6
fb
0c
00
03
fb
ed
eb
fe
fa
ff
eb
f6
ff
f5
06
09
ed
f6
fe
fd
fe
ee
f1
f5
ee
fb
ff
04
f1
0a
f2
f9
00
02
04
fc
04
f6
fe
f2
f3
ee
f7
09
08
01
09
fc
05
00
0b
0c
05
f6
f8
ff
04
00
ec
ef
fa
fc
ff
07
01
f1
f3
fc
0b
f1
ff
08
f0
04
f1
0e
f5
f6
f7
f2
fd
08
05
f2
fb
06
ec
ed
05
06
01
eb
02
eb
f9
f0
eb
f8
03
fe
05
09
00
f1
f4
06
0b
05
fb
ee
f8
07
03
ff
ff
f9
0c
f5
f9
04
fc
10
01
ed
04
fc
06
ec
0b
0f
04
03
ed
f1
03
05
09
f0
fa
f0
0c
05
03
f6
f6
ee
fc
ee
f3
f0
00
ef
03
ee
ec
0e
f6
ec
0d
f6
f3
08
fc
fc
0c
f8
f8
07
05
f5
f9
09
f3
fa
09
0a
ed
ed
02
fc
fe
ff
f9
00
fb
0a
06
0d
08
ee
f0
0a
fa
04
03
f3
0d
f7
f7
f2
0c
00
06
f2
f6
03
ef
f0
08
05
02
08
fd
0b
f2
fa
06
f2
fb
f4
f8
f1
03
fa
0a
01
f2
fb
03
f9
0b
fd
ff
fd
ec
f0
ee
fc
f2
fd
0b
f1
ef
fc
ef
fd
fb
f6
09
fb
02
fc
f1
0a
09
10
08
05
09
00
06
f1
f6
f4
05
06
02
f8
fa
fc
ec
f3
f9
0c
f3
f5
07
fa
fd
02
f4
02
fa
f4
0e
01
08
0a
0d
01
ff
fd
0b
02
f2
03
f6
fb
f6
01
ec
00
ee
f8
f3
04
f9
f0
f5
0b
ef
fa
00
f3
03
03
ec
f2
0c
07
ef
03
f3
f8
f5
f1
06
0a
0b
f8
04
02
10
ea
c2
9f
fd
f3
02
f5
f5
12
e6
f2
ee
33
14
e9
ef
fd
19
04
f9
00
fc
03
ec
09
02
1c
14
fe
0c
fe
08
10
0b
f8
05
01
12
00
12
fa
12
f2
06
fc
f6
fd
f3
ef
fd
04
fc
09
09
07
f5
f9
15
0e
16
f9
0d
08
07
0b
10
0f
f2
f4
07
ef
f0
f3
f8
f6
11
11
fd
f9
13
09
1e
0a
14
fd
fd
12
14
f6
fe
fd
02
ed
fc
09
ed
00
eb
fa
f1
f1
f9
ec
02
f8
00
0d
06
f1
fa
08
12
0d
02
02
01
06
03
f9
09
08
fe
dd
0c
15
11
12
0a
10
04
f9
f7
ef
00
00
f8
09
06
08
01
0d
fe
0d
00
f7
fb
00
fe
f1
0c
18
1b
f0
0e
0c
00
0b
ff
12
08
06
f6
fc
fa
ed
0c
f8
f5
02
10
0c
fa
00
da
e0
e0
e1
fd
07
08
fc
08
21
ef
00
02
07
23
13
09
04
06
10
13
0b
03
17
f4
05
05
00
fc
fa
fa
0c
f5
f7
11
0c
fc
fb
0d
05
f1
ff
02
0e
03
f4
05
f7
ea
fb
14
14
20
12
b2
02
12
2d
01
d3
fb
14
fd
fa
eb
fc
08
f7
05
f4
f6
0a
ef
df
eb
0c
02
0a
fc
0d
02
01
fa
00
05
02
f1
fa
fe
fb
05
fe
f8
03
f6
17
f6
ff
0d
07
f8
0e
f0
01
ec
13
0d
ec
dc
e3
00
10
00
23
22
12
05
14
21
16
19
f4
09
02
ef
f4
fd
18
17
f3
10
13
0d
0c
ed
fe
09
07
08
09
f6
f9
00
07
0e
f8
f7
f8
fb
f5
1c
f0
ef
12
18
00
de
ed
fe
0c
05
05
03
0b
00
06
02
fe
16
02
04
04
05
0d
11
02
ee
fe
19
de
05
fa
21
1b
bc
0b
ee
08
f9
d8
0b
f1
f3
ea
fc
00
10
f9
00
ff
f9
eb
ef
0c
10
05
f1
05
11
03
ea
f7
fa
18
06
f5
fc
ee
fe
f8
10
fd
1d
02
f6
f1
11
b6
d8
d2
19
00
de
ff
d4
0d
e3
00
e2
1d
04
e2
ef
10
2f
e5
0e
1d
2d
f0
f5
f1
e7
ff
0e
f6
f5
fe
09
fe
08
0b
17
23
0c
03
06
0a
0a
ee
fb
f9
ec
eb
ff
e1
04
0e
f6
f9
f8
f4
fe
fa
03
f8
06
1f
1d
1b
14
07
00
f4
f0
f9
e4
de
f3
ff
fb
ef
0c
0a
00
11
15
16
01
ec
11
01
07
16
05
ff
f2
f4
fd
f1
f7
d8
fe
ee
f7
e1
e2
f2
fe
f3
e1
f3
fe
f2
0a
12
ec
f1
1a
18
0f
08
0c
fd
d9
07
00
f5
d8
dc
c0
e1
ea
e4
f0
ee
f6
fb
ea
fe
fb
25
26
fa
04
19
0f
08
00
e0
e5
f1
e1
f5
f4
cf
ea
f5
02
f9
0a
03
fe
ea
d7
1a
14
0b
f4
f8
1f
fe
ff
fa
df
ea
f2
fd
0e
f1
f7
e0
fb
0b
13
00
0d
f9
0d
ff
0a
fc
f2
09
0e
df
f4
02
24
0d
f7
1a
0c
fd
03
d9
f0
ff
fc
fa
ee
f0
e4
e6
e2
05
f8
21
10
18
10
16
04
0c
fd
fc
f6
e6
ef
ee
00
0d
c3
cc
cd
cc
d1
ff
f6
d7
de
f1
03
e3
af
00
12
26
f6
f1
14
1b
02
f1
da
e4
f0
f6
0a
00
f5
06
11
ff
06
0e
0d
08
00
08
0a
08
03
01
1a
dd
df
f4
0c
0d
eb
02
1f
00
0d
f6
04
00
db
db
fe
e8
d6
14
e3
f6
f6
08
ff
dd
f7
fe
03
cd
07
ec
e9
ed
e9
e7
f4
e6
f1
f2
c7
fa
10
00
02
14
ff
1a
27
28
0a
f4
00
f0
fc
d9
07
e7
e4
ff
0c
0c
ec
f0
03
23
18
17
0d
03
0a
e0
e7
ec
fd
0e
03
e8
02
1a
0f
f9
0c
ef
fc
07
11
dc
00
f9
d6
f7
fe
16
f4
cc
f2
fd
19
ec
0e
f5
15
04
fd
f2
db
f3
f2
08
06
f4
f9
f5
09
13
07
18
09
0a
1e
0d
0f
e5
0b
14
ec
e6
ee
ff
02
03
f5
03
fc
fb
f5
11
f8
fe
f1
ef
0b
02
0b
ff
04
e8
ff
08
ea
ff
06
eb
04
ee
fc
e9
01
03
f5
ee
f7
ee
f3
f6
03
06
00
ff
fd
fb
fe
f6
fc
ed
ed
00
03
01
03
fe
e6
f8
03
fe
f3
05
0a
fd
08
04
02
03
ec
f8
10
03
00
0b
f6
06
eb
f2
fb
02
ec
02
f5
fd
00
f6
f3
f2
fe
ed
ed
f2
f2
ef
f0
f5
f2
eb
ec
fc
eb
ed
02
f3
f2
fc
f8
fa
e7
0b
fb
0f
fb
ed
00
f9
03
fd
06
f3
f9
04
08
fe
eb
ec
f6
04
e8
01
f8
eb
f5
00
ee
00
ee
f3
f9
04
00
ed
ec
ff
09
fa
01
09
ef
0b
f1
e8
0b
0a
fa
fe
fc
f9
04
fc
fa
f6
fd
f7
05
09
07
ed
fc
f3
f5
fe
0c
f2
05
f5
06
e8
05
ff
00
e9
f0
ed
13
fb
ed
fd
f9
01
fb
fe
fa
f6
04
0b
0a
07
f3
e9
f5
fb
05
f3
02
f3
f2
01
f2
06
ef
0a
ef
08
08
0a
07
08
08
ff
ed
0c
ea
f7
fe
02
f3
06
f2
00
f9
ff
ff
08
0b
09
f8
f1
fe
04
08
f3
0d
08
04
ed
eb
f3
08
fc
fb
f8
03
f2
fc
fe
01
0a
02
f4
07
f9
eb
08
00
ea
e9
ef
fb
04
fe
f5
f4
ed
eb
08
00
08
f5
04
fd
04
08
01
f6
ff
0e
f5
f2
02
fb
ed
f9
f9
08
ee
ef
f5
ed
02
fb
0c
f6
04
01
09
07
f6
06
03
fe
fc
ed
09
f5
03
f0
fd
f2
f4
07
01
f2
ff
f6
fc
eb
ea
f9
06
fe
ef
00
04
00
ef
07
03
fc
ea
0d
0a
ea
fd
02
0a
f9
ec
eb
eb
f4
07
f5
00
00
f1
f9
fd
f3
08
0f
fa
fc
05
ea
07
f5
00
fe
f0
f6
f3
07
f8
f1
fb
06
f0
00
fe
07
fc
08
f3
06
ff
f2
f5
fe
fb
fa
02
f9
00
f6
f3
04
f6
01
f4
00
01
ec
f3
00
f7
15
ef
f5
df
15
08
ef
02
08
1b
e2
e4
e6
28
f7
f0
fc
14
0d
f9
f7
00
2d
08
09
f9
18
17
21
fa
02
0c
0f
0c
16
0a
0d
fe
09
f9
f5
fb
f4
f0
0e
ff
f3
f2
f0
fe
13
18
03
0a
f0
f7
11
05
08
ef
14
13
ff
03
31
16
00
f8
03
14
fe
ee
f6
09
ef
10
07
07
12
fe
fe
03
10
f5
f7
13
0e
0d
ea
11
09
fd
ff
f8
17
02
e7
ff
ed
f9
06
f7
f9
02
ee
05
11
15
13
16
f7
00
09
fb
14
11
f3
f1
cf
0d
ed
f4
0b
f8
01
02
23
1b
1b
f3
0e
04
e9
16
1a
22
1a
f8
e4
1b
0d
fe
e5
f3
0d
0b
fd
eb
fa
ef
00
15
14
0c
19
10
10
05
03
0d
2f
13
07
e4
02
0b
09
fe
f3
00
02
fc
ff
f1
f9
03
ef
fc
f3
fb
0a
03
15
15
ef
e5
ec
02
1a
f3
d9
ee
fc
02
e8
f7
f2
08
17
fc
f9
0d
10
ff
f8
06
f3
05
1c
10
04
1b
11
07
fe
08
01
0a
e6
02
01
f2
e7
ee
fd
0e
06
f0
c6
f0
16
2d
13
02
04
17
22
f2
07
29
26
22
f9
eb
28
35
09
fe
d0
fa
02
00
05
02
f7
fc
09
14
06
22
07
0d
ed
f7
00
01
f6
f2
0e
08
06
e3
f1
0a
0c
11
08
f0
00
fe
15
eb
d7
d0
fa
ff
03
16
e6
ed
f6
06
fc
da
fb
0c
0a
08
00
04
0d
10
17
12
f9
fd
06
07
02
00
04
06
14
00
05
04
11
00
eb
04
01
0b
fe
e1
fe
da
ef
03
1b
00
e5
f0
fa
f7
25
f2
0f
05
08
f3
fb
ec
f2
10
0b
e9
ef
12
13
09
ed
fd
1d
f0
14
fd
1b
0b
e1
ee
00
11
fe
00
dc
fe
21
f9
0f
00
08
22
0c
ee
db
e7
00
11
1d
03
04
fe
fe
1f
0b
15
fc
00
10
14
fa
fa
f5
ff
f9
e3
e6
f6
13
01
f1
04
0b
f2
f6
f2
fc
f6
fe
ed
00
fd
eb
f3
06
f1
07
ea
f7
02
05
09
08
03
fa
f6
0b
02
fe
f6
0a
09
fb
05
f0
ee
00
0f
0c
02
07
08
fa
fc
05
fe
fa
0e
fa
0b
f7
fb
08
09
f1
03
f1
08
f2
f4
fd
01
fa
ff
06
0c
f6
f8
0c
03
f5
fa
03
f7
f5
f2
f7
03
fd
fd
f4
ef
fe
05
09
fb
f6
0c
ef
f6
f9
09
01
09
ed
f3
ff
fe
f9
0c
fc
ee
05
f2
00
0d
07
f0
fd
fb
0a
01
09
0c
f0
f2
05
f2
fb
06
0b
f5
fc
05
f2
f1
f3
f9
f6
fe
f1
f8
f3
ee
00
f9
04
01
f9
06
0f
03
fb
0d
fb
f7
f8
0e
f7
ef
ee
0b
f3
fe
0e
f9
f5
ef
02
0e
00
f9
00
fc
fa
02
f4
fb
0b
ff
f4
ee
0c
f6
0b
fe
0e
00
0c
ee
f3
07
08
f5
00
07
08
fe
00
f8
09
0a
ff
f4
ef
00
06
00
0e
04
fd
ef
02
fd
ee
f9
f5
01
00
07
02
00
00
02
0e
f2
0e
ff
f7
f7
05
02
01
05
fb
07
fd
f0
f0
f5
02
f4
04
05
f0
07
fe
fa
f0
fc
02
ff
f7
ed
0b
0b
ee
09
0a
00
08
fd
ee
06
00
fe
ef
f8
09
ff
fa
00
03
f1
f1
05
04
fa
f0
07
fa
0e
f6
ef
07
0d
01
02
fc
02
ef
f8
ed
f9
fa
06
fb
07
02
08
0d
fb
f0
ee
f9
f3
f8
f9
07
08
06
f7
fb
f3
fe
f9
ee
f5
f2
f8
00
fd
ef
09
f2
f2
ee
05
f6
fb
ed
f1
09
08
03
f8
00
f7
08
f4
09
ee
0e
0d
ef
f1
00
0b
f0
f8
fd
05
0b
06
ff
ef
f4
09
ff
0d
ec
f0
fb
0e
fb
ff
05
fa
0b
ea
00
0f
0a
ef
f8
0b
f8
06
ef
f5
ff
ed
09
ff
0d
08
f4
f2
f5
ee
0e
0c
f4
f6
00
04
fb
f1
08
00
f9
ee
00
ff
0d
08
f2
01
0f
f9
fe
00
ef
da
09
07
f7
05
e4
1a
07
02
f1
20
06
e5
e4
ff
23
03
f3
f3
1a
1a
eb
02
13
0e
0d
02
07
0e
fa
1a
ff
19
f4
16
1d
07
ef
fc
03
ff
0d
fd
06
00
ec
e9
12
1a
0e
ff
00
03
03
16
10
e6
01
0e
e8
f8
f7
1a
fc
00
f7
00
f7
09
00
f8
03
0b
fd
05
0e
00
04
19
12
10
1b
10
05
0a
19
fb
f5
fd
fa
05
fb
0c
f2
0b
06
e3
1e
12
f4
f0
f8
f5
0b
05
fa
f4
02
fa
ff
0b
01
0b
01
06
00
03
fd
fd
fa
fe
da
e8
03
10
04
e4
ed
07
00
00
ef
09
f9
ee
00
11
10
fb
df
f5
f7
11
0a
e8
f8
de
f1
07
17
0d
ee
00
f2
11
24
0e
11
ff
f9
fc
26
02
fb
ef
e0
03
fc
f6
f0
00
ff
05
f6
e2
f4
22
08
05
e5
f0
25
13
04
05
08
12
03
e6
0b
1c
ee
e2
02
05
13
f1
f2
03
0e
f6
00
11
fb
05
ef
fe
09
f5
0c
fb
ed
0b
f2
ff
fd
07
fa
13
06
f8
08
ec
dc
e0
e7
bf
db
e7
f2
dd
dc
e9
e8
e1
d6
ec
f4
06
fb
bf
00
04
0c
f0
f1
db
ec
04
15
11
f5
0e
03
fc
15
2b
05
0a
0d
fc
07
1d
12
f6
ef
fc
fc
00
ec
01
0f
01
0e
0f
fd
1e
20
19
c3
bc
01
fc
f5
04
f1
f4
e1
f6
19
25
e8
ff
fa
10
0c
ee
08
04
02
f6
eb
00
09
fa
05
04
fc
f6
17
09
0a
13
f7
fb
f7
0c
01
0c
05
ed
f1
e6
f2
14
17
14
0e
ff
11
00
0d
22
17
f8
08
0d
1a
18
04
11
fe
f7
fe
08
0e
0f
03
db
e9
03
15
fb
fc
26
02
0e
f4
12
fe
f2
fb
e9
02
f6
e6
05
09
03
ff
03
ea
f2
ea
0e
07
e9
f7
f8
07
25
0e
31
00
f4
04
0f
09
11
02
00
0d
ff
fb
02
f8
00
01
f4
02
f7
f2
08
fd
10
fc
f9
f6
09
f6
09
00
01
fc
05
f0
0a
0e
ed
f7
00
fc
f1
f3
fc
f8
f7
f9
f6
fc
04
09
09
07
f2
09
f4
04
ee
ee
0c
fd
fe
ff
f7
0d
09
ff
fc
0c
01
08
ff
01
ef
fe
0b
f6
f5
02
f9
04
ed
ed
f1
08
f1
f1
0f
ef
00
ee
f6
f4
ee
f1
fd
ff
f2
ef
f3
02
f7
08
09
00
00
f5
07
fc
01
07
f4
ff
fe
f7
f2
05
fa
f0
0e
02
fc
0d
07
ee
ff
0b
ec
f9
08
06
f2
0b
00
00
0c
f6
ed
0a
f2
f1
eb
ed
04
0e
0b
0d
02
f3
f6
08
ec
f5
03
f5
0e
0b
0c
f1
ee
03
0f
0f
09
09
fe
11
f3
0c
10
ea
0a
f5
f9
09
f2
ee
f9
0c
05
fc
fb
00
ec
ed
0b
03
f5
06
ef
01
ec
09
03
f5
fc
07
08
0b
f9
10
ff
f5
12
06
0e
ef
f4
0c
f9
08
ef
05
0c
ed
f4
e9
01
01
f9
05
f9
06
e9
fd
ee
06
fa
ff
f7
ff
f1
08
f0
02
ee
0b
f4
f0
f8
0a
0b
14
0f
ef
f3
f2
02
f6
fa
f4
f9
05
f6
05
f7
ff
fe
03
06
f8
0b
fa
0e
f5
f3
08
eb
f4
ef
08
ed
03
00
09
0f
fa
f2
00
ec
f4
07
f7
ed
f2
02
00
ff
f4
fa
09
0d
fc
ec
f4
00
f5
0d
f9
f7
fb
07
e9
fe
0b
fd
00
ff
09
09
fa
f6
fc
0a
f1
eb
eb
06
0b
fb
00
fa
ff
02
f3
07
f5
ec
f0
02
04
00
fd
fa
0b
01
06
0c
08
f6
07
00
01
f0
00
02
fd
ef
00
00
f8
ff
f4
0c
fd
fb
0a
0f
fa
f7
09
f8
eb
04
0b
00
f0
01
14
f6
f7
ed
0e
f6
13
f3
07
f2
07
03
02
00
ee
eb
01
04
f7
0a
0e
f1
ee
0b
01
ea
02
ff
ed
09
06
eb
04
ed
fb
ed
f8
12
f2
03
00
f4
0d
f1
ec
0d
fa
08
15
11
f1
fd
1a
16
03
e5
f9
f7
1a
f5
d9
0f
11
01
eb
f3
f8
11
f6
d6
f2
fc
08
0e
12
fd
08
07
0d
f3
fb
fc
0b
fc
01
0c
0b
1d
13
fb
ff
0b
0d
0b
ff
fb
10
04
03
f6
f0
eb
ef
01
09
05
06
11
07
05
f2
f2
f8
18
fc
eb
04
12
15
18
fb
ff
f2
0b
f4
fa
fe
f7
f7
fb
0c
ff
03
0a
11
0b
08
0d
00
14
f1
13
1c
18
07
fc
10
00
fd
12
0b
ff
f0
00
08
0f
f0
ee
05
11
01
09
ed
04
03
0c
16
07
00
ff
04
03
fd
fd
00
08
0d
05
fd
05
0f
09
f3
fe
17
01
f2
f5
0a
00
f0
0b
14
1c
18
fe
0f
f3
01
11
fe
21
0c
f9
f4
09
16
ef
05
f1
00
ff
04
f6
08
0e
01
19
0c
04
08
0f
07
09
fb
e5
e3
fb
07
fa
f2
f5
ef
ef
0e
ff
fd
17
11
f6
e6
fa
19
00
f0
e9
f4
00
12
17
12
00
01
f0
02
fc
09
03
0e
ef
f2
f7
03
12
ef
f1
fc
03
03
16
0e
00
22
31
25
28
2c
0e
1f
14
27
1d
0a
fc
02
03
21
ea
e9
f8
09
2f
ec
00
0f
10
1f
fe
ff
17
17
02
fe
08
f9
07
09
02
f7
0f
f8
ef
00
03
0c
08
06
2e
12
1f
05
0e
0c
04
12
f2
f0
13
04
14
df
d2
fd
03
01
fb
0b
06
24
f2
fc
ff
0a
f9
dc
f9
00
0f
0e
0d
24
25
f3
f5
07
0b
00
0f
0e
fa
f7
0e
0c
02
07
06
03
07
0a
fc
09
06
f2
00
ef
00
00
02
f9
f8
06
07
fa
e3
fe
03
0c
0c
f4
0d
fc
fb
01
23
00
f9
fb
09
08
05
e7
f6
00
f3
09
17
10
14
04
f6
de
0b
17
00
e2
f5
0d
0e
f8
fd
ff
01
eb
ed
f3
04
fd
f7
fb
07
f7
f6
e8
04
0a
f8
fc
f8
f0
13
f9
01
0b
2d
12
f2
0f
05
fc
0c
ef
fa
fd
f5
f8
0b
fe
0b
f1
03
f6
f3
09
f5
0b
0b
10
f4
02
fb
fd
ef
06
f6
fe
0a
fd
f1
07
f1
f2
0d
f1
f0
ff
ee
ed
fc
f3
ff
04
0a
ee
04
0d
f0
00
ef
00
f7
f0
ef
f3
08
fe
07
f5
f1
f1
f2
07
f2
ef
ed
f4
fd
ed
f3
06
07
fd
07
ed
01
fc
f1
fe
00
ef
fa
fd
fa
f9
f6
06
ed
05
fe
fc
0d
f2
f6
08
01
f4
00
0d
f7
f1
ef
01
f3
f6
08
ef
09
00
0a
0a
f5
03
04
fc
07
ee
fd
0a
02
fa
fb
01
fb
ee
f0
04
f9
02
0e
f3
fb
fe
f5
07
03
00
f6
f9
f4
07
05
f2
f9
ef
f1
0d
ff
08
03
ed
00
08
00
0c
01
fa
f7
f2
08
ee
0a
f2
fd
04
f4
07
f6
f3
02
05
08
ef
fe
fa
0c
fb
01
0b
f0
f6
f6
fa
f4
fc
fd
0d
f1
fe
f0
02
f8
0a
04
09
fe
00
f1
00
ef
06
ff
fa
0a
05
fa
00
08
f7
f5
03
00
f1
fe
f9
08
fc
ef
0a
f9
fa
f2
02
ed
ed
05
06
fe
10
f6
f4
f9
ed
fe
ef
00
fb
f7
0a
03
ff
00
02
00
f7
03
f6
fc
fd
07
00
05
fa
ee
08
04
05
f6
f1
09
04
0b
f4
f5
09
fd
f7
ed
f9
fc
0d
ff
01
0c
08
f4
f3
f2
fa
00
f6
0d
01
f6
0a
0c
0b
f4
0a
f9
0e
ee
0a
07
ee
00
fd
01
f4
0c
fa
f7
fd
00
fd
f5
f5
02
f1
fa
07
f8
01
0c
f4
03
ff
05
0b
f8
fb
06
06
02
04
f8
f9
0c
f2
f5
00
05
f5
05
06
0c
06
03
f8
ef
00
fa
ff
ef
00
fc
f2
04
03
f2
f5
05
0c
00
f5
03
f5
f6
03
ed
ed
f2
ed
ed
04
0f
fa
fd
00
05
06
f4
00
0e
f9
f0
f5
fa
09
f8
fd
07
fb
f8
f4
f1
fa
f0
f9
ff
09
0d
f6
05
f1
0a
0b
05
fa
0f
fa
ec
01
e7
fc
f3
00
09
0f
14
01
fb
10
14
11
f7
1f
34
16
ef
f8
19
16
06
fe
05
14
00
00
02
0d
0e
18
f1
f5
f4
0d
0a
00
e6
03
fb
05
f0
f5
f3
f5
e9
03
14
10
04
1a
11
07
0d
08
12
fb
00
04
f7
01
07
11
fc
02
0b
ff
fd
ee
e6
ed
04
03
0d
05
fc
fc
07
f4
19
fe
05
f5
0c
0c
ff
fe
03
00
ff
fb
f7
04
00
f7
ec
f4
0f
ff
03
fe
00
17
09
f6
fa
0f
02
f2
17
10
00
09
14
0f
fd
f0
08
fc
11
00
f4
19
12
0b
fe
16
21
07
14
f7
fc
20
15
fd
0c
fa
13
01
f1
00
f2
f6
e2
f7
f6
fa
05
10
04
16
f0
12
03
0b
14
08
03
04
07
00
fc
f2
fd
04
08
01
fd
f2
f1
f6
05
f6
e0
f9
f9
f3
00
fe
0f
0e
ee
09
f5
00
f9
f7
f5
ef
04
f9
08
fa
06
17
06
08
0b
1b
16
08
1a
16
0f
1b
ff
05
0b
14
11
1a
05
04
f6
f6
f3
f2
ee
f5
ee
01
f3
04
fc
13
04
01
05
1e
06
fe
08
04
13
fd
ed
e4
26
0f
17
fa
d5
03
13
f8
e3
c6
0d
f1
04
05
0c
0a
07
0d
f6
15
ed
f4
f0
01
0a
05
e8
03
0e
02
ed
e9
e4
ff
f5
06
fa
03
10
0f
1b
fe
f6
f3
f8
06
f8
1f
08
02
f6
ff
0f
f7
fa
16
04
12
0d
18
f4
f3
00
0d
07
08
21
0f
07
f8
11
04
1a
1d
0f
f0
ed
14
f2
eb
f9
08
0e
fd
ed
fd
ed
06
ff
0a
f3
ed
f0
06
06
0e
19
f9
17
1a
0d
0b
08
13
0d
00
e7
13
19
11
ee
f8
00
07
f4
fd
fc
17
0b
fd
fc
fc
01
f7
03
e8
0d
03
fe
0b
01
00
15
10
fc
0d
0b
f8
0b
fe
f1
eb
ff
0f
0c
ef
ff
ec
14
13
0c
02
ed
fc
00
f4
d9
01
ff
00
fc
09
04
08
ef
07
fd
01
09
0e
07
f5
0b
f2
fb
f7
04
05
02
f1
0a
01
0d
fb
f7
f9
00
01
06
08
0c
f1
05
ee
09
f1
f8
f5
00
05
f9
fb
0a
01
f8
ee
07
f6
f1
f6
ee
00
09
05
06
0c
fe
0a
03
f1
07
fc
f2
01
0c
0e
f1
0b
08
03
05
ee
ff
f0
ed
ff
0e
fd
ed
f5
02
f6
fc
ee
fc
00
f3
fd
f2
f8
f0
f7
f1
f1
07
f6
06
00
00
fb
f6
00
0e
f7
0b
f3
ef
00
fb
f4
ee
08
03
ed
ed
00
f5
06
07
01
08
ed
fe
f0
f6
ff
f3
0b
f2
fd
03
f7
f0
02
05
f0
fb
f1
04
f8
05
f6
02
f8
08
fd
03
0d
04
f1
04
07
f0
07
f2
0d
f3
0e
ed
fc
0b
fb
01
fa
08
ff
ed
ef
fc
08
fe
0a
0a
06
fc
f3
01
00
fc
08
00
f2
f6
0a
0c
0e
f0
ed
08
f3
05
fa
f4
01
00
f2
05
f7
fb
06
0a
09
04
f2
00
ed
08
f6
08
f3
fb
f7
0e
f8
07
fb
f4
0c
f2
fd
05
0c
0e
0e
ff
0d
01
f3
ee
0d
f8
f0
07
f0
05
fd
f0
08
04
01
f5
ee
01
f5
f7
0e
07
0b
0e
06
ee
f7
02
ed
0e
ed
0a
fd
fe
f8
ee
0e
05
0b
ff
f6
0b
01
fa
f1
f5
0d
00
fd
ee
02
f7
0e
f2
f8
fb
01
f2
fa
0b
f6
00
06
00
04
0a
fa
f2
f3
f7
04
f8
ff
f5
0e
02
f0
f5
f3
06
fe
ed
fe
01
f4
fe
ef
fb
f2
fc
f6
00
fb
fd
fd
0c
f8
ed
f3
ee
ed
0d
07
fb
0c
f5
f4
01
ed
ef
f3
ef
06
f7
f8
fb
f6
08
06
07
09
03
ff
05
07
ff
0e
f4
f4
0a
ee
04
0c
00
ef
ff
04
00
fb
0e
00
f6
ee
08
0b
0a
f3
fe
07
f8
04
fb
ff
f0
f4
f1
07
f7
03
0c
fc
09
0a
03
fc
0b
0a
f7
0d
f8
04
f2
02
00
08
02
04
fb
0c
0c
fc
ed
f4
0a
04
00
ed
0a
08
04
04
fa
00
0b
f4
0c
ee
0a
02
09
f7
ee
e9
04
fe
ee
06
ea
07
00
08
01
03
eb
05
f3
0d
f0
ee
f0
f2
fa
fd
03
07
f8
03
07
07
0b
04
e9
09
f8
fe
05
fc
10
0d
ec
0d
00
f9
08
05
00
07
e9
f0
f6
eb
f2
01
f7
00
eb
ec
eb
06
f3
f8
e9
fc
ef
02
06
ff
eb
fd
fd
ff
ed
03
08
fc
02
02
08
0a
09
f2
fd
03
00
f4
f3
05
00
ff
f4
0d
14
14
f5
04
f5
f4
0a
05
f7
fd
ec
07
fc
02
06
04
01
00
f6
06
f7
09
f1
f1
f7
f5
0e
f5
06
0a
e9
07
ff
f7
f6
f2
f3
02
f1
f0
fa
f5
f3
ef
02
fc
03
f2
ef
f2
01
00
0c
ef
ff
01
fb
fd
f7
f1
07
ed
f6
fe
f9
f6
05
0f
f5
07
f2
13
f8
ec
ea
ff
03
ff
fd
0b
f0
07
06
f5
f4
fb
00
01
f7
e7
00
02
f5
ff
f3
f3
fc
f3
ef
04
f4
fe
05
07
05
00
01
fc
00
11
11
0e
f8
e8
ff
02
03
ff
04
f2
03
ea
fe
ff
f1
ee
ee
03
f3
06
09
11
17
f8
05
07
f7
fd
0a
fe
01
01
f3
00
03
08
0b
f0
01
06
f5
fb
f6
04
f9
0d
fe
ec
00
ef
03
07
01
f6
f0
01
f6
ea
00
fd
13
fd
f8
f7
fc
0f
04
04
f3
ed
f9
f9
e9
fd
01
04
ed
fc
04
f8
00
f4
f9
f5
ff
fe
fa
f9
ff
ed
fb
12
fd
f2
f5
0f
09
08
eb
00
f0
09
f2
00
09
ee
f1
01
03
fe
f7
0c
f9
f4
08
fe
eb
fe
e9
f1
ed
09
fe
fd
ef
fb
f5
07
04
09
00
05
f2
08
f0
06
09
f0
fc
09
ed
ff
0d
09
f2
fb
00
04
f3
11
ea
08
f4
ed
f1
ef
0a
f8
f9
07
09
fe
07
ef
e9
f2
0d
f9
01
ff
06
f5
f7
00
fb
f7
0e
f6
fa
f0
01
0e
f9
00
0c
f2
ef
01
0b
f9
09
ef
06
00
f0
07
0d
10
09
03
f4
ef
f9
ef
0a
00
f2
00
f0
f7
f7
ee
ee
f8
ff
ef
05
0a
07
f4
f5
fc
f3
0e
f1
f1
f4
05
00
02
00
0d
f8
03
ed
02
07
0c
08
fc
fa
fe
0a
07
06
f1
f2
01
06
f2
03
0c
fc
f8
f1
f5
ef
f4
02
03
00
0b
f4
fd
01
07
f6
03
f5
fa
fc
fa
01
ed
f4
02
03
f3
f7
ff
f9
08
f9
ee
f4
0a
ef
f2
03
00
07
f6
05
fc
fa
f9
f0
08
f8
f5
07
01
ff
0d
fc
f3
02
06
fe
05
fa
fd
0d
fe
fc
0d
08
00
ef
f4
f8
0d
fb
0e
fb
fd
f2
0a
0e
08
f6
f8
ff
fc
f2
f5
f7
f0
ff
04
fb
05
0a
f3
fc
ff
f4
f5
ed
f4
05
09
0c
fe
ff
0b
01
f0
0b
00
02
fc
fb
f5
f2
fb
fd
09
f5
ff
f5
f3
ee
0c
fa
f0
01
f2
0c
10
fa
f4
10
fa
00
0b
fd
04
f0
f9
05
f5
f4
09
ee
f0
02
00
09
f8
f0
0f
10
ff
fd
ef
fe
00
0a
fa
f6
00
0e
0c
03
08
f9
00
f4
ee
f7
0a
0b
0e
ef
07
f8
0f
07
fe
f2
fc
f0
fd
fc
f2
0a
f0
04
f6
f7
f4
f9
07
fb
0a
f3
ef
f0
01
08
02
07
01
03
f6
f7
05
10
fc
f4
06
f9
fc
f1
ff
0e
f1
f7
f0
00
ed
00
f6
00
f2
f7
f6
06
fd
fb
ee
0b
00
02
fb
04
01
05
0a
ef
ed
0d
0e
0d
f6
06
f6
f3
f9
f2
ff
00
0d
f9
02
f7
07
0d
09
05
0b
f7
00
02
00
f3
ee
09
0d
f9
f9
08
0e
0d
09
08
0f
08
01
05
f1
f8
0d
fb
fe
f6
0c
00
00
07
0c
f1
f4
fe
00
f1
02
f0
f5
fa
f2
0a
04
04
f0
0a
f3
fa
0d
ee
07
ef
0b
0a
0d
f1
01
f7
0f
f4
f9
0b
0c
12
e8
c8
07
e8
05
e5
db
f7
fd
01
09
13
e9
f8
d9
04
08
f6
0a
14
05
03
f1
f9
f4
10
09
08
23
11
06
f7
15
0b
0e
f7
08
f8
f7
0f
0d
0f
0e
f1
f1
ef
06
ef
f8
fa
09
11
ea
07
df
0f
fe
0b
fc
fd
17
00
01
0b
fd
f1
f1
f3
fe
e7
05
03
0d
11
09
10
fb
fb
05
05
fd
f6
f8
07
1c
0b
04
fb
06
f5
04
f4
10
f5
ee
f9
00
02
0d
e6
03
fd
03
20
ee
fe
ec
f9
09
1c
04
01
fb
0a
0a
0c
0b
0c
ee
f8
ef
e4
ea
f4
f2
eb
f3
ef
1f
f4
06
04
ff
1b
11
14
07
11
fa
0c
f5
05
16
07
f7
e8
ff
02
15
0f
06
de
f6
01
11
20
ff
f8
f0
20
12
22
10
02
f4
0a
fe
04
fb
00
ee
f2
00
f8
31
29
10
05
20
22
1f
f3
10
12
1a
0e
fb
0e
14
04
f8
12
11
f8
0a
fc
fe
03
04
04
f7
fb
f4
14
fb
0e
f1
04
20
25
16
0d
00
08
07
ec
0d
04
f2
fc
f4
fc
f5
fb
e8
d2
d3
e4
f5
e9
d0
f8
03
0a
f8
fb
0c
13
0b
15
1e
14
02
14
09
f2
fb
ff
e7
10
01
0b
04
07
23
12
01
fa
f5
06
1d
16
ff
f8
ff
fc
0b
f0
0f
fd
05
ee
08
02
02
0f
15
13
24
16
0a
fb
1a
21
16
ec
ec
0b
f3
f8
f0
ff
e6
d8
f7
05
11
e7
10
13
09
e5
f2
03
f4
fc
ed
e1
f6
06
07
1a
f8
f7
10
13
0b
19
10
01
ff
f0
f3
e8
0a
0a
04
0f
fd
13
0e
16
08
00
fd
02
14
00
11
de
08
f7
08
00
00
00
14
02
09
0d
f8
e9
13
05
03
e2
ef
08
0b
f0
f3
0f
eb
1a
10
02
03
01
0c
13
04
f4
07
d6
0b
08
0d
f7
15
1a
26
16
03
05
f8
14
0c
03
03
04
01
05
f3
00
fa
f7
00
1c
0a
f2
fb
f9
ff
00
0c
f4
1b
0f
02
02
f7
11
fb
0f
08
18
fd
f0
fb
04
00
f9
0c
0b
fd
ff
ef
08
00
02
f9
f7
e8
e8
00
e8
01
03
fd
f4
f0
0a
06
e8
07
f5
03
f0
f5
f4
e9
f7
06
f8
fe
fb
ec
04
f7
f4
ee
f9
0a
f9
08
f5
00
02
f3
f2
02
00
ee
fb
f8
02
ef
ed
f7
f4
ed
f5
f5
eb
ec
f1
f8
fd
f0
01
f8
09
ea
f0
fd
00
ed
f2
07
fc
f9
01
e6
f0
03
10
f7
08
f9
03
e6
e1
f1
ee
06
f4
f8
05
fb
fd
f1
fc
fe
f1
00
ea
02
ff
f3
f6
fe
f0
06
08
e5
ee
00
e3
01
fa
ff
fb
f9
e4
05
eb
06
f8
f3
fd
f0
fb
f5
f5
01
fc
f8
f7
f3
f6
e7
02
09
f3
ee
0c
00
06
0b
07
f2
08
fe
fa
f8
f0
fe
10
15
ff
04
fe
f5
07
07
02
fa
0f
02
ee
fd
fc
02
ff
f5
f8
ff
f6
ea
0a
18
ff
e8
fa
f0
ec
f1
f4
10
ea
f4
f9
e6
e7
00
fd
0e
e8
f1
f7
f9
e6
fa
fc
0d
01
f9
09
07
17
04
fb
fd
00
ee
f7
0a
f5
fa
ff
eb
03
00
ed
ec
f0
f7
0d
f0
fc
fc
ec
03
04
f8
ea
00
ee
00
eb
f2
00
ea
00
0c
0d
05
ef
fd
ed
00
f7
f2
ed
00
ff
03
f0
03
ec
03
0e
f6
03
ff
f8
05
fa
fb
fc
03
10
f1
00
e2
00
01
f1
0c
fd
04
06
ed
f4
e3
04
fe
fe
fc
00
f0
01
f6
ee
05
04
f7
0e
f7
08
ec
fa
ec
f0
f0
ed
fb
0e
03
0c
00
fc
00
f0
04
f9
03
01
ef
f2
fc
f4
ee
f7
05
ee
f8
08
f2
05
fe
05
ed
f1
09
fa
03
14
11
06
ea
0d
08
08
07
fe
eb
fd
09
17
0f
f8
f9
01
ee
f5
f4
f4
09
0d
06
f0
fe
eb
06
f7
00
ff
f3
f4
f4
03
f9
03
0c
04
00
00
f7
ef
0b
1f
27
59
fe
15
11
10
18
09
03
f3
f6
f4
14
f0
ef
dc
f8
fe
f6
e1
01
1e
05
00
fe
e8
f8
ef
02
fa
e7
01
01
f9
06
02
00
00
f6
05
f8
11
f4
0b
17
06
f7
07
05
0d
fd
01
ff
0c
fa
0f
0a
f0
03
0c
e5
0d
e5
12
f8
fd
04
f2
0d
1c
f9
0f
0b
05
fd
f2
ec
08
fb
06
01
03
09
f5
fc
f8
18
0d
fa
ef
10
04
09
04
fd
00
fc
07
23
2b
14
05
f9
01
fa
f7
f2
fe
ee
0e
f2
ee
03
02
fe
04
05
07
0c
09
10
05
f3
07
0b
13
fd
d4
00
00
1c
1b
f3
f8
0b
08
08
04
0b
01
05
fe
19
03
17
05
f7
f6
e7
e9
e8
ff
00
00
fd
06
03
10
04
01
0f
13
0d
10
03
fe
f6
13
05
f7
f9
eb
19
1d
0b
02
da
2b
0e
04
fd
d2
0f
12
09
f0
f6
f1
ff
fb
f3
1a
e9
fe
e8
07
0e
f2
fd
16
09
16
00
03
15
fd
fa
00
ee
08
f7
f2
0f
fe
01
fd
00
f6
04
19
17
0d
f3
e8
dc
1b
64
e4
f4
04
06
4a
dd
e6
ee
14
11
e9
ea
02
fb
d9
13
07
11
0e
fa
00
f4
03
fb
eb
0c
fc
f1
fa
03
1c
06
08
f5
fc
0e
0b
10
03
fe
f6
01
f2
e9
00
1a
00
0f
fc
02
02
06
03
f9
f9
07
04
15
ef
00
fd
07
fa
f3
e5
e6
f3
0c
09
0d
05
f2
07
fb
13
eb
ef
0e
14
10
fc
fb
ed
19
16
0a
00
e6
07
f9
12
15
0b
03
03
fd
16
09
f2
08
00
1f
fc
0b
0b
12
0a
08
06
06
1a
02
11
f7
fb
ef
ef
e9
ef
02
11
f3
ee
dd
37
03
0a
eb
ee
4b
13
ff
fb
02
2f
09
fe
fe
f1
d6
11
f2
ff
10
f3
fb
00
01
f7
e8
fe
16
f6
fe
f2
27
18
12
08
f8
14
1c
0e
02
15
f8
ff
00
ff
f8
01
0e
e3
ce
e2
01
08
db
e8
f3
13
08
de
db
0a
00
00
de
ea
ed
ef
fa
b6
ec
08
0b
02
12
0d
fc
1d
05
0a
0a
11
07
15
f9
0e
18
01
09
09
f9
07
00
fe
f1
f0
f3
1c
fe
08
f1
06
0b
ef
0f
05
ff
ea
ec
ee
09
0e
04
0e
0c
fe
16
fc
f1
f0
05
02
13
fb
14
16
0d
02
14
f8
06
1a
03
0e
08
14
fe
f5
fe
f1
fa
f2
13
01
fd
f8
f3
00
f5
f0
f3
f2
00
00
ff
16
21
e5
f4
06
18
16
f9
05
f5
0f
0c
f0
f7
05
15
fa
06
21
0e
0e
16
12
fc
10
ee
fd
fe
0f
0b
03
12
f2
11
0a
f5
04
0d
02
ff
e6
d9
03
04
11
11
e4
16
12
f5
00
e9
09
25
07
0e
0d
fb
fe
0c
0d
eb
11
00
e7
f9
db
f8
fb
df
ff
fe
00
f5
f9
fe
04
df
ed
01
f3
ee
f1
fb
0d
06
03
ed
e8
0a
07
ff
15
15
fa
01
f8
00
0b
fa
14
13
00
06
0d
0a
1a
e6
f1
f7
f7
f2
ef
f2
fe
f8
f9
0e
14
19
2b
db
fc
14
2c
15
ff
00
25
00
14
23
10
1b
11
1b
fa
06
17
1f
f0
ca
02
ff
f1
fb
1b
1e
0e
02
0a
16
0e
f8
14
08
fa
f1
f1
f7
02
13
01
f0
ff
fb
00
09
f0
05
f4
0a
fd
f7
e2
e6
ed
ea
ee
16
03
fd
f6
25
12
ec
cc
f7
01
e8
f6
d4
ff
1f
13
1f
fb
0e
1b
fb
fb
1a
14
0c
06
0e
13
e7
f2
fb
12
09
f1
05
f1
f5
e1
10
ec
ed
00
05
09
f9
e9
e6
08
1c
06
fa
ff
f8
07
00
f9
05
07
00
ec
05
02
07
09
e9
e2
f2
c1
11
16
00
ef
cc
15
0b
06
ee
0b
04
ec
fc
12
07
03
0f
fd
e7
f7
17
e3
dc
fc
fe
0f
01
03
fc
11
0e
ec
fb
00
0b
12
fd
fe
fe
1a
04
12
ff
11
1b
f7
04
12
1a
66
14
01
07
f5
21
0c
fb
05
e8
ce
f7
fe
e1
df
07
fb
ff
fb
0d
1f
08
0b
fb
fb
ee
02
09
f5
fa
0c
0b
fc
f5
00
20
0f
13
f8
00
0e
04
0f
ff
12
f5
0a
04
08
0e
f2
e7
0c
0c
02
e7
f6
00
04
f1
10
f3
06
15
fd
11
18
04
07
fb
f7
f9
f7
e4
e1
e9
0a
f7
07
ee
05
f4
10
05
01
20
f9
06
f6
fb
18
0f
13
11
13
06
f6
11
0c
1b
15
f5
0d
fc
11
f8
f6
f6
07
f9
e8
00
f2
f4
05
11
0e
12
05
1d
04
02
e6
07
fa
ff
de
f8
02
13
f9
f9
16
0d
0e
fe
1b
02
00
fd
04
06
05
07
12
01
06
f6
f6
f3
f3
e4
06
01
f2
f8
01
12
04
00
f6
0f
13
ee
11
01
0f
f6
00
0a
06
20
00
1b
00
f7
08
fd
18
f3
d8
09
0f
05
ed
fb
e3
ed
ee
05
fc
e1
f3
ee
04
0a
f0
ed
07
06
06
00
fb
f4
f0
f2
f6
0c
05
fa
fb
fe
f7
f9
0f
16
09
12
1a
00
0f
cf
d6
ec
06
5e
f0
f0
f3
17
46
f5
ff
07
18
16
0f
10
26
17
de
10
06
05
00
ff
0f
00
00
08
00
f8
02
f4
f9
f7
06
f9
fb
fb
06
fb
10
f8
ec
01
ff
0d
f8
ff
ff
0f
03
04
0a
09
ff
02
16
fe
05
0c
01
0e
ed
fc
fc
e5
00
f2
e5
f1
f3
1c
05
07
1b
0d
02
ec
11
f4
01
fd
ea
fa
f5
f8
09
02
fd
03
00
f9
f3
08
11
11
f6
00
07
f9
03
f7
07
e9
03
0e
fc
13
0a
1d
fc
09
f6
ef
0d
04
0b
e7
08
04
f7
f6
e8
f3
12
0d
00
d2
34
fe
04
e9
f3
31
f3
07
fa
09
2c
0f
fc
0d
07
de
f4
ed
f0
00
f6
fd
03
fc
fa
ed
09
07
05
e9
e4
24
1a
0a
f7
04
00
0a
13
07
05
fb
f0
f2
e7
05
08
f6
e9
03
3a
05
fe
eb
f4
1e
fb
f9
05
0d
e1
17
0a
0a
f4
03
0e
08
ee
00
24
00
fa
04
f1
0b
12
0d
15
f9
12
10
02
ed
f8
19
00
f8
fa
f4
f7
02
0d
07
0f
f1
eb
03
0b
f7
15
f3
fe
02
f8
02
fe
0d
0a
f7
10
ec
fe
08
0c
16
e7
07
11
0a
0c
06
18
05
00
0c
17
0d
05
f5
17
19
0a
f4
01
11
f3
01
f2
fc
f9
ec
0b
f7
03
ff
f1
01
f8
ff
13
e8
fb
06
0d
06
00
01
f9
e8
0d
f4
03
01
fe
12
f7
f8
08
07
0f
e9
e0
f1
07
0a
04
12
0b
08
22
1c
f4
eb
10
08
01
f6
f3
f5
f8
fc
02
fa
f8
de
0a
ea
d6
e5
17
0b
08
fc
04
36
23
0c
12
05
19
1b
09
ff
0b
0b
13
0c
03
e6
fd
17
34
11
e8
00
1f
2e
0c
02
f0
07
28
02
00
ee
17
08
fa
13
fc
fd
fe
0f
12
14
ee
01
0a
f5
26
10
fb
ff
fb
1b
11
fe
eb
08
fa
fe
e6
ec
0a
fe
01
00
11
00
fe
e9
df
01
2b
69
e5
d7
de
15
49
f5
e0
f6
0d
36
09
fc
03
eb
f8
f0
e3
f7
fc
e8
18
04
03
f1
ed
1d
16
0c
06
f2
02
18
09
fe
f8
08
f7
f7
06
0a
fc
0e
09
10
f9
0a
fd
15
17
12
f4
16
0d
2a
32
fd
0a
eb
f1
fa
02
05
f1
0c
fa
0c
f9
0b
08
19
f8
e8
e1
f2
0b
0c
f3
03
13
32
0d
04
09
15
05
18
08
e1
f9
f2
fe
ed
f0
f0
f4
1c
18
25
00
ed
00
3d
2d
f7
f1
00
fb
13
fa
09
ff
08
0e
ff
07
f5
17
0e
19
00
17
fd
f3
f2
41
00
fc
e0
fa
45
0e
05
13
07
41
1b
f1
e9
0e
f0
1a
fa
ea
fb
0c
21
22
03
ea
e5
14
48
24
ec
df
02
0d
0d
11
06
f2
0e
1f
12
04
ff
0a
1e
13
05
ef
fe
08
05
fa
fd
0b
0a
07
01
02
fe
f9
09
f8
ff
f0
fa
f8
eb
ed
06
0a
00
09
02
f9
f3
fc
f2
00
f6
f6
0a
fd
f5
f1
fe
00
f5
01
08
f2
01
ee
0b
00
ec
ef
f5
00
fb
fc
ec
06
10
0c
00
f0
04
f2
fb
00
f2
ed
f6
02
f3
fc
0d
05
0a
03
f0
f5
fe
f5
f6
ef
06
f0
f2
fa
ed
eb
fb
f9
02
f9
04
07
f1
03
05
ff
f1
ec
00
00
f0
f3
f9
08
f4
01
05
f7
f6
06
f1
ff
eb
0b
05
f0
09
ed
ff
ed
f4
fd
fc
f0
07
0a
f8
07
f1
fe
f4
f9
f3
ff
fa
f7
f4
fe
f6
02
f0
f1
ec
0b
fe
00
04
ee
09
09
08
02
fa
f1
eb
fb
0a
01
f4
ec
05
0c
07
f1
f3
fc
ef
fc
ff
ec
0c
f0
f5
09
f7
10
03
09
0e
00
0b
01
0e
02
f8
fc
07
f9
04
f6
10
fb
0c
03
f3
01
08
f1
09
0a
ff
0a
fc
07
06
0b
f3
fc
fc
fa
fe
f0
ec
fe
06
f3
03
fa
06
08
05
07
f4
f0
0b
00
07
ed
09
f4
f5
f4
04
fc
0e
04
f7
06
0b
eb
fe
03
02
06
fa
f9
f5
03
f8
f5
10
02
fb
07
00
07
05
fc
f5
ff
08
01
05
f2
fa
ee
07
f0
f6
02
f0
f5
f6
05
fd
ef
ec
fa
fa
f7
f2
f3
04
0c
f6
f4
ee
f5
f3
07
f5
f0
0c
eb
fe
ef
f5
f5
0d
06
01
05
f2
f6
01
f8
0b
ee
0a
f0
ee
f7
fc
07
00
09
f7
00
fd
02
ec
fe
01
ee
00
f4
04
f3
ef
07
fc
ff
09
f3
01
03
f3
f4
f6
eb
eb
ee
0c
fb
f1
f4
0f
0c
04
f4
f3
f4
eb
09
f9
f8
09
01
fb
0a
f9
02
f3
0e
01
01
ff
f5
05
eb
05
ec
04
eb
fd
ff
f9
fa
05
eb
00
07
f5
f8
eb
00
f3
0c
f6
eb
03
04
00
08
06
f7
f0
f8
0c
f3
f8
f6
e8
fa
10
05
f3
fd
f2
00
f6
ea
07
0d
f1
01
08
ec
f5
02
05
e6
04
0a
fd
fd
ee
01
f6
f6
fd
fd
08
02
04
00
06
08
0d
0a
f0
03
fe
04
f6
ef
05
0b
03
00
ff
ef
e7
f4
f4
fb
fb
06
ef
ef
f3
f6
f7
f6
f5
05
07
f9
0d
e7
00
0b
f3
0a
f4
ee
f1
fc
fc
e8
0a
f8
f0
f1
08
fc
0d
fb
e9
f9
09
ec
f3
ea
ec
fd
09
f1
eb
00
f3
05
08
00
ec
07
ee
05
0b
03
f2
0d
06
04
fc
04
f1
03
04
01
f0
fe
fd
e9
02
f4
e9
e6
f8
f0
ea
fa
05
fa
e8
06
f4
00
08
f6
f3
09
06
04
04
09
07
ee
00
f6
04
07
02
07
f6
f6
0b
f0
06
00
fb
01
f4
f7
03
ff
fa
05
0b
f2
0b
f8
f7
fb
f8
01
04
02
f1
ec
02
f7
fd
fb
05
fa
10
fe
f5
fa
08
f3
00
f8
00
0c
f8
0b
01
f5
fd
05
01
f4
fd
f9
ee
f8
fb
07
02
06
f9
fe
02
f8
f0
0a
fa
02
05
09
05
fa
0b
ef
f2
01
fd
fb
f9
f2
f6
02
f4
f4
fd
fa
e9
03
08
f9
f0
0c
0a
f8
06
f6
06
ff
0c
ee
07
fc
f6
fa
ff
ff
f6
f1
f6
fe
ed
07
f3
05
02
0d
05
04
04
06
f7
ed
f3
06
f5
02
f1
ff
00
f2
ef
ee
05
0d
fe
ec
ec
03
f6
f9
f3
e9
03
ec
fa
e8
fe
f5
f8
01
03
03
f0
0b
02
07
f0
03
fd
0d
f3
f5
f9
f5
f9
03
f5
ed
f5
fd
05
f4
00
f3
f1
fc
fc
f9
04
f9
fc
07
f6
ef
f2
ed
00
01
08
ec
0c
f9
fb
ed
01
03
ed
fe
fc
eb
02
0a
f3
0e
08
eb
f6
00
fd
07
f7
fa
fb
04
ec
09
f1
f3
ff
fa
07
f3
00
fe
0d
ed
04
05
f9
fd
03
ff
fd
fb
f1
ee
08
01
ec
02
f8
fe
05
03
e8
05
02
f4
ee
06
0c
30
02
1d
f4
08
07
1e
11
1a
19
f8
fd
04
0d
e7
06
0e
fd
14
f8
01
07
13
fe
f0
02
00
f6
f7
f8
f3
ee
fc
f5
0c
0b
0d
17
00
00
01
13
1b
09
11
08
06
0d
18
fd
03
f8
09
17
fb
f5
f9
ef
02
10
f4
fe
18
15
13
0b
f6
0c
10
21
0c
fa
06
04
fd
02
f8
e7
f3
ec
0a
10
f1
f8
fa
00
06
07
12
17
0c
fc
18
19
0a
04
1c
0f
1d
fd
fb
fb
f6
13
12
03
f4
ea
ee
0d
f6
05
ff
06
10
00
04
21
1d
05
12
19
0a
0e
0d
05
0e
f8
f0
f2
ed
f0
df
fd
0e
13
ff
15
1d
11
f2
f3
00
19
21
17
08
18
fe
fc
14
1c
05
ed
e7
f7
f3
f8
00
ef
fe
04
ec
16
1e
05
00
10
fd
13
09
09
13
f4
ed
fb
17
06
00
f3
10
08
fc
f6
05
fb
f0
fb
ec
02
f5
0a
03
f5
fa
07
12
f9
0e
0c
fa
fe
ec
f8
f4
00
ef
e8
f3
08
13
00
00
01
00
fc
04
15
10
08
16
11
17
29
44
0c
e1
f1
1c
0f
f1
ed
e1
0c
f0
fc
fd
f9
0e
10
10
09
07
11
08
0a
0b
32
f7
eb
0a
13
fe
dc
ed
00
f8
00
e4
f2
0a
0b
fd
0d
fb
00
00
00
00
ff
00
02
f1
fa
07
eb
01
e5
0a
04
22
eb
e6
05
19
1b
07
09
fd
03
fa
0b
1c
e6
f5
22
0e
ed
0e
07
fd
10
03
f6
00
f5
00
f8
f6
f9
06
07
ff
f8
09
00
0c
1b
08
05
10
07
26
0d
ff
04
fb
f7
fb
e9
e3
17
11
29
f8
10
ef
fa
10
11
05
e8
f8
0a
f3
e4
e5
f9
fc
fa
20
fa
fc
0c
f5
0a
f0
eb
03
e8
00
07
00
e1
04
14
0d
f3
f1
ea
09
14
1c
fa
e5
0c
1c
03
f6
c8
fd
00
0c
08
ea
ff
ea
11
29
0c
07
ed
10
12
fd
fa
f1
f0
ff
06
fc
0d
fc
00
f6
f0
08
f1
f4
0a
f9
00
fc
0d
fc
ff
f5
fa
0b
06
ff
08
00
f4
0b
fe
ef
01
f1
05
f1
ef
f6
fd
0c
0c
03
f4
f3
f0
00
fb
f2
fd
ff
04
0c
f8
fa
04
08
fc
08
0d
fb
08
f7
ff
02
f6
f5
fd
ed
07
04
f9
fd
ef
f0
01
ee
ff
fd
05
05
07
fb
09
f5
fb
f8
01
f4
0d
0d
f3
02
ed
f0
fe
09
f7
08
f8
f5
04
02
03
02
f2
fa
f1
f0
f4
00
0b
f1
f1
00
03
05
f9
ef
0b
05
f4
09
0a
f5
05
fa
07
02
02
f0
fe
fe
ef
00
f6
00
04
ee
09
02
fb
02
f6
01
ff
f5
0d
f0
0c
02
f6
fc
f2
ee
0b
00
f3
fb
0b
f9
00
f1
f8
04
fe
08
05
fb
fb
ee
f3
02
f9
f8
00
f3
fd
f6
02
fd
f1
f6
f7
f6
fb
00
f3
06
0e
f7
f2
fa
00
f3
fc
04
fb
0d
06
00
fe
f1
f0
f9
0b
05
f6
fa
fa
00
0a
03
02
06
ee
f4
05
ff
f4
09
f2
0a
f8
f8
0a
0a
09
00
ee
fd
0b
0e
fc
07
ff
0a
03
f0
f4
06
fc
09
fc
f9
03
00
05
00
f8
07
f5
0e
05
08
f3
fd
f9
fb
ff
f5
fe
f6
f2
fa
fd
f6
ed
0b
0c
f8
f4
ef
f1
fd
f7
fc
f5
ff
0e
02
0c
fb
0b
0c
f7
fc
08
00
f5
fa
0c
05
00
f4
08
ff
fe
07
fd
ff
09
00
f9
02
f3
02
f5
f2
02
07
00
08
fa
0d
fa
fa
02
00
fc
f3
ff
0d
0d
06
fa
f3
04
0d
f0
04
05
f6
05
f8
0a
fd
fa
0d
fa
02
02
ee
ed
0d
0d
0b
05
05
ed
ed
fd
00
fb
f1
00
0d
03
f7
08
04
fb
00
f9
08
04
fd
fa
fb
0c
f8
0f
01
fe
f4
10
08
09
fe
00
f3
0c
02
f5
05
06
fe
00
06
0c
08
00
06
08
06
f7
f8
ed
fe
00
03
ef
f5
f3
f8
f9
fc
11
ec
f6
f4
08
0c
07
06
03
f2
0d
ef
fe
0b
f6
04
f6
f1
05
f1
f4
05
ee
f1
f9
f8
0b
ee
f9
04
03
08
0c
0d
f9
0a
00
00
f2
ee
fe
f5
ed
05
02
f0
0c
ef
fa
02
0a
05
f8
fb
f8
ee
fb
fe
0a
fa
0a
f0
0f
06
04
ff
f2
03
ef
00
00
ed
07
0d
f3
01
0b
f8
f4
ee
03
fd
f6
f4
04
f4
00
f6
f8
fc
fc
08
eb
f8
0b
0b
09
04
fe
fd
e8
ed
01
f9
f0
f0
05
02
0c
f5
f6
fa
0e
07
f7
f1
f5
ee
f7
f1
03
f1
f7
0c
07
fd
ea
fb
ec
f1
0f
fb
00
fc
f7
03
eb
0e
f3
f6
f4
09
0e
fb
06
0c
0f
f2
05
fc
f7
01
f9
eb
01
fd
10
f3
03
08
08
ed
ed
fa
fb
05
fd
07
f0
f8
09
0c
f7
0c
eb
07
0f
fe
0c
fb
eb
11
04
fb
0b
0b
0c
12
ee
f8
ec
05
0e
fe
fd
00
07
08
07
f5
f5
f1
fc
04
fc
fa
f2
0d
07
01
eb
f0
00
0f
ee
08
02
0c
f5
01
f4
05
0b
0b
00
00
fa
00
00
0a
0a
02
f2
00
f9
06
08
10
04
08
09
ee
f4
06
0e
02
04
10
00
09
03
f4
07
00
f7
08
0a
0f
f3
f3
02
ec
f4
f2
07
fb
f1
00
00
01
ee
02
07
f3
f6
eb
f3
05
ff
0a
00
0d
ee
0d
09
07
ff
f2
00
fc
16
f4
ea
07
05
0f
fa
04
fd
0b
02
07
f1
f4
02
ed
f7
fe
f1
f2
06
f8
f1
f8
fb
f0
06
00
f0
ff
05
0d
f0
f4
0e
06
eb
f9
fd
00
f4
09
e9
f8
04
ff
07
03
fa
08
ee
f4
0a
fd
ff
09
f7
05
0a
03
0d
fb
f1
f7
09
0f
fd
f3
fe
00
f7
0a
0b
0e
f1
f5
03
fa
fe
0b
f6
09
fe
0a
fb
ee
00
05
0f
05
0c
fd
f0
ff
f6
04
f2
09
ff
fc
03
0b
fc
00
fb
f5
f0
03
ff
f2
1a
34
11
16
fe
10
0c
0a
05
1d
09
f3
fa
e6
1e
09
13
0a
1b
35
41
24
fe
fd
00
f2
ed
fb
07
f1
f3
0e
00
f3
04
0f
f8
02
ea
f2
01
0f
01
f7
00
f0
f1
e9
f7
00
0d
0e
ff
05
09
09
fa
f4
13
0b
f3
1c
16
11
06
02
12
11
03
f6
05
08
fc
06
f1
08
f7
05
0e
00
05
ee
15
0e
ed
0f
fc
03
0c
ed
0b
05
f0
fe
f1
fe
00
e4
12
06
0d
09
eb
f8
07
e2
f2
06
05
f8
dc
f2
21
e9
e8
14
f3
fe
04
04
fb
ef
dc
ed
fe
06
0e
f5
00
08
f9
fc
10
0d
f2
fc
19
34
1f
10
05
0e
06
fe
f2
f1
fb
fd
f9
dc
f5
11
ef
fd
fa
12
10
08
16
fc
0e
fc
1b
f7
f9
0a
f2
0a
f0
fc
17
fe
17
13
f6
13
f0
1a
0c
1e
f1
e1
1e
12
fe
ee
0f
e8
ed
fa
14
0e
f2
ed
05
20
10
f1
fe
eb
f4
19
fa
fb
02
07
02
1a
11
f4
12
ff
07
08
04
1c
05
ee
00
0b
00
ec
dc
e5
e3
f0
40
dd
d0
e8
ea
2d
eb
fc
0a
1d
f6
10
16
07
e7
d3
33
11
fd
22
0e
00
05
f5
f5
fe
ff
fc
fb
05
ff
22
fd
f5
f2
fd
04
14
0b
04
fe
e6
e3
e4
01
00
f7
f7
13
19
11
02
20
16
07
17
00
17
e0
df
df
03
de
ea
13
f6
01
0d
2d
1e
01
ff
fc
e0
f5
11
09
f1
f7
03
17
fd
07
0f
0e
f0
1b
11
ef
fb
17
fc
01
02
00
0f
ee
01
09
00
0c
14
06
00
03
19
14
16
19
f1
0b
f8
08
14
e2
0b
05
d6
e8
03
ee
11
11
03
ec
26
18
f2
fd
0c
2a
f8
ea
24
19
03
e5
07
21
0b
f3
0c
17
0f
2f
03
f9
0a
10
0b
04
05
20
f9
f4
fe
1f
0e
07
f6
2a
15
0f
f0
f4
10
f4
eb
dc
f8
00
f0
ef
02
0d
17
16
08
05
11
00
0e
04
07
07
ed
0c
04
04
01
1d
16
0c
00
05
ff
fe
00
f0
02
f8
24
0f
03
03
0a
0b
10
eb
0a
0d
01
f6
04
fa
f3
00
ed
fb
05
00
ed
f2
06
f4
0f
ed
12
18
05
03
05
0b
ff
f0
04
0c
10
04
ff
0d
e9
ff
f8
fb
ff
0d
00
00
0c
17
16
17
f5
0a
21
06
0d
00
ee
13
11
f1
e9
09
08
f7
03
02
f3
e9
f7
10
06
fe
00
e5
0c
f7
fa
f5
0e
0a
f7
e6
00
1d
ed
ff
11
01
fc
07
fe
06
01
e2
fe
15
18
02
f3
ef
19
13
1b
09
fd
f7
e9
f7
09
fb
ea
08
fa
f0
fa
f2
f9
ea
e6
f1
00
07
0c
09
06
00
08
33
16
02
fe
25
18
26
f9
ef
0c
ee
12
04
08
f1
f8
13
17
e6
f2
e6
2f
32
10
f0
f2
26
1f
fa
f3
0a
19
ef
e4
1c
0c
f3
f5
f2
fe
1c
eb
03
00
fb
05
ff
19
06
0e
0a
09
16
f0
fd
f4
00
ff
04
0c
ee
f9
05
f8
f5
ef
f2
e1
de
fd
31
d8
d5
dd
02
24
d1
e3
ed
fb
16
00
03
fe
00
ea
ff
ed
f0
0a
fc
f9
f9
0c
f3
02
29
2d
04
f9
fa
2c
28
0a
f8
07
00
1d
0c
ee
fa
f3
01
03
00
09
0e
08
13
02
09
f3
0e
fd
00
21
fa
f2
f0
ec
e8
f3
f5
ed
00
04
fe
f0
0c
1d
0d
f3
e2
e6
e6
19
f3
f7
09
18
2c
1f
02
0a
05
12
15
03
db
fd
f2
04
f6
fb
f3
05
12
16
14
fe
f6
00
33
0e
0c
03
fc
20
2a
ff
fa
fb
0d
1a
06
0d
fc
0c
05
19
0c
1a
f8
fb
f1
2a
1a
07
f5
13
36
ff
dd
1b
23
2f
12
00
f5
fd
07
0a
1d
ff
06
f7
0a
1d
01
ed
f2
13
2f
fc
00
01
02
3d
09
0a
fd
f4
11
15
eb
09
09
f9
fe
01
0e
00
ef
e5
fa
f5
10
f1
0f
29
fd
21
fa
07
10
1f
e7
e7
07
0b
1d
f8
10
2f
34
06
e8
fb
ff
01
f7
f9
07
00
03
00
12
0d
f4
05
0a
ff
07
00
00
ee
ef
0b
00
f7
f9
e5
ff
fd
18
01
de
13
ff
0b
01
eb
0f
fa
01
f9
fa
03
00
fe
fd
0d
fc
f8
10
01
e7
05
0f
08
04
0c
0a
04
10
01
04
09
f5
08
fe
10
eb
03
04
fa
0c
f7
10
06
0b
f6
07
f3
f1
07
f2
19
16
fe
f2
0c
fc
ea
fa
ee
0e
f2
e8
f7
eb
15
01
10
e4
ea
d7
e1
f4
0a
f5
cd
e9
f6
fe
09
f7
06
f4
f6
ef
21
02
07
f0
f2
00
06
05
18
10
f6
de
f7
fa
07
ea
f5
0e
0c
1e
0a
14
06
f7
f0
07
1a
fc
fd
f3
f5
eb
19
18
0b
fe
fe
17
11
06
0e
11
fe
19
1a
1f
15
00
19
28
f6
e3
00
22
24
f0
fe
11
27
25
fc
f2
f3
fd
ff
fb
f8
ff
05
f1
12
15
fd
0a
ef
f8
fa
f4
fe
fe
07
01
17
fb
02
e5
f5
cd
a9
bd
c4
c6
dd
e8
d4
cf
ea
0f
e0
bf
fb
20
07
fd
da
07
fb
e9
f0
d5
ea
f4
00
1f
0a
eb
07
08
19
1f
24
0d
fe
fc
0a
12
05
fe
ed
0c
06
01
ef
f0
11
f0
06
1f
00
0f
10
16
16
fe
e6
fe
15
ef
e9
e4
f6
d9
f8
17
26
f3
16
1a
17
28
e5
dd
f1
ea
fb
fc
e7
08
0d
f0
0c
01
1f
13
e0
0f
10
f2
f6
f1
f6
f2
0c
00
0c
00
f5
02
21
0b
fe
03
11
1f
24
1d
33
27
f8
0b
1c
29
0b
fd
03
09
e1
09
0e
f4
0c
00
0d
f9
12
fd
f5
09
29
02
01
f5
33
18
f8
ee
04
09
08
d6
f0
1c
29
17
fa
ee
f0
18
28
00
ee
08
f7
08
27
23
1a
12
05
0b
25
22
f4
03
0d
13
f9
fb
fa
f9
f8
1b
0f
ec
2b
ff
20
d5
df
11
1e
12
da
de
0b
fc
e5
f9
e8
0a
f1
d6
de
ea
1f
fe
01
0d
11
00
00
07
09
06
fe
f7
f8
03
f5
12
f4
03
ee
eb
ee
02
0d
0f
f9
02
f3
f6
0c
01
f9
00
e7
f6
14
00
f6
fd
0c
f3
f8
ff
12
0d
ea
13
07
09
0c
18
fc
00
f1
10
06
11
f7
0c
13
05
10
f4
10
08
05
f2
03
f0
f2
e6
02
14
0f
16
16
fb
01
f0
0e
13
08
f0
ef
0b
2f
13
de
f3
0a
ed
ef
e5
01
06
01
fc
08
e2
fd
28
0a
f2
f8
0c
25
00
f0
f0
0a
f8
f9
f5
16
11
f9
f5
09
0c
f3
ee
e6
15
1f
14
07
f3
e6
fb
f5
f4
02
f6
10
f9
f5
20
15
2c
0c
15
04
05
18
ff
0c
f5
0f
fc
f8
df
e0
fa
01
fc
f3
01
fc
06
07
00
f7
00
03
1f
f0
f7
f6
fd
f6
f1
f4
da
de
f7
11
0d
04
f8
fe
06
01
f0
ee
0e
f4
f8
ef
08
0a
f6
06
ed
f9
01
e8
f9
06
f7
0d
08
09
f9
0f
1d
0b
09
f2
f0
02
fc
18
08
fa
06
0c
33
16
03
0f
09
cd
f6
15
27
e8
c8
f9
fc
0d
18
0c
e6
f0
08
12
06
eb
09
0d
0a
07
fd
f0
0b
f5
00
03
10
03
fd
0f
fd
f1
0d
f8
0c
f7
fd
19
f7
e8
10
16
1d
f6
f9
07
18
f5
f3
dc
e8
00
17
19
f9
15
00
0e
fa
03
08
00
f9
0b
18
00
f8
15
18
1e
e8
13
03
e8
ce
f6
f7
ec
fb
f6
08
01
e9
02
0f
08
ed
e1
f1
fd
2a
02
05
03
f5
20
f6
fa
f8
fd
ff
18
f3
08
02
fc
14
e8
da
0f
22
10
f7
ed
22
0e
0a
e4
0b
31
08
ea
01
03
eb
f9
f8
fd
e8
f5
f5
de
e9
ff
f3
f7
e9
f0
f1
05
1c
0e
0c
0f
06
0b
11
00
1a
0a
15
00
f2
0c
0f
01
00
fd
eb
0f
fd
fb
f7
fa
fb
11
fe
ff
fa
03
fd
fc
f4
f0
f3
fd
fb
ea
02
f1
fd
f5
0e
01
f4
f8
00
ef
01
07
08
09
f4
09
09
fc
0b
00
09
f9
f9
02
0d
fa
f9
ff
fc
07
00
ee
fd
fd
fa
fb
f4
ef
00
0c
07
03
fb
0b
05
00
f9
01
07
ee
07
07
09
01
03
0e
0c
ff
fd
f6
fa
f0
ed
0d
fa
ed
00
f3
05
f8
f1
f4
ee
f3
0e
0e
fd
04
00
f2
ef
0e
ef
0b
03
f6
fd
f1
f5
fb
fd
0a
f5
0e
03
f6
09
09
04
0d
f0
f6
03
08
f6
09
f6
0e
09
00
00
07
0c
f4
0d
05
f4
07
f2
f9
f4
04
00
07
00
f1
f6
f0
00
f9
0c
f6
00
07
f7
0b
f5
06
fb
f7
0c
f6
09
f8
0d
0e
ee
f6
ff
f9
f8
00
0b
01
0c
f0
ef
09
06
f7
ff
05
ef
f9
08
08
f7
f7
ef
00
fe
f7
03
f1
f3
ff
08
f1
03
f7
0d
f6
f5
ef
fb
05
ed
f1
ef
f1
f7
0b
ef
00
08
05
06
04
02
0e
07
fb
f7
fd
07
0e
fa
fb
00
02
00
ed
04
f6
00
02
0b
0c
00
f1
00
0c
01
04
f6
0b
09
04
0a
04
f3
fe
0e
f6
f1
fa
00
ee
07
fd
00
fe
f9
05
f8
0a
0d
f8
07
ff
fb
0c
09
f3
fa
fd
f8
fb
0d
0c
f5
10
fd
f5
f7
f5
f5
00
f9
08
01
04
07
0d
f1
f0
08
09
f5
0a
07
fc
f4
ed
0e
02
f6
f2
05
ed
0b
00
f3
f0
f0
07
f2
07
ff
00
fb
f4
07
f7
06
05
f8
03
03
04
0e
0c
f0
06
f4
f6
00
ff
ed
09
03
f0
f7
0b
00
fd
f2
fd
02
fb
f6
f8
eb
f7
fd
f9
00
eb
fa
0b
f3
05
f4
f3
fa
f6
f7
ff
f0
ff
fd
f7
02
ee
ee
f9
f7
04
f4
ff
fa
fe
f6
0b
fd
f6
fd
fd
ee
fe
ef
ee
f2
fd
f3
ef
0a
0c
ff
1c
11
f8
00
0b
08
04
1b
05
0a
ea
f3
1b
00
f6
fb
e7
06
25
e6
de
ea
00
17
00
12
ff
17
00
eb
09
f4
f3
f3
01
03
0a
f6
15
16
05
08
05
11
00
02
08
0b
1a
1c
fc
f9
f0
02
ef
f1
02
04
10
fa
07
fb
06
ee
fc
0b
ee
09
00
20
0e
00
16
12
17
04
12
06
f8
f6
f7
f9
0d
03
0c
f9
f0
10
ff
1e
1a
00
13
1c
0b
08
1e
15
12
22
25
0b
ef
0c
f4
08
14
f0
f3
fe
09
fc
09
e5
1a
1a
09
1e
fc
17
09
18
0d
06
21
22
ff
0d
21
05
f5
0a
06
ef
ef
00
fd
08
f3
f4
f1
00
13
fd
28
1a
07
23
fe
04
2b
21
18
1a
04
fe
00
0e
e9
f7
f9
ed
00
eb
f8
00
11
0c
0b
23
16
16
23
0d
0e
11
e2
de
03
f1
03
ea
00
dd
f8
09
04
12
09
10
05
e9
fc
0e
00
e2
e3
fe
1f
22
07
fa
fc
10
f8
03
f5
f3
05
f7
04
e7
04
0e
10
0c
fa
1a
00
ff
00
1d
20
2b
34
2b
2e
10
10
29
1e
20
f3
18
08
fe
0a
0b
e8
fd
03
1c
23
ee
f0
0a
12
2a
f4
fa
05
ff
19
f2
01
f8
0b
f2
dc
e9
f6
08
f2
00
fb
0f
fb
ef
15
0c
0d
fa
13
10
02
0a
e9
f0
1d
0b
07
e3
d9
00
f1
0d
1d
22
03
14
03
16
29
02
00
f6
07
eb
01
16
1f
22
12
17
0e
02
02
fd
ff
ff
fd
fa
f6
ed
05
f5
04
0b
08
16
0b
14
1c
06
fe
f6
f4
0d
f3
0c
f6
f4
0c
ff
d9
f8
0b
fe
0e
e0
0e
09
fe
20
0e
02
04
0c
0e
fe
02
ff
fd
fe
fb
0e
0f
e9
13
01
ea
e5
0e
0d
e4
fd
f9
11
16
ee
ef
00
12
ec
f5
f1
fe
15
f9
ee
06
07
fb
fa
ec
0a
f7
03
05
03
00
11
fe
19
1e
00
fe
fb
0a
06
f1
09
fa
1d
07
04
16
10
08
fb
0e
00
23
11
f6
f0
0e
2a
13
fb
1a
25
f7
f5
0d
03
0e
05
0a
18
12
13
19
14
07
f9
f2
13
04
ec
f1
fd
ea
07
f4
f7
ed
f5
ea
0e
0a
f9
00
e5
f7
f4
12
18
fe
15
02
f2
f9
0f
14
0d
f0
09
06
12
0f
ee
fe
04
15
05
19
f6
08
13
ff
f6
0f
0d
f8
ea
03
12
0a
f6
f9
eb
f9
04
ff
f2
06
0a
ed
20
15
f8
e6
eb
02
09
f9
d5
fa
00
02
f9
10
08
f8
f0
0e
fc
01
07
07
ec
ed
cf
f7
19
15
00
f4
02
0c
09
f6
e6
14
06
df
f5
0b
0b
e4
ea
ea
00
06
01
f4
fc
e0
f1
16
18
1b
08
0c
0d
1d
23
1f
0b
f4
0d
08
0b
f0
f8
f6
f8
04
ff
f7
f5
07
1a
0f
e3
cf
c1
27
2d
f6
dc
df
12
fc
03
05
15
05
00
e5
14
15
f5
f7
04
02
1e
ff
10
12
09
09
03
16
05
0c
f3
07
0d
04
00
f0
07
13
f8
fc
e2
01
0d
10
f1
06
f3
03
f5
f8
2d
d1
e3
f5
16
08
ea
ea
ed
de
d7
f2
f8
03
e9
d4
0d
fa
ec
f0
00
db
f0
0e
15
f4
0e
1b
fc
07
09
15
0b
0f
fd
fa
15
14
06
e8
fe
f4
fd
02
ed
00
0b
0c
0d
f1
fa
17
0d
13
d7
bd
0d
f1
de
fb
f8
05
f8
03
12
34
0d
f9
09
03
2a
00
06
0f
08
11
f9
f4
1b
21
01
14
01
fd
05
05
06
0f
f6
fd
f8
fe
f5
fc
f7
ed
05
f9
f5
01
17
19
11
fc
0e
fe
01
18
19
f3
00
f6
16
17
00
08
11
0b
f8
13
fe
10
fd
e2
ff
20
ff
00
0e
32
39
fb
e1
08
ff
11
f3
ff
fe
ef
ee
09
00
fd
20
0b
f7
e1
ea
f7
f3
fd
03
03
1c
0f
1b
17
15
13
14
fc
fe
00
02
ef
08
fe
02
f7
ef
ef
fa
01
ed
c9
f9
00
11
12
f8
05
e7
2c
31
06
03
0e
21
3f
11
f0
0b
35
30
fa
ea
fc
f5
07
00
14
0b
00
f9
00
05
fe
f6
00
07
0d
02
fb
fc
fb
fa
ed
f5
f8
fa
f6
04
ee
0b
17
08
07
ff
fd
fd
07
f4
eb
07
08
11
08
ed
05
02
02
ed
e5
f7
e2
05
f6
fc
09
f9
08
ef
11
05
07
f5
f0
02
0e
06
ec
e8
f3
fe
08
f2
fd
f2
e9
f7
ff
f1
e6
f3
19
f4
0b
09
01
13
1b
f6
fc
04
f0
27
02
0b
fa
ea
fd
00
0b
e3
e3
14
06
f1
ea
fe
04
10
1d
15
0a
0a
f9
ff
fa
01
21
10
f7
0d
07
e3
cd
e0
df
f8
0d
0f
f6
f9
eb
f8
ea
11
15
01
00
f4
fd
1d
fa
ff
16
05
06
0b
ee
eb
07
f7
05
e7
d5
e9
fe
24
e4
02
11
13
00
09
1f
f1
0a
14
f2
f4
12
17
fa
02
09
11
1d
0b
04
06
f1
fa
fb
13
0d
08
1a
15
05
12
01
03
f0
0c
10
0a
0c
fe
e9
f6
f3
de
ef
00
15
10
04
dc
0b
06
f2
e3
f6
f5
fa
02
f8
e7
f9
00
f3
f9
ee
2b
18
e1
06
fb
08
fe
00
f8
fa
0f
f5
f5
f6
14
08
ef
ea
07
fd
01
06
fa
f1
0c
f0
fd
e8
f7
f6
ec
01
f1
09
1b
e3
03
10
2a
1e
0e
29
fa
f7
f2
0d
f8
18
1b
0d
fb
0e
16
0f
1f
00
e8
e4
f0
e9
f2
f6
fc
1d
1b
fe
ec
15
06
fa
fc
0a
f9
f5
06
fc
f5
0b
06
fa
14
04
14
11
11
13
fb
fe
04
0f
0a
11
fd
07
0e
00
07
10
ec
07
10
f0
20
0e
f9
02
00
11
1c
ea
fc
ee
fb
01
f5
f4
ff
1e
14
e9
f0
13
05
1c
08
07
1b
14
22
1d
1e
fb
fd
1a
fa
0a
f9
09
14
17
0f
07
f2
08
f9
08
f8
0a
07
fb
f7
e9
0c
03
ea
0a
00
00
e8
0a
05
0f
e5
fe
03
15
07
fe
fc
04
10
00
e9
d4
ef
0a
11
d3
f1
22
f8
0d
07
fa
0f
f7
f6
ec
fc
16
01
f8
fb
07
0c
03
f2
fa
0e
12
f6
f6
19
0a
ff
e8
f0
00
fa
fb
fd
fd
0d
f5
f8
f2
06
00
f0
f9
fc
07
11
f5
19
e9
f0
02
00
f2
0b
0a
f6
04
09
01
15
04
1a
05
08
02
08
0a
21
11
10
ee
fb
16
07
08
11
02
fb
ed
05
10
f9
ea
e1
f1
07
0f
00
ee
fc
fc
ee
fd
eb
fb
ef
1a
1f
f0
0a
fa
1c
16
f0
f2
02
fb
0a
dd
ef
fb
02
0c
fe
07
00
ec
11
f9
0a
fd
08
0f
f2
19
fc
f5
f8
03
f4
fe
06
0d
05
ff
fa
0f
08
0f
0b
f1
f5
26
17
f9
03
f1
f6
1f
ff
f4
e3
00
11
21
ff
11
1b
25
08
ff
0c
04
0f
20
10
f4
05
1e
16
06
06
18
0d
00
00
10
03
f2
ec
01
fb
05
00
00
ea
f1
10
04
06
f0
f3
1b
07
f0
04
02
0d
00
f9
00
1a
f0
00
e1
e8
f4
ff
fe
eb
fa
02
ff
d6
db
ec
10
2b
f2
dd
f3
09
f4
00
f6
f9
08
06
03
03
ec
08
f8
0c
fc
07
ea
08
19
1f
10
04
0d
fd
1f
14
00
13
17
19
00
03
f9
f9
00
0d
fb
0e
03
10
05
07
00
0c
fa
ed
05
f7
1c
fb
ea
0d
10
ff
f9
fc
0b
f6
ef
f7
ef
f8
fe
f1
fc
f7
ee
1d
fe
0f
e8
f4
06
02
00
04
14
0c
0e
f3
f8
fd
00
fe
1e
04
fc
f5
02
25
12
f7
04
00
06
0d
ed
fe
f9
09
0d
f3
00
01
04
02
0d
09
10
07
f0
fb
ff
19
fc
fe
f8
1f
0e
ef
f8
ef
1e
21
f7
f1
01
ff
10
fc
e7
e7
0e
f6
09
01
ed
00
0e
26
01
e4
11
fe
06
0b
fa
f8
fc
1f
fe
01
fe
07
1f
fd
f7
ec
0c
fa
16
f7
f7
03
f3
0c
ff
f5
e6
00
f2
e8
11
1c
fc
fd
ee
0d
0c
f7
fd
09
e5
e5
f3
fb
03
f0
00
ee
f1
f1
fe
f8
ff
14
fa
f6
0f
10
12
00
04
ed
10
f1
08
0c
db
f2
f2
f2
f2
05
04
f2
0a
0d
04
fc
17
12
0d
eb
f5
15
14
fc
f2
00
0a
ff
02
ed
fe
02
02
fb
12
05
0d
f8
0c
fd
0c
04
fe
0c
10
15
08
0c
f5
ef
0b
08
fd
fd
fa
ed
17
18
f5
e4
00
f3
f0
f9
ec
05
fb
03
1a
f1
02
fa
f1
fa
09
ff
f2
00
fa
da
d2
ec
00
07
d7
ec
e3
ec
e3
ef
fe
05
09
ff
fe
00
fb
11
fa
f3
ed
fb
00
19
f7
01
e1
fd
15
ee
03
fc
ef
eb
04
09
ff
f3
16
fe
fd
09
05
00
13
fe
04
fc
11
12
fe
27
2b
20
fa
f7
0a
0e
0b
07
ff
12
1a
0f
2c
31
0d
f5
01
06
0f
00
08
08
f2
f1
e7
f9
00
f8
f8
ef
08
db
fb
fd
01
fa
10
fc
0d
0e
07
02
0b
0e
0f
00
ff
01
e5
d0
cd
f6
ee
dd
f2
ed
e9
de
f3
db
db
d0
ef
d7
d3
ea
21
e1
04
fd
00
05
f3
f5
ed
05
0f
f6
03
f9
0d
fc
0d
fa
0e
16
00
fe
05
0a
17
12
01
06
0a
ff
f3
f7
13
2e
04
18
0b
04
1c
09
f9
f9
10
fb
18
0f
09
08
fb
f1
02
13
07
df
e3
03
fd
ea
ea
eb
e7
f0
db
d5
cf
ed
fa
01
fd
f5
fe
1a
fc
04
11
15
06
0a
00
0f
0b
11
05
17
0c
f4
fa
0b
26
1f
0e
e4
fe
16
15
10
fc
15
1f
16
08
07
09
25
fa
0c
18
1b
fc
02
f8
09
09
ec
fc
00
00
fc
00
ee
f2
17
13
e1
eb
fe
0c
f0
00
fe
f2
0e
07
14
0a
fc
01
fe
18
fd
09
f1
00
fb
0a
fa
ea
05
0a
00
f1
f6
16
0d
14
0a
13
0e
f9
e2
d1
00
0b
09
fd
10
13
09
0c
1d
0f
08
ff
23
0e
14
01
04
0b
02
00
09
02
02
0e
0c
13
ff
13
02
fb
00
fe
00
f9
09
fa
02
10
04
04
f3
0b
f4
0d
f6
0b
15
0d
0c
00
10
04
f8
00
1a
0b
0f
f4
11
06
07
ff
f7
ff
0d
03
fa
07
ee
f1
16
14
14
fd
f7
11
0e
09
0b
fc
ff
05
f1
fc
fd
00
12
13
09
09
00
f1
06
f4
09
09
1d
fd
fd
e4
ff
16
07
ee
12
17
09
07
17
14
0f
00
08
11
f0
0d
01
06
08
e8
0b
1f
19
f8
01
27
0e
14
fe
f8
03
f7
00
17
01
f8
fe
ee
09
0c
f6
f8
05
fd
f4
14
07
1f
02
f0
0f
09
04
fc
fc
ff
00
e9
07
fe
f6
e1
fc
ff
00
07
08
fe
00
17
e8
01
f4
e2
fb
fa
16
01
fb
f8
ed
fb
f0
03
15
01
07
17
0c
f9
19
15
0c
00
f4
fe
0e
13
08
00
11
0d
0e
16
19
07
00
f8
0e
15
10
11
11
02
14
f8
ed
f6
f5
fc
1e
1e
2c
4f
0b
06
21
29
28
f2
1e
20
10
00
0b
fc
e8
f6
f8
11
f2
f9
00
f1
12
13
08
01
ee
f0
fc
f8
00
04
0d
f2
fc
05
f6
0b
02
0b
f1
f9
f9
08
00
00
ff
f8
02
fa
f8
ea
01
11
ed
e9
f0
0a
00
ef
00
12
08
16
2a
0b
27
0a
22
03
09
04
ed
01
04
0c
0c
10
19
0c
0e
15
09
12
fb
06
11
04
f0
ee
14
07
12
05
08
ee
00
f8
16
fe
0f
0a
f6
0b
f3
eb
0e
0c
00
06
05
01
16
09
fe
1a
fe
09
15
14
10
0e
00
06
ff
f2
08
d9
eb
02
1d
f5
d2
f7
00
00
ef
ef
10
01
05
e6
0b
0b
f3
fd
08
11
13
0e
01
f3
10
08
00
f2
11
fb
e7
fe
e4
fe
0d
da
f0
e8
08
f5
ee
02
0a
fb
05
08
f2
07
f9
09
05
f2
09
06
fc
f4
06
09
02
0c
f1
f1
09
ee
05
06
00
f6
fa
07
0b
01
08
08
f6
fa
01
fc
f0
06
00
f4
f8
f8
fe
fb
00
03
09
00
05
fa
00
fe
00
03
09
f7
01
f6
f0
f6
ec
fd
f6
fe
f6
f8
f9
fe
0a
fc
f1
fd
ef
0e
fa
f4
f4
07
00
f7
f1
f1
ff
06
f7
f7
f1
ee
f3
0c
0b
fb
06
f6
06
ee
02
0b
fb
fb
0a
f6
00
ff
00
f4
fd
f7
01
ef
08
08
0b
02
00
00
07
0c
f3
ff
0d
0a
0c
f9
fb
f3
fd
fe
f9
f7
fd
02
ff
f9
02
fd
0b
f3
f7
fb
02
0d
ff
f9
fc
f5
10
f4
fa
03
07
f4
04
04
f0
02
fa
0a
fd
fe
fc
00
ef
f6
0d
f7
ec
ee
f6
f3
f5
ec
f8
02
09
f9
06
03
f0
00
02
0a
ef
fa
0c
08
ef
03
ed
f4
09
ed
00
fd
00
f6
06
08
02
f5
f6
f2
0b
f4
f4
fc
ef
0c
ec
01
fb
0b
f1
0c
ef
ff
04
fc
01
05
00
0d
ed
f8
f2
fb
ef
02
f4
0a
f2
ec
0c
0d
f0
0c
08
0f
f6
fc
f2
00
fa
02
06
fa
f3
fb
0a
fc
fe
01
08
f4
f4
08
f8
0b
ff
05
06
04
f7
fc
03
f3
0c
05
00
f3
ff
f5
ee
09
fa
f0
f7
fa
06
09
ee
0c
01
03
0d
ff
ff
0c
fb
f6
04
fb
f4
ed
08
fc
fd
f4
fc
f4
f7
ff
00
00
f5
0a
f7
f0
fc
f3
f0
0c
0c
fe
f9
03
f0
03
0f
ef
f0
07
02
fa
f1
ff
f3
ee
fb
f8
f4
ec
f5
f4
fa
f2
f6
f1
f8
09
f9
f4
f7
00
02
06
0e
0b
f2
08
0b
fa
08
07
f0
f8
fc
fc
03
ff
ef
f1
f7
0c
0c
fd
f2
09
0d
f8
00
07
10
fb
04
fe
02
0a
f7
f0
fc
f0
f7
02
f2
ef
fe
fb
10
0f
f9
00
06
fe
f3
08
09
ef
fe
0b
f4
f2
f0
f6
04
00
f9
fd
11
08
ee
eb
03
18
1b
fa
ed
fa
00
00
fc
f7
eb
0c
fe
dc
ef
18
0d
fd
09
fe
04
06
f6
0d
03
0c
04
07
12
13
0c
01
ef
fa
f5
00
0c
0e
fc
ed
ed
f7
fe
1a
0d
0b
00
06
09
08
05
f8
13
16
ee
f8
fb
f9
0b
0b
10
05
f8
fa
0f
16
10
10
00
0f
0e
15
11
0d
00
0b
0c
11
f0
01
01
0a
fa
ec
f7
07
00
07
03
fe
0e
f7
0e
01
04
10
ff
f8
f5
06
00
f6
10
12
07
07
f8
f7
fc
f8
f3
05
02
ef
01
16
d9
f1
0b
0b
0f
e5
e5
f2
11
01
ff
12
fc
ee
fd
04
07
fc
f4
02
f9
01
0d
eb
f9
e8
04
f6
08
15
0a
07
f6
05
03
23
28
0c
18
20
1c
f4
fb
0c
e5
ff
03
f8
f7
e6
33
20
03
f7
fb
3d
11
00
fd
f8
22
14
03
f5
f2
04
fe
08
f7
0a
06
eb
f7
0e
12
06
00
06
04
fe
ee
0b
02
0d
04
fa
fd
00
f9
11
04
ed
f9
01
fc
fd
01
f7
01
e7
da
f1
e8
13
29
d0
f5
f3
07
1a
fb
fd
fb
0b
1d
06
0b
12
fc
e9
f7
09
22
04
e3
f6
0e
0e
fe
0e
1d
18
0a
05
08
1f
1e
13
10
f5
fa
f9
08
ee
14
fa
11
02
0b
f7
0e
02
22
f8
fb
13
1a
08
ee
cf
01
f8
f1
e4
df
f5
12
fb
02
f8
04
ed
fb
09
06
f1
07
19
16
14
f7
01
f8
f7
01
05
04
ef
21
20
fa
fe
11
f5
ed
fd
ff
f5
ff
fc
01
10
f1
f7
08
fd
1b
fe
ff
0c
11
ff
f6
fe
0a
0f
fc
0b
07
15
18
16
f6
0b
14
0d
05
dd
ee
1a
0f
0f
ee
f8
23
12
0b
f3
00
27
1e
e3
0a
fa
f4
fe
05
f5
e5
e2
fe
fa
e4
ef
06
0a
15
f9
ed
18
15
31
18
f6
0b
0f
10
01
06
14
f5
00
01
ff
04
f7
06
f3
fc
e9
f7
e9
04
0b
21
07
f7
fb
0d
19
09
04
1b
25
ff
08
16
04
e7
00
11
f4
fd
02
f8
00
05
06
1a
00
fd
f7
13
0e
f0
03
f1
00
f8
f4
01
0d
fc
f7
f2
1e
0d
ee
f7
ff
13
f3
f3
08
0b
f5
00
0d
0e
0d
0a
ed
0b
14
00
0e
f0
0c
08
f5
f8
fb
0e
15
04
06
f3
03
14
00
ec
f1
05
ff
f1
00
00
fd
fd
0b
0b
fd
10
03
01
12
f5
ef
fa
12
f8
05
01
18
11
fc
f5
08
01
10
fb
07
0a
f4
0b
05
fe
fa
fd
10
27
01
ff
fa
fb
21
0d
0e
00
ff
f9
fe
0f
fd
f1
fa
fa
f3
01
f2
ed
e5
00
f2
0b
fd
0d
17
16
ef
0b
ed
ff
f0
e9
01
f5
06
f3
f1
06
19
0e
07
00
f7
0a
03
fe
01
ce
e2
03
19
12
f4
f0
13
26
0e
e1
0c
01
03
f3
ec
02
14
f4
0c
f8
00
1c
14
07
1b
fc
fb
f4
04
06
02
12
10
08
0b
fe
01
11
f8
ee
f8
04
f5
f6
ef
00
05
0c
fb
08
28
2c
11
c4
22
2a
0e
f1
c6
11
08
f6
e6
00
0c
06
f3
00
0a
f7
08
f9
03
fa
02
00
fa
0a
09
ee
fc
07
fc
0a
ec
fc
f8
18
f9
e6
ec
ff
12
fd
f1
09
0b
19
0b
ff
0d
f1
f0
f8
f5
fb
f3
06
f8
f7
10
23
04
fe
03
1e
f9
f7
f8
05
12
ff
11
04
0b
fb
fd
05
f1
15
f9
ff
07
fd
fd
07
05
07
f4
ff
00
00
02
ea
e4
f8
f2
fb
fd
16
ed
f9
0f
ff
ec
e9
04
12
01
04
10
e5
0f
13
02
f6
f8
0a
07
18
0c
ff
19
08
ea
f9
18
00
bd
04
0f
11
f3
d7
0a
ff
06
f2
ec
f7
1f
0b
04
04
00
16
09
f3
f8
1e
f5
04
14
1c
ee
e5
ea
0b
fb
e3
ee
ff
04
0a
eb
f8
f2
00
f0
fc
07
15
00
fd
0b
0c
0a
0a
01
1e
08
f9
fe
04
29
12
00
fb
09
1a
e5
f5
03
2b
09
0c
e0
0c
35
15
0a
f6
03
fa
fd
16
0f
fe
1e
0b
12
0e
0b
14
03
ef
00
f4
f2
ec
0b
f8
ff
f9
07
05
07
01
09
f4
fb
0a
01
ff
dc
0d
fa
f4
0d
01
18
f6
f8
f0
f6
f1
09
ef
02
0c
01
fb
09
17
00
14
04
06
10
f3
fa
02
12
17
fa
fd
03
f4
ee
03
09
f4
01
01
14
20
01
06
0a
f5
02
0a
16
fd
ff
08
0c
fd
10
04
f1
f2
0b
02
03
f6
ec
09
e9
0b
21
1b
17
ff
02
0d
ff
f4
04
08
1a
19
f8
01
18
06
08
f8
ef
0e
fa
01
f7
da
f0
f2
f3
1e
f4
15
00
01
1b
f6
29
13
04
0d
fc
07
f6
0a
01
00
0d
03
ed
fc
e8
12
f8
e3
f2
d6
11
07
07
f0
ea
02
00
02
03
08
dd
e0
e8
ff
18
ea
f0
10
07
0a
00
0e
10
0d
fb
0e
fe
07
fd
0b
05
f8
03
04
04
0a
f6
04
0f
f9
04
f1
09
f3
e5
03
29
36
36
43
fb
fa
10
20
23
fa
f9
0a
13
20
10
02
1c
01
d2
1b
02
14
0d
db
f1
f5
06
0b
00
16
f9
10
f4
16
01
14
05
02
fb
07
f5
fe
02
f4
f7
fa
ee
fc
0f
08
f4
0e
04
03
0c
04
0a
d7
e3
01
0e
fe
ff
ef
e8
16
06
0d
f5
f0
f4
02
25
12
0e
07
08
05
0f
fb
08
15
0d
11
00
03
f5
2b
1f
0b
03
04
f9
04
f2
f7
f2
0a
e6
fb
fa
f8
fc
0c
0b
e9
dd
f0
09
23
04
0f
0a
00
03
05
09
0b
06
f9
e7
f9
16
fd
fc
fc
f0
e5
00
06
06
06
fa
1b
11
e9
08
2a
25
02
e4
fc
f8
ee
0d
07
ff
ff
01
00
ef
e4
e6
09
f0
fb
02
f9
02
03
20
03
fd
1a
15
00
f8
f5
0e
f5
ec
f4
07
fd
d9
fa
ed
f5
00
f7
f9
fc
05
ef
f5
12
14
13
e1
f7
1f
0e
0d
e6
0e
27
22
ed
f9
00
e3
fc
f9
f1
0e
06
f3
09
ff
19
10
fc
0c
1a
f1
d7
dc
ed
09
fd
e2
d4
fc
fe
ec
fc
e4
ee
f2
22
0b
0a
12
05
0a
fe
03
00
f1
ea
dc
e4
f0
f4
d0
e8
ea
fd
05
11
01
ed
f9
f2
05
f9
11
f8
0b
10
09
f3
0b
02
f6
d5
e8
fe
f2
eb
e4
e9
03
00
e6
f6
fd
e9
e0
1d
f8
0e
f3
fd
1a
05
00
f9
e6
02
ff
fa
f3
01
fe
e7
e1
05
05
f4
02
e1
e6
dc
17
1e
20
21
1f
04
f4
1a
17
10
e9
f0
fd
ef
f6
d2
db
fb
0c
fa
df
e9
f5
e4
04
07
ed
fd
03
25
0e
0b
12
15
f1
ea
ea
0a
fb
fa
d8
f7
17
36
17
fe
00
f9
ed
f3
15
f7
fe
f1
ef
08
00
f4
e6
0b
03
f1
e5
03
0f
0d
f8
ec
1b
2c
e9
05
f0
ea
ef
16
04
11
0c
10
17
0b
19
fd
f8
fb
f5
ec
ee
f9
e1
f4
ed
e9
00
16
0d
27
23
28
fd
f3
ef
f3
03
00
fc
0b
0f
13
fa
fc
fa
08
05
ee
e9
00
e1
fd
16
09
f1
e4
f2
04
ff
08
ec
03
05
fa
00
e8
ff
14
0c
eb
f7
15
09
e1
d7
ef
0c
f0
f8
08
e5
09
ff
fb
01
0a
0b
ff
07
0b
f9
16
07
dc
f3
1a
02
f1
f7
0f
11
f9
e4
e8
f3
e8
e6
f8
ff
f6
00
ea
05
01
0a
0d
12
0b
f1
e9
04
e9
e7
dd
f0
03
03
05
1e
0a
0b
ec
f6
12
03
07
f5
11
0b
fc
fd
e7
0a
f3
e5
d9
f6
12
01
ed
ea
0f
fe
f9
00
1a
21
f5
ef
f7
fa
e2
05
07
0d
1b
f4
ff
f7
22
0e
e8
fc
0c
1d
02
00
23
09
0e
08
f2
10
21
23
fe
07
0c
fe
0f
e6
00
0e
01
e6
ea
09
17
f9
e4
e5
20
e6
e5
f6
0c
f0
ff
f4
f7
09
e9
00
00
f9
f8
02
0c
f6
e2
e6
f0
05
ea
fc
00
fb
00
07
f3
02
f7
ff
02
e0
ec
f7
eb
0b
ff
f0
e8
01
f6
03
f2
05
f8
01
00
05
fc
0d
f6
eb
00
f4
e9
e7
f3
fa
f0
fb
04
ee
ec
ec
eb
ff
f0
f3
f1
f1
02
f5
ff
04
f0
01
ee
e6
f7
f4
f8
e1
e3
00
ed
00
f9
0b
e7
f8
01
eb
fe
03
f4
f0
f5
07
10
13
01
f5
f8
fb
f7
e3
e7
05
08
f9
ed
ef
ed
09
e5
e7
f1
f8
e6
ee
ec
fc
eb
ff
fc
f6
f8
f5
01
f7
e1
f0
f8
01
ec
07
f9
06
01
f6
00
f9
0f
f9
eb
e7
f7
ee
05
01
ee
05
09
00
e8
e1
ea
00
f5
fc
ff
e0
df
fb
0e
04
06
00
f8
09
01
f0
00
f8
08
16
f2
fe
0d
1a
fd
eb
fd
00
08
f6
f8
07
0a
db
09
00
f4
0f
f6
02
fb
04
f9
07
ff
f4
ff
f1
f5
fe
f6
dc
09
01
f0
fa
f3
fe
eb
0c
fd
04
01
ef
e8
ff
06
f4
e4
e9
df
e4
e3
0e
14
07
f8
05
f5
ec
ed
e0
08
07
01
db
ef
fa
09
01
0b
09
ed
f5
e6
e1
f9
e5
09
f8
04
e0
f3
08
11
03
ed
fa
f6
f9
fd
fc
fa
f0
0b
f3
f7
09
f8
05
ef
03
0a
ff
0a
f5
09
14
e9
ec
01
12
e3
eb
f2
07
f2
ea
f8
f9
f6
09
ea
08
0c
fb
03
e9
0a
05
01
f3
fb
f8
e3
f5
e9
08
fd
03
0c
f3
ec
ed
f7
09
07
00
ec
f1
f7
fa
e8
ec
f9
00
f9
f4
04
09
fa
e2
ed
0c
e8
fd
e9
07
fb
fa
02
e2
05
00
f3
00
08
00
e9
08
08
f4
e2
f4
fe
ec
f1
05
06
fd
fd
f5
fa
08
e3
f8
e1
f3
f7
d8
f0
eb
08
0d
04
f2
eb
f2
18
10
ed
e6
01
09
ef
f5
fe
fa
00
03
0c
f7
f9
00
f7
ff
f0
df
fc
ee
e4
e5
00
f8
08
c7
de
28
eb
0a
e5
00
f0
f8
d6
f8
f0
de
ef
03
09
10
0c
ed
f1
11
10
06
fd
12
14
15
ee
0a
0a
fd
09
fc
18
f7
ea
0e
13
fb
05
f3
03
fb
f7
03
ef
14
04
00
ea
21
0b
f0
11
fd
08
06
00
02
10
04
0f
11
ea
f8
fe
08
08
f7
f6
0e
01
f4
f7
fd
1a
0c
fc
10
06
1c
f1
e3
09
0f
f5
ff
1a
e5
e5
fe
00
02
fc
f6
f8
23
3a
f3
0a
1e
26
1d
f3
28
0f
e7
f7
12
e8
03
04
08
ef
f8
00
0f
20
fa
02
fe
f6
f5
09
07
26
0f
f1
f3
0b
1a
0a
eb
11
04
06
f1
fa
e8
02
0a
ff
05
06
15
0c
f8
ea
fb
18
0e
fb
f4
e6
08
18
19
fb
05
f0
ef
13
f0
cd
f5
14
05
10
f5
dc
fd
0c
13
f3
ea
20
0b
06
ff
0b
03
e5
fa
16
00
f4
00
03
00
05
05
0d
07
02
e8
15
fb
fd
00
f9
25
00
e8
ff
1f
0e
f6
f4
0e
fe
fa
0b
06
1b
0d
17
09
c6
01
14
29
19
e4
0c
28
08
f7
07
16
23
02
18
17
ef
10
31
ec
ca
ea
05
00
1b
1e
f4
08
fd
ff
fe
00
09
09
1e
f7
12
05
07
10
fd
1e
02
02
16
04
f6
20
06
f1
f4
20
fd
f2
e3
ea
f5
08
14
1e
26
06
18
00
f4
fb
fa
10
e9
e2
fc
f4
07
0f
16
fa
eb
0f
eb
f1
e5
02
0f
02
0c
fb
00
0c
1f
09
f3
0b
11
01
ff
ec
f8
e0
f4
03
11
f4
e5
e2
00
01
fe
04
f6
0f
13
f9
f1
e8
0e
05
02
1b
05
14
14
13
00
e7
12
e4
00
0d
fa
00
df
f6
13
f5
e4
18
09
14
f6
12
05
05
ea
fd
f2
cb
d9
e8
eb
17
06
ea
e6
ff
03
fe
07
eb
00
19
ed
ff
fd
00
21
18
fb
0b
0c
26
15
f8
0c
2c
1a
18
fb
14
f8
0f
08
0a
0a
f4
09
00
06
ee
fd
df
06
1f
f7
db
ef
f1
05
07
06
0c
fa
fd
0b
f9
01
f9
f3
06
ec
ec
fe
fc
0a
00
03
03
0b
00
0b
01
09
08
f2
fc
f7
0b
e7
fa
06
11
e8
0b
08
f9
02
ec
dc
fd
f4
f7
f1
f7
13
27
ff
02
fb
fc
fb
05
05
0d
f2
00
fe
fa
07
fa
f3
f2
00
09
00
10
f9
f4
1a
1b
0b
09
01
fe
08
1f
1f
02
fa
04
f6
10
f0
f2
0a
10
04
f4
f1
f1
f9
f9
14
04
f1
15
15
19
e9
eb
0e
12
04
e4
ff
04
09
f6
ec
fc
fa
fa
02
d2
e5
ec
f3
e5
f3
1f
1a
0b
17
f9
00
03
ef
14
f9
06
f7
ff
11
f5
f3
e3
ee
14
f8
03
f2
f0
05
16
05
fb
f6
05
1d
0e
0a
0a
08
f8
ff
00
01
fb
10
0b
16
0b
0a
1c
0d
07
05
03
12
f9
fd
f7
f5
03
0b
08
18
f9
0b
03
01
05
10
f7
0a
e5
ff
03
06
ee
e9
f6
0e
f2
0d
0f
0c
0e
f1
d5
f0
f6
32
f1
fe
00
f1
20
f9
de
f1
e6
06
eb
df
d7
f0
00
ea
f1
04
1a
0c
f1
0c
0b
fd
01
f9
02
f8
10
f2
06
0b
13
0e
e5
f9
11
04
05
09
15
1d
1d
03
fd
20
fd
17
fa
02
0a
15
21
1c
fc
0f
f9
0d
ec
13
0a
17
f2
fb
10
05
fa
f8
0a
19
ff
0c
f6
f3
0f
05
fe
f7
fd
27
09
f9
e7
f7
00
0c
ee
f0
e4
02
00
f8
0f
ff
06
03
06
21
16
05
fa
15
19
17
05
f4
06
0a
01
ed
24
00
25
15
0e
1f
28
05
01
0b
09
0b
13
11
1b
06
11
f0
10
39
05
fc
f0
f3
24
16
ff
e4
f4
eb
13
fd
d9
e9
f0
09
08
0e
00
05
fb
19
0c
08
e2
f3
f1
12
00
f2
12
f6
1d
04
02
15
31
06
14
fc
00
fe
01
ff
24
0f
12
eb
e7
11
12
17
e4
e4
f5
1a
f4
cc
e3
fa
02
0e
e2
ef
08
e9
00
f7
e4
e9
fd
f5
f8
e9
fe
ff
1c
18
07
13
0d
13
05
16
f9
ea
f8
0d
04
00
dd
08
fc
f3
08
de
04
12
00
02
e9
f8
19
1e
03
e5
f9
15
12
0b
e4
ef
f7
00
ef
04
0d
f4
e5
06
16
0c
19
0f
0d
0c
04
1b
00
1a
f6
09
09
f4
e7
ff
12
04
11
e4
d6
f9
1e
1d
1b
d0
de
fd
15
01
f2
06
fa
1e
10
ee
06
19
17
0c
e9
fc
00
06
f4
bb
ca
eb
03
fb
f2
ed
f2
00
06
09
09
19
28
1d
eb
f9
f9
11
fd
e2
0d
12
f9
f7
dd
df
e5
f4
03
00
0f
ee
ef
f7
1c
15
1a
fe
17
0e
0b
01
0a
eb
fd
15
ee
eb
fc
1d
27
2c
ff
f0
0f
18
fd
e7
f0
07
00
1b
ff
eb
08
17
27
f5
ed
00
1c
f8
05
fc
de
f7
f6
00
03
e5
ec
fc
01
fc
08
00
1d
0d
09
ef
10
0d
05
fd
e7
f2
0a
00
02
fb
dd
e2
19
2c
d9
ed
ef
0d
26
e5
0b
01
09
01
f4
fd
fa
1c
07
e6
ea
fa
e1
f5
e3
00
f4
00
0b
15
23
11
f3
f1
18
12
00
1b
05
eb
fe
02
00
0c
ee
05
17
fe
f9
0f
19
32
26
10
08
fe
16
f1
f0
0a
f4
f7
1d
ff
12
00
f2
00
f1
08
05
e1
f4
ee
ee
fb
e6
ff
07
fc
f2
e2
e7
eb
1c
0a
00
ff
24
0c
f9
1d
23
06
00
fc
f3
ff
f1
00
0b
f3
0b
fe
15
2d
12
13
0d
f6
08
0a
04
f8
e8
f7
f9
08
14
12
13
1a
10
09
18
03
ea
c7
0b
17
fa
ea
f2
1f
13
0a
e6
fd
1c
0e
fc
f8
f2
07
04
04
db
d2
e7
f5
eb
f0
ed
fb
ff
20
f6
10
06
00
05
0d
12
00
ef
04
f5
0f
1b
f2
04
14
13
18
ef
f1
fd
18
f7
ec
ff
13
06
09
00
01
fc
f3
f4
f6
f4
ed
09
f4
0b
fe
f1
11
f7
03
08
07
ec
ed
ee
04
df
ef
f1
fd
f9
ef
ef
f6
fa
02
ff
08
ed
0c
fb
ed
04
ec
f4
f8
06
fb
e3
f6
ec
e6
ef
f7
02
07
f5
fc
e8
f2
09
06
00
07
02
ea
f4
f9
0a
06
e7
04
00
04
e5
ed
f9
f2
00
ee
f3
eb
f9
fb
ee
fd
e8
f5
09
fe
fe
f7
00
f1
0b
02
0d
05
e2
f1
f6
f9
e4
e4
04
03
f8
06
e8
07
fd
eb
fa
ea
00
00
02
f7
f0
05
05
13
f2
f7
f6
ff
f0
ff
f4
f7
f9
00
e9
00
05
07
f4
0c
fd
fa
ef
00
ea
f5
ed
fb
f6
ff
ed
f4
02
00
fe
0e
07
f1
0b
02
fa
f5
fb
fa
0d
f9
02
fd
fd
05
fb
09
06
0b
f6
03
00
f6
00
f0
f7
ec
08
fa
f5
ed
e9
fd
e7
fa
fa
ff
0a
09
02
09
ff
0d
08
ee
ec
fc
f6
f5
e4
03
ef
05
06
04
f8
ee
fb
00
0b
f8
f0
ea
02
fa
01
00
fa
f0
fc
e6
01
02
fc
f8
f7
03
eb
ea
02
fa
ff
eb
fa
f4
03
09
0a
fb
f7
0d
f5
08
fd
01
f2
0c
fb
00
e2
fa
f6
03
01
fb
ef
e9
00
e8
ec
02
ee
ea
fb
f2
f8
15
04
ed
f3
e9
06
fb
fe
fd
ff
e7
f7
e3
08
fe
f2
09
09
f7
f9
ff
f6
01
01
03
f4
11
fd
00
fb
02
ee
02
f1
ee
00
e4
f2
f2
00
e7
f2
f1
e9
f2
f5
f2
ee
f0
00
f7
e8
07
f1
f1
f2
f6
09
f4
f0
ff
ec
00
ec
f6
f1
e7
f9
00
ef
f8
00
09
ea
fb
ee
06
05
fd
00
00
f9
15
fe
ec
f3
ef
e8
ff
fa
f2
f0
f4
f0
00
e8
00
f7
01
f9
f0
f3
ff
eb
e9
e9
10
f0
01
f0
02
f9
0f
ed
ef
f1
ec
fb
03
f7
f1
f9
f1
05
e9
03
f2
f8
f9
e0
0a
05
14
00
fc
fc
f6
fa
f6
08
ed
0b
fc
ff
f6
f9
04
f6
03
02
f6
0c
fb
f4
00
eb
f2
fa
00
12
f3
ef
f8
ff
07
07
f1
e6
f6
f0
f8
07
fc
fb
00
0b
fc
f0
08
f4
00
f6
fa
08
0d
fd
f5
02
06
0a
fa
fc
ed
f9
ed
0b
11
02
0a
02
0c
f2
05
f5
0d
08
fa
03
05
0a
eb
f3
06
01
02
04
ea
ee
f9
eb
f3
0b
f6
04
f8
0d
04
e8
e0
f3
14
fd
0e
04
09
08
f1
fc
0e
04
f8
ff
0a
05
ec
f9
f8
0a
fe
f2
09
02
f7
f8
06
15
f6
16
fe
13
07
ea
00
ea
ff
fc
03
f5
f0
00
0b
0a
08
f8
fc
fe
04
f3
ee
e6
0d
02
00
0d
ff
08
0f
f3
fa
16
e5
04
0a
eb
01
e8
fc
f8
fd
e7
02
f3
f3
fa
10
0e
07
f0
f1
10
f4
00
f0
f5
12
00
05
f6
06
00
f4
f5
04
03
10
f9
ff
fb
05
02
09
07
16
0c
f7
f6
01
07
e9
06
fb
f4
e3
ec
fa
07
fc
f4
01
ed
0d
f9
f5
fc
ff
fa
ff
07
f1
e3
0f
f2
fb
fd
13
0f
f5
f6
f0
fe
f4
fc
ef
10
11
f6
f3
0b
00
ec
e7
f0
f1
f1
f8
f0
00
f7
f4
02
05
f1
0b
fd
ef
0a
f2
f4
f9
f6
f4
00
ec
f6
07
f0
f7
08
00
0e
11
ef
fc
f3
ff
f5
02
f9
fc
07
ee
0f
00
f7
f1
00
00
04
01
00
fe
f8
01
0f
fb
fa
f3
03
08
14
fa
ed
e5
ea
17
ed
e6
e8
fa
e9
e9
05
ff
01
ed
ed
01
f2
03
f7
ef
f6
fb
ec
fe
03
06
f5
08
ff
fd
ed
ed
05
00
fa
01
fb
00
e9
02
02
0b
f9
03
f8
0b
06
16
13
10
1b
ff
f4
0d
03
04
05
f5
02
f0
ec
11
fe
02
ea
ea
f5
eb
ef
03
eb
08
ee
ea
13
fa
f3
f7
02
20
fe
10
00
fd
07
0d
e7
0d
2f
0e
fa
e2
10
19
0e
f8
fd
f7
f9
e7
09
0c
0a
fb
fc
f8
f7
14
17
ff
00
fa
f1
11
00
05
fe
eb
fd
01
fb
f6
04
0a
0f
07
06
f6
08
ef
f8
fc
e8
02
0f
0e
10
ee
12
f9
f0
09
f2
0d
f9
0d
ff
09
09
07
fd
0c
00
00
0b
fb
09
00
f9
f5
fd
f2
00
02
fe
02
fa
00
ee
f5
0c
13
0f
06
fc
f3
f9
11
11
0b
fc
03
01
f9
02
11
03
10
14
03
fe
08
fc
10
09
0a
eb
0d
e9
ff
10
00
19
fa
0d
f9
e9
0b
fe
f9
11
07
fe
01
f4
01
e8
ec
fc
25
32
18
17
fd
1f
06
00
f6
fe
16
f5
f6
ef
fd
03
fc
03
0f
06
07
1b
ef
fd
ec
25
1c
1b
26
02
f4
f4
10
15
ee
fb
fb
f7
ff
e8
1b
11
04
19
f6
01
09
fc
0e
ee
04
e3
06
fb
ed
e2
f2
f2
05
00
e6
fe
0f
f6
10
0c
fb
f8
f9
13
09
f2
fa
fe
f5
05
00
0f
1d
02
11
f1
0d
01
02
04
fc
f2
01
fc
f4
0c
04
f3
0c
fe
06
00
10
36
fa
0d
1c
06
13
18
14
33
0a
00
1b
31
1f
0e
e9
00
f8
f2
f7
06
10
fd
05
0b
0d
05
1b
0b
01
fa
0e
0a
fc
eb
0c
dc
ee
f7
ec
03
0d
f6
16
0a
03
f3
eb
03
f4
fc
e5
fc
05
fa
d5
e7
08
f1
f7
ce
ef
00
01
fb
06
0b
09
13
15
12
fe
02
f3
02
f0
01
11
fb
01
0a
11
fd
02
27
0c
f6
f4
f1
f5
e8
03
06
f8
00
14
f9
05
f4
fd
0b
1d
fa
00
0b
02
11
ef
ee
f4
f8
ea
ea
ee
f6
ef
08
f6
ff
fa
00
0f
f0
e3
fd
07
fd
ef
11
f9
fd
f2
f6
00
11
01
07
01
10
11
e9
fd
04
f2
f3
f6
fa
07
f5
ff
0f
14
12
f8
01
05
f9
f6
f6
f3
19
ed
dc
ed
ef
04
09
fd
f7
14
07
fc
ee
0e
f6
17
18
fb
00
24
14
01
14
0f
24
f6
fc
08
04
0a
f2
fc
f1
0f
05
fa
10
f0
fe
08
01
e8
04
16
f5
f0
fe
ef
f7
0c
e9
0d
f2
f7
00
e9
03
0c
fd
1f
04
fc
10
14
13
f5
07
ef
f8
09
e9
f2
f9
09
0f
0a
16
0b
fe
0d
05
06
10
0b
03
0a
f3
ff
08
0f
ee
fc
ed
15
02
ec
07
f3
0b
02
f8
f9
0c
1a
05
04
f9
01
f1
19
18
f4
f4
07
17
33
02
05
0c
14
05
ee
f5
06
fa
fc
ec
e4
06
0b
03
19
0c
09
05
15
07
fd
f9
00
11
0d
f9
fc
07
f8
fb
fb
f7
00
f7
fe
e8
03
05
f1
0b
ef
f7
ec
f3
06
02
14
f6
fc
03
1e
16
05
08
e1
13
19
02
ff
e6
ff
fb
03
f6
df
f8
0a
0b
05
ec
ee
0a
11
04
e0
ed
18
f9
e8
f5
f1
15
fb
fa
f9
13
15
18
01
fc
05
07
02
14
04
12
1f
07
f9
07
fd
17
0d
ef
ec
0f
09
f7
e0
10
ef
fb
fa
01
03
fb
15
25
04
08
07
0a
03
06
07
11
f1
fe
06
0e
00
07
fb
e3
0d
0f
0b
e5
c5
05
12
08
0e
03
11
01
f9
09
06
00
f2
0f
00
0a
ed
e6
ef
19
06
07
fc
f2
09
f7
01
06
03
08
1b
09
09
ff
23
32
f5
19
1b
1b
0f
14
00
ff
fb
f3
13
0d
13
12
10
f3
0f
0b
07
e9
0f
ff
fd
06
08
ff
00
00
04
10
e7
fa
0b
f9
f4
e1
f4
ea
f1
e1
fe
03
06
0e
f1
ff
f5
fd
04
0c
00
0a
ed
09
17
fd
fc
f5
22
fc
01
21
15
16
08
08
01
07
1d
03
12
11
f5
eb
09
0a
23
04
0b
27
07
0e
14
1e
f7
05
00
17
ff
e1
19
04
06
01
fe
fa
f1
13
10
e5
ff
05
f8
1b
fa
0e
00
fd
12
02
fd
0d
11
1f
0f
fd
fb
f5
11
30
18
11
e4
fd
08
08
f5
00
f4
d6
01
08
f4
f5
ee
00
0e
db
0d
13
04
f8
13
e7
f4
08
05
0f
fe
02
fa
0f
fe
11
1d
0c
ff
ff
02
ff
fc
f8
0a
13
f2
ec
fe
10
fb
0b
e4
11
0d
f3
0d
ef
15
16
ee
06
00
0f
17
05
09
04
fd
05
14
07
01
03
e8
07
07
06
16
12
00
12
05
13
f8
0c
01
14
04
02
f9
f1
03
0a
0b
ff
0b
d5
0f
15
05
0a
f8
00
05
07
ff
01
18
f5
e9
f3
00
f8
07
02
01
0e
10
ef
0b
f9
dc
f8
06
1f
0f
d0
eb
0d
06
0b
fe
15
14
03
00
0d
f5
0b
08
f8
16
0e
fe
ee
03
fa
f1
e7
f2
0a
10
1b
f7
07
27
1b
0e
04
15
1c
16
fb
ff
15
fb
24
11
f1
01
f9
1b
14
13
03
fe
16
0f
17
ee
e8
25
fa
04
f0
f1
fb
0e
fa
f2
07
fc
e4
f5
04
1c
fb
f6
16
03
06
04
04
f4
05
01
06
0d
f7
fb
0d
fc
08
f1
f7
fb
13
fe
16
0c
0c
ec
e9
f1
12
48
d1
de
f0
0f
3f
ed
fc
fe
fe
28
11
fa
ff
f6
f6
0a
f5
10
06
e2
fb
fc
01
00
f2
11
0f
15
f3
f1
28
05
1d
02
ec
00
00
0e
0e
10
f1
14
0b
0c
fd
09
06
19
1c
f6
05
08
06
fa
0b
06
fa
f8
03
f9
fc
fc
eb
fe
dd
ec
ec
04
f9
10
f8
ed
f2
06
08
ec
f9
f6
02
0c
17
07
f4
11
1b
0a
08
ff
f3
00
1c
10
fd
00
00
0d
12
02
fa
f9
08
2e
03
03
f3
fa
10
0d
fc
0e
04
07
10
f3
07
f2
fd
03
09
0c
10
f4
f3
ec
34
fe
f1
e9
f5
45
00
fe
f0
11
26
18
00
f1
0c
e4
02
fe
f9
07
e7
ef
0e
06
fa
ec
fa
29
01
f6
f6
01
23
14
14
fc
11
12
11
0f
12
ff
ff
fb
0e
0f
f5
f7
07
0d
00
ee
00
05
02
e8
f2
0b
09
fb
f2
13
1a
01
f1
fa
19
12
19
fa
ed
05
0a
f4
f6
ef
0c
f3
f2
0f
ea
18
13
09
fc
0e
f7
08
0e
ff
07
e8
f4
03
0b
fe
f0
eb
fa
ff
00
0d
f8
06
fb
19
fd
04
0a
15
11
e8
fc
10
1b
fc
fb
02
0b
f5
0d
04
f0
ea
e8
fe
f9
fa
09
02
12
12
00
02
19
06
ed
0c
0f
03
09
e7
f1
fa
06
f6
ef
f5
fc
f7
02
0d
ff
f1
00
09
0f
01
ec
02
06
0d
ee
f9
00
0b
f4
19
0c
05
fe
ed
db
d4
d6
e0
f5
f8
0d
09
f1
07
f9
fc
00
18
00
f5
04
06
17
ee
01
07
04
fe
10
04
e2
d8
da
fa
01
f7
01
ea
0c
03
01
f7
0c
08
0d
fb
fa
01
f0
f5
0a
ff
0f
0a
03
22
30
22
18
07
f8
17
0f
02
19
08
0e
03
f7
0b
16
06
f7
f4
10
23
01
f4
fb
07
eb
f5
e7
02
f6
fb
f7
f2
f8
fb
f5
fd
08
ff
12
11
00
05
05
f7
fb
0c
f3
f9
d4
c5
cc
fc
f8
db
da
e6
d8
e0
f8
0b
f1
cd
e8
ec
ee
f5
08
01
01
f7
ff
02
1c
fd
fb
ff
0c
1a
15
08
08
10
01
11
f5
14
1b
fc
03
09
fd
fa
f8
09
f9
1a
0e
f7
12
10
0a
09
f9
09
f9
29
11
fe
08
f5
fc
f5
00
00
13
09
04
05
1a
0a
e1
f7
07
e2
e2
d0
d2
0f
06
e4
dc
ea
06
16
00
09
02
02
01
06
07
12
00
f3
02
03
f3
ff
15
20
21
03
16
0c
27
1a
0d
f9
18
03
f8
19
f2
09
0f
f0
0a
03
0f
1b
13
02
fe
18
18
f3
ef
fb
ff
fe
00
e7
fe
19
12
f9
cc
0a
1f
00
00
09
fc
fe
ff
04
14
0b
20
1c
06
16
26
1f
16
fb
1b
fd
0c
07
00
03
ff
0c
f4
00
09
f3
03
18
0e
06
fa
07
10
fe
23
09
fe
0b
fc
06
07
00
ea
0e
14
0e
fb
fb
20
00
01
fc
00
07
14
14
fc
22
0c
f1
ed
f8
19
00
06
e0
08
ff
0b
0d
03
0e
ef
06
09
0e
ff
f7
0d
ff
0a
16
f1
16
f8
18
ee
e9
14
07
fe
01
f7
f6
ee
04
0e
02
f7
ff
23
1d
0b
04
fc
0e
0c
ff
06
ee
e9
f4
fd
ec
fa
02
f4
0a
f8
eb
fd
0f
fd
04
08
0e
04
00
14
0e
12
12
fe
14
fa
0d
ff
fd
0c
23
05
03
04
04
09
fb
16
fd
00
00
f5
ec
0e
11
f7
0c
2b
15
1c
0b
12
08
04
03
01
f2
ff
15
1f
07
ff
0f
00
ef
f5
0b
15
ff
f5
f4
0c
0f
1e
fd
fe
f7
01
0a
ee
dc
ef
13
0f
13
f8
fe
f3
12
0e
12
ee
01
e9
0c
02
e3
da
05
f2
f6
ee
f1
ef
fe
f0
d1
de
15
fd
ed
e3
f2
f8
fa
ee
ff
f8
01
03
00
14
0e
02
15
0d
fd
07
18
0f
fb
f8
f6
09
0e
0a
f2
06
f7
ff
00
17
14
02
13
12
fa
2e
51
31
1e
17
2e
25
0e
00
2a
2b
fc
0e
11
09
14
09
16
eb
03
25
14
fe
fd
12
14
11
f8
fb
e6
ed
0d
08
ea
df
05
fc
00
06
04
ec
0a
17
fc
0b
f1
05
07
07
0e
f3
fa
01
ea
fe
ea
00
dd
e7
ff
f9
2e
09
26
f9
0b
04
04
e8
08
15
0f
fe
ec
00
14
1c
0d
fa
13
1a
0b
08
eb
06
f9
0b
0a
00
e7
06
0c
06
e7
fe
03
fc
0b
07
f2
e7
f5
0a
00
f8
f8
d4
06
fa
00
f9
da
11
15
13
f6
f2
0f
08
06
eb
ef
f3
00
ef
06
ed
f3
22
fe
19
0a
e2
f7
f9
16
ef
fa
04
06
0e
01
0e
04
08
f9
14
0d
ef
06
ee
0b
05
ee
f9
db
f4
ff
fb
00
fc
03
09
08
13
de
fe
03
13
01
e5
e7
ff
0c
08
01
e6
03
1b
07
04
d0
f9
00
04
1d
ff
f0
01
f8
07
05
fa
00
12
e6
e1
0c
fb
09
15
0c
09
fc
00
0f
13
f0
00
fe
0f
13
0b
f2
f2
03
00
f9
f0
00
0e
05
f6
fd
08
0c
0f
01
09
f8
09
09
f7
0f
f3
fc
14
06
fb
0a
03
03
ef
f1
00
11
00
04
0c
14
06
f0
f9
10
06
0f
fb
fe
01
10
0f
05
04
e5
08
ea
02
f0
f3
ff
05
f5
07
f2
fa
1d
18
01
1c
0d
ea
fa
01
10
00
12
f2
04
0a
0a
1d
15
e1
e9
09
ef
f1
04
02
f2
14
0c
14
18
f0
fc
f0
ff
17
12
18
20
fa
ef
f7
00
15
00
f3
02
ff
02
f3
f7
1d
f5
ee
05
10
26
25
f0
fe
19
12
2a
16
01
0b
01
0e
13
11
05
f6
fe
f6
02
00
2d
24
08
e5
ff
13
1a
fc
f0
db
ec
fb
02
f4
de
e2
00
0b
e0
eb
f0
ff
f4
f6
0f
f7
fc
08
00
13
f4
06
0f
0f
13
f9
01
08
02
ed
fb
0a
fb
e9
f7
fc
ee
f9
fa
10
e1
df
06
23
2c
00
fc
01
09
47
1d
04
ed
f5
2d
0e
24
10
16
06
07
27
26
0c
bf
fe
18
fe
f2
fe
0c
21
01
f2
e4
f5
ff
12
05
f5
e7
ec
0d
0c
f0
e2
07
eb
f6
02
20
08
03
16
09
0b
f3
ea
fe
06
fe
f8
f5
f7
ee
08
01
f1
dd
c4
f4
f6
f2
ee
00
15
08
0d
f4
0d
12
0b
ee
f5
1d
fe
17
fd
fb
25
0e
0a
ff
03
d6
f6
06
e8
e8
e2
08
07
0b
00
ea
f1
0f
03
f2
fb
03
e3
ff
04
f8
f5
e6
f2
10
fe
0a
08
06
0e
0d
15
03
ea
e9
25
18
05
f5
f3
27
f4
19
e4
e9
38
0a
0b
fb
13
fa
f6
04
0a
14
d9
df
09
06
e5
ef
f5
28
0b
00
e1
ed
09
14
fe
ee
ef
ee
ef
16
1b
ea
f3
00
10
06
04
0e
08
fe
15
05
00
06
02
1c
f5
17
05
f9
f8
ee
10
14
00
df
fc
1b
f0
df
09
fa
ed
00
eb
03
ff
ef
f7
f7
fc
fe
02
0c
13
07
02
18
05
1e
1c
f5
14
12
07
1a
0f
f8
f9
02
02
15
01
08
06
0a
0e
f4
0f
11
15
fd
fb
11
15
15
02
0c
01
fc
13
06
06
02
01
eb
0c
fd
04
04
ec
01
18
1f
0a
11
f3
07
1e
00
12
00
07
0f
02
f8
00
f5
f7
fd
29
17
f7
00
06
04
15
03
ed
ff
04
f3
03
fd
11
14
eb
0a
12
f8
08
06
ef
e4
ee
13
21
0d
f3
f2
f4
17
03
13
24
18
e6
f6
1b
2a
09
04
f9
07
23
16
2b
14
f7
fc
f3
fd
0c
02
fa
f9
fb
fd
f3
03
06
ff
f6
13
0a
0a
0a
04
f9
f9
01
0a
13
1f
2b
3a
ed
02
12
28
1d
f1
07
03
13
f2
18
06
2a
f8
f3
1b
27
0a
00
eb
0d
f0
e7
03
07
18
06
f4
14
0a
03
03
0d
0b
fd
0d
06
03
02
1e
01
f9
04
0f
18
f4
ed
ef
f7
fb
30
00
ff
f1
08
18
00
06
ff
09
fe
f8
e3
11
1e
fe
f4
ea
05
26
12
f9
02
01
fd
ff
f5
08
03
07
f6
0b
00
02
0b
ee
01
03
14
fb
06
f3
0b
11
0e
f1
00
00
28
0f
03
ed
08
46
3b
f6
00
11
16
fd
1c
11
1a
f6
f5
19
24
f0
ef
f0
0d
f9
ee
ed
fa
fc
01
f7
ef
ed
fa
03
02
f1
08
0a
12
08
11
0f
fd
0b
0e
f9
fb
fe
21
2d
14
f7
ff
15
1c
16
0e
f2
03
0c
0e
02
f1
fe
09
13
f4
0e
09
08
f3
00
07
03
1c
11
ef
fc
15
f1
fa
ef
10
1a
04
ee
03
11
20
fb
04
0a
ff
0a
f7
f9
14
1f
11
0d
f9
0d
18
00
21
f1
ef
f2
e9
f4
00
f0
e6
f4
0a
20
f3
04
00
1e
0c
10
02
11
e1
e0
e5
0d
0b
e4
e7
f4
ef
fc
00
ed
0d
12
f9
f2
f9
fe
1c
1e
e0
e9
fb
11
0b
0e
ff
fe
03
02
0d
f4
18
00
08
0f
0a
03
00
fd
13
10
0f
f3
f0
f6
f9
09
e1
1b
0b
f7
fa
f7
00
00
0a
0a
fe
09
09
1b
03
fc
06
13
fe
f9
ec
f1
10
07
14
07
fe
02
f4
01
1d
18
f2
06
1d
0e
0c
fd
f6
15
00
09
02
13
10
f7
10
05
f2
11
fe
15
20
ef
e1
f7
00
ef
fa
fd
09
0c
0f
28
28
ec
01
18
18
02
f1
ef
f2
00
ec
fc
0f
23
10
ef
1a
18
0c
f4
0d
f3
ff
01
07
17
f3
f2
10
03
0d
e8
f5
01
09
09
01
0c
f4
0e
0e
13
20
fe
07
00
09
06
f8
fa
ee
0f
eb
00
fa
06
0c
15
09
f7
08
15
1c
f6
dd
f3
15
04
f1
fc
fa
07
f2
f4
1c
02
2a
17
0d
08
00
24
07
fb
f7
ee
ff
06
1c
fc
f9
0b
02
e7
f3
02
03
f2
0c
0c
14
04
fc
0e
f8
09
04
f7
f5
0c
00
19
f2
17
02
21
e6
0a
22
24
eb
00
01
f9
ed
10
e9
e6
ed
0a
19
cb
da
f4
e2
21
05
0b
0f
f3
05
26
11
15
f3
02
13
16
13
f6
f8
04
00
0d
fe
f5
0f
09
0e
12
02
00
11
14
f0
f0
17
11
02
e1
e6
16
e3
f7
06
22
0f
15
22
10
fd
07
06
d6
de
e7
f9
06
11
0b
fa
12
fd
f2
00
06
23
0c
e7
0d
1e
12
12
07
0b
10
07
f3
f4
fb
0b
fe
0a
ee
00
fb
13
06
13
09
0e
f6
fe
08
fa
03
fd
ec
0d
04
0a
09
00
05
0f
05
11
f2
f0
f4
e6
fc
e4
ff
1b
e1
f9
04
00
ef
f7
11
f1
e2
f4
1f
1c
fd
e7
f9
08
02
e6
e9
e4
1b
ed
22
fd
fc
13
dc
0e
fe
f3
04
d9
f9
f1
f2
f5
fd
11
1d
0b
16
09
f2
03
12
02
01
e7
14
18
f9
0d
15
10
0a
1d
f1
ec
f4
09
ff
01
05
06
ff
f3
00
01
02
02
f4
f7
03
f8
04
e9
09
0f
05
fc
fa
0e
16
0e
18
f3
0f
fd
f3
05
16
0f
01
ea
07
04
f7
fd
f3
11
13
e7
fe
0d
10
02
12
f8
f0
14
11
08
06
f6
06
08
e8
0a
f5
f2
fc
f0
07
0c
00
ea
05
13
18
06
05
f1
09
17
09
fe
02
00
0c
ff
19
01
09
01
0a
16
f2
09
fd
17
0c
f6
f7
f2
18
eb
f8
0c
ed
e8
e8
0b
00
1a
f1
ef
f9
0c
f2
f1
f6
f1
06
f6
f7
f7
11
25
21
f8
f8
21
18
0a
02
ef
13
ee
03
00
0d
fe
fa
01
0b
e9
00
ee
0a
ff
ea
fc
0f
21
fc
e9
02
f8
1c
03
01
ec
04
f5
19
fd
04
ed
19
17
0d
f3
fe
f3
09
08
f8
ea
f4
11
0f
ef
f8
00
f9
ff
df
f0
17
00
0e
13
f7
0b
0f
fd
00
ea
0f
fd
e7
0b
fb
1e
03
06
15
fb
07
00
fe
0d
05
03
f7
16
0d
fd
e0
da
ae
04
fc
18
fb
e5
fb
13
08
0c
de
19
2d
12
04
02
0c
19
00
d8
d8
e1
f3
fb
06
16
ee
06
03
0f
08
fb
fb
f5
08
07
02
fd
f7
09
14
06
fa
ff
fd
f8
11
03
0f
03
fe
02
03
04
f9
fd
0c
03
f9
1d
19
fe
f0
f5
02
00
12
1f
09
f5
11
ea
02
06
0b
df
fc
f0
f6
04
dc
f1
07
04
14
f2
f9
fe
12
16
05
fb
f6
07
0b
f3
f0
fb
f9
06
14
11
de
fa
08
1c
22
24
fd
fd
12
0b
00
e4
fe
14
ff
ec
07
f6
02
00
00
04
19
ff
f1
f5
f6
09
da
ef
1b
0d
0c
e2
de
1f
06
fe
fc
ec
13
00
02
da
e9
dd
ef
01
13
f3
ef
e7
05
12
22
fe
db
05
10
09
00
e8
07
00
06
fb
e1
01
00
06
fb
1d
12
2a
01
12
08
f4
0b
f5
10
0a
ec
03
00
01
f9
ff
dc
10
f7
f1
00
fd
14
01
13
09
01
04
f7
0e
f0
f5
f2
ed
fb
00
ef
02
ff
06
fc
04
13
14
09
04
0c
09
09
11
06
fe
15
fc
e9
fa
ed
13
0b
0b
f6
f8
f1
f4
f3
0d
fb
03
1e
1a
06
24
07
f5
09
f1
fd
04
f7
07
ea
ed
09
f0
00
08
07
13
04
16
08
19
16
17
12
fe
14
01
0a
1e
14
fb
fa
fd
02
0a
fa
06
e8
05
ff
f5
f0
1d
0f
e9
05
00
10
00
14
18
0c
00
0f
18
05
1f
06
f6
0c
e1
06
ee
02
fb
f9
f4
05
ff
06
05
1e
13
18
15
32
fb
1d
03
f9
16
07
ff
fe
04
e9
eb
fc
06
f9
ed
f8
07
0d
0f
1d
1a
09
fb
18
24
ee
00
0b
fd
db
ff
eb
f6
f8
e1
f3
f6
14
00
ec
02
0a
16
fb
fa
13
fd
e2
e4
f1
00
10
12
07
04
f7
0c
00
f2
e8
00
03
f4
f4
01
f6
1a
0e
eb
00
18
10
ff
1b
33
1a
31
31
30
29
0a
1c
07
24
1b
32
18
08
09
20
05
fb
fc
16
28
f1
02
11
10
11
f0
07
08
0f
ed
ef
f9
03
f2
fd
df
fc
06
ff
e2
0a
f4
14
0b
0c
1d
18
06
1d
fa
05
11
fc
e5
d9
20
07
00
e9
ec
f8
00
01
12
17
0e
20
03
fb
1a
01
10
e1
e4
f5
13
19
07
10
1c
11
0a
f5
00
fc
0a
0b
fc
f0
e9
ef
03
13
00
ff
00
00
0b
f9
1d
10
f6
02
00
ed
00
fd
ff
fb
ef
f8
ed
e8
0e
03
10
ec
f9
12
0c
00
25
f0
02
14
fd
00
0c
06
1c
04
1a
f3
06
00
07
16
dc
ec
01
00
f7
02
0c
08
10
fb
ec
02
f4
f3
f5
f8
15
ef
ec
f5
0f
fe
ef
e2
e5
f7
0e
f6
00
f4
0e
07
08
12
15
fa
fa
00
f0
00
f2
00
f9
fd
f9
f6
f2
fc
00
f7
f5
13
f1
06
00
01
f1
f5
08
ff
03
06
08
05
f5
fa
f0
06
00
fb
f0
05
fb
f4
05
03
03
0b
f2
09
fc
00
f3
fb
07
03
ea
00
00
fe
05
fb
f1
f3
05
fc
f9
f2
04
ea
ef
0b
f6
0d
fa
f7
0d
fc
0c
f7
f6
f3
f0
fd
f8
f5
ff
09
ef
fe
f6
ef
05
00
f5
09
0b
00
03
ef
0a
f6
ef
fe
0c
f7
0b
f7
04
03
eb
11
07
06
fb
f8
f8
04
f4
0a
f7
fd
f0
07
09
08
fd
06
fe
f2
0c
06
0d
f5
f1
00
f7
fa
0a
09
07
f2
f8
f6
0f
04
f9
ed
f2
ee
08
00
fe
03
f8
00
06
0c
0a
fc
06
eb
06
fb
fb
03
fb
00
f9
01
f7
fb
f9
f7
f7
05
f2
fb
07
0b
fc
fe
ed
11
05
f3
06
09
07
01
0e
f8
f8
0c
10
fb
f1
f9
f4
f5
f0
f9
fe
0d
05
fe
f0
fb
ef
0b
04
04
09
06
08
f3
06
f1
06
fc
f6
ee
f5
fc
f6
00
f3
ec
04
ee
f4
ee
f8
ec
00
01
ef
0b
0d
fb
07
00
01
00
f3
f7
f8
ff
08
fe
10
f7
10
f0
fc
07
ed
f2
f3
04
f7
09
f9
ee
04
f2
0a
00
fb
06
fd
02
08
ff
f5
07
f1
fb
f1
f7
09
05
ed
04
08
f4
ee
05
fc
f1
03
eb
f2
00
f8
08
ef
02
05
00
ed
02
02
fa
fa
01
0e
f1
0a
03
0a
09
09
0e
0a
0d
f4
f8
f3
f3
fa
fe
07
ed
02
fe
09
0c
04
0a
f3
f7
f2
01
ef
0a
f5
ff
f3
03
09
fb
f1
f9
ff
03
f2
f2
0b
02
fd
0b
05
f5
07
f7
0e
0d
07
f6
00
0c
f2
09
f7
04
08
ed
09
f0
fa
03
0b
f0
f0
f0
f7
f2
0a
f9
01
f2
00
f0
ef
0a
f4
06
0c
01
f8
fa
ec
f2
03
0e
fe
08
ff
f5
00
0a
0b
f6
fb
fa
ed
06
14
03
13
fb
d1
04
15
04
16
0f
ff
0c
ff
03
31
0a
0f
fa
03
fc
17
f5
f8
02
f6
02
14
1d
18
00
e8
ef
0d
f0
0d
fe
f9
fd
f7
f0
0f
10
00
10
00
16
0f
0b
09
0d
25
14
fa
02
0c
0a
f7
e6
10
03
03
0c
08
f5
f0
19
0e
f7
ee
0a
16
11
25
fe
00
02
08
11
0a
05
f7
fc
0f
0d
f1
eb
06
00
09
00
10
14
06
fa
19
11
1a
fc
16
26
1a
0c
f1
fe
dd
25
f8
fd
fc
ed
03
ff
12
fe
07
0e
fe
01
f7
fe
10
f9
06
21
15
29
18
0b
13
07
0f
0a
f5
03
f4
e7
fa
04
fc
eb
05
f5
f0
0a
0d
11
1c
0e
11
2a
13
2b
24
18
0e
f0
fe
15
07
08
ea
eb
e7
f3
e8
fe
07
fa
f3
00
04
0f
04
15
15
ea
ef
00
ef
0d
ee
d6
06
05
02
d2
f5
19
01
f6
1b
fc
fb
01
11
02
f5
e6
02
f1
27
04
0e
11
e8
03
08
0e
f0
ec
ea
f2
ef
ea
e9
0b
f7
00
f2
01
22
02
09
23
17
32
50
36
fd
ca
27
30
18
fc
b6
14
13
f9
10
f4
0a
fe
11
02
15
f3
fa
02
1e
25
0c
fc
15
1e
15
df
f0
02
ff
08
ea
fa
f4
f6
f9
09
05
12
04
01
1f
0b
00
15
16
04
07
00
f6
f5
fc
ff
fe
e3
e2
07
19
1f
19
0e
1d
1e
fb
0b
36
fe
02
09
16
ec
06
18
23
0d
fa
12
0b
00
06
ed
01
00
fa
ff
e5
fd
0d
01
07
07
10
0c
17
1c
2f
fd
f2
ef
fc
03
f5
d5
f0
f4
10
fe
f4
fb
13
02
0c
fb
05
16
08
11
0a
f5
07
ed
e9
01
1f
12
f0
ee
07
22
11
cb
0e
fd
01
fa
f0
07
ec
0d
03
0c
ed
fe
ed
f2
fe
ea
ec
f2
07
1a
de
ca
f6
ff
06
0f
de
e3
06
00
13
e6
f9
f8
07
1a
16
e7
f4
f7
05
1a
11
29
29
16
12
00
02
ef
f4
ed
10
0d
e7
df
0f
0b
0f
e0
00
ed
28
22
0b
eb
f2
f5
02
06
eb
ff
fd
e6
04
db
e7
ed
f3
0d
fc
0d
0b
00
e4
02
17
0d
f4
07
f6
e8
02
fa
f5
e1
e4
fc
fb
15
e3
f0
de
de
ff
1e
17
fe
09
e7
1a
0f
07
00
ef
f5
f3
f7
e5
ec
ec
f0
f9
f9
01
f0
ec
06
fa
e4
09
09
04
f1
eb
1a
fe
f6
0b
03
07
06
10
19
13
f2
fa
f6
f6
04
f6
e9
fa
fb
ef
00
df
e8
f9
ec
23
15
1d
f5
f9
00
f0
fc
ff
02
03
ff
17
09
1c
12
1e
18
05
eb
20
33
1c
eb
f6
2a
1b
f8
ef
de
07
19
0f
0b
fa
1d
12
19
17
0d
fa
23
0f
03
e9
02
f8
1e
fa
d0
14
06
06
f8
d6
e6
08
10
fc
e6
db
f9
19
fe
e4
cd
ff
20
f7
eb
d3
ed
01
0d
e6
de
e6
0b
16
ea
00
01
0c
02
0c
f0
06
14
0a
1e
ef
e4
fb
f8
d8
10
12
01
e8
ec
08
15
fb
f6
e2
d5
06
04
1c
40
fd
00
f8
08
30
28
1e
22
1b
15
08
fd
04
f8
c8
01
17
15
de
dc
d6
eb
ef
08
eb
d1
01
03
02
f3
f8
fc
f7
0e
f8
f2
fc
f0
12
00
db
f4
e8
05
f6
f6
13
ff
ec
01
f5
ff
12
0d
16
e6
00
09
ff
e6
de
f3
06
f4
b4
ee
07
23
f8
eb
ff
10
0f
11
20
ef
0e
f1
08
fc
e8
0c
f5
fd
11
ed
fd
00
e6
da
21
1e
0b
fb
e3
f9
f9
fd
03
0c
0a
e2
f9
f5
f5
12
f5
0d
eb
11
12
0a
f8
f7
fe
c6
cd
f3
12
0c
14
24
1b
1b
2a
14
ff
15
01
1a
ed
0b
10
1f
0b
cd
00
0a
fb
ee
ea
fb
20
ed
fa
eb
eb
f6
e9
f8
02
fb
ff
e2
00
fc
ee
11
00
12
0d
00
01
1b
0c
e5
ec
e5
03
1f
15
fc
20
fd
23
fa
05
f7
fa
09
0b
19
ee
02
19
f4
04
f9
f2
f6
ff
eb
fe
e9
0b
0a
11
fd
0d
fe
f3
e8
08
e6
f5
f8
07
0b
00
f5
0f
0d
00
fc
05
fd
13
10
11
05
f6
05
fd
ef
fa
0c
00
ec
f3
fe
15
0a
04
f1
f9
1d
12
02
05
f7
1a
1b
09
11
21
f7
f2
02
fa
00
03
00
fb
f9
f6
f5
0a
12
15
fc
10
17
00
08
0a
01
07
f9
15
09
fc
13
13
07
04
11
0d
00
11
11
02
04
02
1b
10
19
17
ff
f3
04
02
03
14
0f
21
0c
11
07
03
03
00
08
fa
f5
fb
ef
0b
10
12
0a
09
15
00
fb
fb
1c
1a
1d
13
2a
fe
0a
fc
02
f1
fe
e9
f8
fd
f2
fd
0c
0a
f9
e5
f2
02
15
13
0b
19
00
fe
0f
0f
f2
00
04
f8
fb
e8
ea
f8
06
e9
ed
f2
1a
eb
ff
0f
11
03
e7
fd
fe
f2
eb
f5
07
fb
10
ff
05
09
fe
0a
f5
fc
e8
eb
f9
15
0d
0a
02
0a
15
01
1d
00
0d
08
17
20
1c
27
1e
24
1c
12
17
0f
10
02
25
1a
fd
16
09
15
05
13
1b
29
14
ff
12
11
24
04
10
0d
0c
03
d8
e2
f3
06
00
df
fd
00
ff
f2
fe
fb
05
fd
07
14
12
fe
04
fe
0b
09
fb
00
00
00
09
0e
e7
fe
15
0d
18
0d
0c
0f
06
00
0d
f1
0a
0a
fe
f4
e0
00
11
09
16
1e
f8
f3
f8
e6
fe
eb
00
f7
f2
0a
04
12
02
12
04
0b
0b
fe
15
1b
f4
07
00
f4
0e
08
e9
f7
09
11
18
fb
fa
fa
06
18
e7
08
07
02
0d
fe
f2
f2
01
02
09
0b
f6
0e
fa
f1
f7
eb
e0
fd
0b
00
ff
f7
14
eb
04
f4
00
0b
e5
fc
0a
fb
e8
f5
f7
00
0c
e4
ef
f1
f4
08
04
dc
ec
eb
fc
0e
03
0d
0a
0c
01
06
e2
e3
09
02
17
1b
1a
63
18
1e
07
e5
1e
02
04
f7
09
cf
fd
fe
ed
00
04
f9
03
e3
0e
21
12
0d
f9
f4
eb
ed
0a
04
fd
0d
0d
0b
01
f7
0a
f4
02
09
00
17
fa
fa
17
01
f9
03
04
0d
0e
f7
e9
ee
ff
04
05
f3
0b
00
08
04
04
05
14
f5
0c
0d
01
20
17
f8
08
f8
fe
f0
f3
f7
03
0f
ee
11
f5
f7
00
05
10
07
03
f4
f8
14
0d
ff
08
02
fd
e6
0e
1c
1c
06
fe
eb
ff
f4
e8
ff
f4
12
eb
f0
f0
ee
00
fe
19
09
f8
ff
17
19
e9
f1
f4
17
0d
e0
03
10
1f
02
f7
05
02
ff
05
05
ed
01
f1
0f
15
22
0c
11
f0
02
ec
fe
f2
00
ec
f2
0c
f7
19
18
07
00
02
0c
08
05
fa
ff
f6
16
1e
10
0a
f9
1f
13
0d
fe
dd
00
fd
1a
eb
c9
00
13
0c
f7
fa
fa
00
e3
ec
f6
fa
e7
e3
fe
05
f6
03
0f
09
11
01
f0
02
0b
f7
0b
0b
fe
00
11
05
f8
f3
12
01
12
0e
00
11
f7
e7
f3
eb
20
64
e2
eb
dd
19
59
fd
f0
e7
08
0b
0c
fc
05
fe
da
10
0a
06
10
18
f4
07
00
fe
e9
08
10
15
07
ef
06
08
02
14
fd
f7
14
0b
07
01
f1
12
0f
fd
03
0d
eb
14
fe
00
ed
0d
23
00
0b
0f
01
10
f5
00
e8
ec
04
f2
ff
ea
ed
11
12
0e
f9
07
0a
10
18
f7
02
f0
fa
0a
0e
03
f9
06
13
f7
fe
fa
fd
f6
0e
10
11
08
0b
07
03
f1
00
f9
04
0c
07
0e
08
18
f6
0c
0d
03
06
0b
12
ef
f2
ea
0b
f0
f2
05
0f
fa
fa
de
24
fc
0f
db
f1
43
11
f7
f5
17
17
04
00
01
02
e8
fc
f6
09
f8
13
0a
09
04
e2
e7
00
09
0d
f0
e8
13
0d
08
f2
fd
1d
0d
20
00
fd
f6
fe
00
fa
f2
07
0a
f9
1f
44
f6
07
01
15
08
2b
13
fc
00
ef
00
f2
03
0c
05
fe
e4
e8
1a
1b
f9
15
0a
01
fa
ec
0e
02
e9
f3
ed
f2
05
08
10
f6
00
fc
01
ee
07
01
fe
f4
02
18
00
15
07
09
00
f9
06
f1
fa
fe
fe
06
e2
00
00
f0
f2
0d
15
23
09
00
06
00
04
fe
0b
03
f1
f5
ff
07
f1
e0
e1
e8
f3
10
09
e5
f5
f8
05
03
08
16
00
05
10
10
1c
01
16
00
00
19
15
f0
ff
07
fb
04
ec
da
ed
fd
f9
f8
0e
f2
f8
09
1f
15
17
24
00
17
0d
fa
f1
04
0a
e3
10
03
1d
05
ff
09
0e
fa
f2
fd
2b
04
f7
f3
fc
05
17
00
16
08
fa
e7
f6
ee
ff
04
18
05
fb
f1
f4
13
01
03
0a
f1
ff
05
f3
ed
f1
03
01
ea
03
e0
f1
03
f7
e7
e1
fd
12
f2
e8
d0
d1
eb
ef
f3
d3
bd
f1
15
00
14
11
0c
1c
12
f8
19
04
fe
e9
07
06
02
f3
02
00
f4
f1
f8
f6
18
04
ff
03
0d
00
14
00
01
07
14
21
04
04
29
08
11
07
11
fe
25
17
2f
1c
f8
11
36
09
0a
d0
18
ff
0f
09
0c
f1
fc
01
0d
05
df
00
fa
00
e9
f5
d6
ed
0c
f5
ff
ec
e1
ed
ed
fe
e9
ec
fa
0b
ed
f3
f3
f6
fc
f8
fc
00
f8
e9
e3
f6
ea
ea
f5
fb
fb
21
27
0c
1f
11
0d
08
11
11
1f
14
08
01
f8
06
14
0a
04
e6
07
06
f8
e5
f1
ef
0f
02
1a
ed
f6
ef
fe
fc
f4
c8
fb
0f
08
21
fd
f6
f9
0c
0c
ef
db
eb
00
f1
df
c4
f5
ff
f2
ff
02
e4
15
0c
08
04
fd
12
14
fb
e9
01
00
e1
03
28
0c
05
e0
fd
06
ff
eb
ea
f3
ff
0c
ec
ee
ec
fe
0c
ed
0f
d9
03
eb
09
15
f0
fd
08
0b
f2
db
e4
02
fb
11
13
00
15
2d
f9
03
f0
1d
ef
13
e6
18
e4
f2
f2
f4
0c
1a
1d
ff
f4
30
1a
07
00
ec
00
02
f1
fe
01
05
ff
f5
10
ed
09
04
08
0f
0e
00
1c
11
08
f9
0d
fe
12
ff
f6
f0
ff
0f
fd
f9
fc
ec
f1
e4
00
f7
f6
13
26
00
13
0d
fd
0c
0e
06
fb
f0
e9
05
ec
f5
03
01
0d
f5
f8
ef
08
02
11
19
06
f9
f5
0b
01
1d
f7
e9
07
ff
f5
0c
f3
f7
10
09
eb
f6
fe
06
eb
0a
f9
f5
f6
e4
22
16
06
1a
f9
fe
0b
0f
0f
07
ec
eb
00
f1
09
dc
ee
00
e2
ee
fd
00
1f
13
08
38
18
13
17
01
10
02
ec
02
0f
fb
08
ea
f5
f5
ea
fc
ec
ef
f0
08
13
12
00
e5
12
11
0c
07
01
00
eb
fb
00
18
06
fb
fd
1a
00
e8
0c
0d
0d
f5
03
0b
e6
eb
0b
ef
e4
f6
1d
fb
fb
fa
00
10
f4
00
05
07
f7
fc
f3
f6
ea
05
e7
0c
fe
fc
14
f2
18
1b
0d
1a
fa
fd
00
00
fc
03
0d
fa
d5
e1
f5
ef
fd
0b
fe
03
eb
06
19
0c
da
f1
1c
12
f3
ea
2a
15
16
0a
0b
00
fb
f2
f5
02
fd
0a
fe
05
10
08
f5
ff
fa
f8
03
14
f8
ff
fe
fc
e8
de
09
0f
ea
0e
15
11
09
07
05
ff
0b
f9
f4
0d
00
eb
00
06
e6
02
0d
e5
03
ff
12
07
f0
04
fc
e5
05
12
e9
05
f4
02
f2
fc
f1
f5
01
e8
18
0b
19
0a
14
08
f6
00
1b
15
0c
09
01
f5
02
1a
fa
f8
11
00
17
1e
00
fd
1e
07
05
f4
ff
f7
f3
cd
e5
fe
09
f2
00
06
f8
18
14
ea
09
03
12
f8
e3
0d
fd
e8
eb
fe
11
08
f9
fd
0b
0e
18
12
ec
ed
0f
f3
f7
fb
f9
13
0c
11
27
04
fc
f3
22
03
f4
e1
01
01
05
e8
db
f9
fb
10
01
ed
ef
bf
11
0a
08
0a
06
05
f5
fd
11
2c
18
10
0b
e2
02
ff
0c
df
ee
fd
05
08
0e
12
11
12
0b
18
11
13
fa
02
f1
02
fc
0c
ef
ff
ec
fc
fe
08
fa
02
ea
05
fe
05
00
09
12
03
01
06
fc
06
04
f1
f7
f1
eb
03
0d
ef
0e
04
f3
06
00
f0
16
02
01
0b
18
12
fd
17
0d
19
08
f7
f6
ed
f3
ff
04
01
05
e9
04
12
08
f7
f7
ff
09
ff
f0
f2
f5
fc
03
07
0f
f7
f0
05
ff
23
f1
0b
04
0a
0a
fc
fe
fc
00
f2
15
21
26
20
f3
1e
15
13
f9
fb
ee
eb
e8
fd
03
dc
e2
e1
05
f9
ed
ef
fa
fa
e6
14
15
22
18
ef
13
0e
26
1c
24
fe
e8
ec
09
07
05
ec
08
ee
01
07
fd
f7
e9
eb
e8
f8
e6
e3
f4
00
fe
07
01
08
06
f6
02
0a
0b
09
1c
0c
0e
fb
03
03
02
12
02
13
0b
01
1f
f4
0c
11
09
0f
1a
f9
02
e8
f7
f8
f2
01
f5
00
02
f1
fc
fd
0c
e8
f9
29
2f
13
da
06
23
26
1a
c8
0e
fc
e7
f6
fc
e2
e7
ea
fb
00
e1
f4
f6
f1
fd
1d
fc
04
fe
17
0d
fb
f1
ff
16
01
f0
f5
0a
f7
07
f8
f7
fd
05
2e
18
00
0a
04
08
f4
03
0b
f1
02
fb
08
e9
d9
06
15
16
0a
0c
19
13
07
1f
25
01
08
f6
17
0b
fb
18
0e
1b
09
16
18
28
21
22
00
f1
04
0b
06
07
f2
00
02
f3
e9
0a
03
00
04
18
f6
fb
0b
15
f6
f4
e9
f6
00
02
02
eb
0f
10
06
f7
07
1b
03
13
2b
1d
25
0a
f4
0a
ee
06
e5
fe
12
1f
1d
de
fc
f8
f5
14
0c
0f
fc
f1
f4
01
f7
fa
ef
fb
11
0f
03
ef
14
04
f5
e7
f6
16
0e
fa
fc
03
12
f9
06
07
f6
07
f8
17
21
03
0e
0c
00
fd
f9
d4
d4
13
f0
11
0e
fb
f8
ed
19
19
f7
13
1f
05
fc
fc
01
31
04
eb
f4
11
08
04
f8
02
1e
07
13
0b
00
06
02
08
09
06
fb
0a
f9
fd
f0
eb
06
fc
f3
f6
f6
07
fe
10
00
f2
14
0c
f9
ff
20
19
f3
1b
09
f4
f4
14
08
f8
e8
fa
f4
0f
04
0a
0c
12
fd
06
0b
0d
0e
1d
11
15
fe
fd
07
09
02
10
09
0b
f8
e6
fe
03
01
e5
f7
f1
04
01
00
16
fb
05
ed
ef
19
11
0a
0e
17
fe
ee
ff
06
fb
f4
0a
fb
ff
ff
0c
f9
f7
0d
f3
06
fa
0c
fc
0d
11
e8
f4
0c
ff
e6
e7
03
08
04
d5
e7
f3
fb
fd
0e
10
07
fd
f9
0f
21
05
05
19
fa
f6
f5
0b
05
f6
07
fd
e0
00
06
05
fb
f4
06
09
1b
07
03
21
24
02
02
1c
15
25
19
f2
19
1e
21
11
00
10
0e
2a
14
1d
fe
07
f1
f5
00
f8
0c
09
07
08
16
fc
05
f7
06
0d
0d
f3
fe
0b
00
06
fd
ff
00
00
03
ed
dd
f0
04
ea
11
f8
fe
08
de
03
ee
eb
ed
e6
f9
f7
d7
ee
04
e4
de
e5
e4
00
0f
0f
11
09
fc
1f
05
02
f6
02
1d
f4
fc
04
13
fc
07
01
f7
0b
f9
09
1a
02
f6
fd
08
f9
0e
15
fd
13
04
10
03
16
00
e1
0d
07
08
fb
14
0d
13
0a
f7
06
08
f8
ef
01
01
f7
f3
07
08
0b
fb
10
02
00
fc
ef
fa
0c
ef
f7
f4
0f
e9
00
07
fa
f7
17
18
25
fa
f1
15
2c
21
0f
03
ef
17
01
fc
fd
e2
19
29
0c
f1
03
21
31
1a
09
03
f4
01
17
f0
f3
00
1b
1d
05
fb
04
05
02
f3
18
09
02
f6
03
20
15
ef
fa
08
12
18
0f
05
00
16
0f
fa
16
ff
01
16
14
09
0a
fc
0a
0b
04
fd
04
12
34
13
0d
ef
f4
fc
f5
f6
e9
f7
f2
f3
07
f8
06
f5
fd
f0
09
fa
02
f8
e9
f5
e8
07
09
fc
f9
02
f9
f5
fe
fa
eb
ef
f4
00
fd
ff
05
fd
fc
fc
e7
ea
04
f3
ef
fe
fa
e8
ea
07
04
ff
ec
f7
06
e6
05
ef
06
ec
fe
f9
ef
04
00
fd
00
fd
ef
05
ff
02
ee
f4
f7
ed
f8
e9
e6
e6
f5
f8
fe
f4
00
ec
e5
fd
eb
e7
01
01
02
fe
f4
f1
f3
f2
eb
f3
ff
01
f2
fb
05
fc
ef
ee
f2
fe
04
f6
ff
eb
f9
f4
0a
e4
f2
ff
e6
ef
ec
fc
00
f1
f6
f5
ff
e6
f4
08
ff
fd
04
00
02
0b
ef
00
03
f7
fa
fb
00
f9
fa
e1
f4
f5
05
fc
ef
ef
f1
e8
ed
03
12
e9
0c
f9
00
f3
01
f3
f4
f1
03
07
ec
f4
e6
04
fa
04
fb
f1
ee
ee
02
00
07
07
00
00
fb
08
f9
e7
eb
03
e9
fa
e9
ed
ee
f4
f4
08
ef
00
ed
01
f8
fb
f2
fb
f8
04
f2
fc
f9
06
00
f1
e5
eb
09
e4
f2
f6
00
e7
06
01
fb
fb
19
03
fa
08
ee
0c
04
f8
0b
06
02
05
f4
f2
f5
06
0b
02
05
f1
eb
08
f6
f8
f3
04
e9
0a
f1
f8
02
e8
f9
f5
e4
f3
fd
fd
e7
f2
03
07
f3
f8
e4
ff
eb
ef
f9
f7
fa
f4
f2
0c
0a
06
f2
f5
fe
f7
08
05
ea
f3
f3
f8
e1
fb
e9
ee
f1
0b
ea
ec
ec
e9
fb
fd
fe
07
fa
ed
e8
f4
e8
eb
fe
fe
f7
f6
e9
00
02
f7
ff
e5
ea
04
04
fb
e8
f6
fd
fe
f1
03
f7
f9
f2
f9
ed
f6
00
f0
08
01
fa
ee
f9
fc
f8
03
f4
0a
03
f6
f7
0d
ed
11
f1
fd
f8
fc
f0
08
ed
fc
16
f5
10
fc
01
fc
f0
fa
fd
e9
fe
f6
ed
fa
f4
00
e9
f9
0d
f7
e8
01
ee
f5
f1
f1
fc
fb
0a
06
08
ec
f7
04
1b
0a
0b
3d
f8
14
04
f8
06
20
09
03
f4
0c
d2
f8
fa
fb
00
f5
f3
e8
00
1e
0c
0b
10
fc
ff
f7
fd
04
ee
07
ef
10
03
f4
f9
f6
fa
07
f9
fc
04
04
f6
07
02
19
eb
ec
f3
0c
ee
e9
02
f7
fa
02
f4
06
f7
09
15
fa
08
fc
14
23
0d
03
14
f4
f3
ec
ff
fa
fb
f6
01
04
07
f8
fd
03
07
06
00
00
f2
f7
00
fd
16
fe
02
0d
18
07
e5
00
01
06
f7
fc
04
1b
05
f4
13
fa
ef
f6
f4
ee
00
02
f8
11
09
0d
0b
1b
08
eb
e6
f8
08
e1
e8
ff
f7
ff
17
19
13
10
fd
03
0d
f9
02
10
0e
ff
05
fa
ed
11
f7
13
0e
e9
e8
ed
e5
e2
ed
07
28
0a
15
fd
fd
02
0a
f4
ec
0c
f7
ea
f4
fc
f5
ec
14
14
2b
e8
d9
ff
0c
06
f4
f0
09
e3
e2
d4
d8
0b
07
13
e2
f5
ff
11
f6
08
ea
fe
fb
fd
f3
fb
ff
f0
00
f3
0a
1d
17
fa
ed
f8
fc
03
09
08
fb
14
12
13
00
ff
f3
dc
f3
12
fd
e6
f7
fd
fb
0a
11
11
11
19
27
19
25
f6
0a
12
00
f1
e0
ef
f7
f0
08
10
f2
fd
0b
05
08
02
04
f9
fb
00
07
e8
fe
15
0b
fd
eb
ed
fe
fb
06
02
09
16
0c
04
fc
00
1e
13
05
00
0d
fa
ed
ed
ff
04
f7
e9
e5
0a
21
00
f0
09
18
f9
fb
fa
0a
03
ef
ea
f9
f8
f9
12
08
00
eb
02
0c
fe
e4
09
00
06
06
15
03
07
e8
00
03
f9
f7
f1
04
0e
1d
12
f2
03
11
21
0b
f9
f7
f3
f3
f2
de
03
01
01
03
07
ff
0c
05
07
f1
e0
ff
0d
0c
0c
04
01
e8
03
0f
02
e0
ee
ee
0b
f2
f0
e7
07
05
0d
0c
e8
e6
11
00
e9
1e
e7
e6
02
ff
1d
fe
f5
0c
19
00
f7
d4
fc
f5
f9
04
1c
f5
f0
f8
15
0b
01
f5
f1
f4
f0
ed
07
07
fe
ea
dc
fd
18
10
eb
fb
e3
07
fd
f9
09
fc
f5
f5
ff
0d
ef
01
01
12
fa
f1
1a
22
15
0e
ff
00
0a
03
1b
28
fd
0d
0f
fc
00
f6
08
0d
02
00
1b
16
05
10
05
ed
13
11
13
05
06
f9
14
18
1b
f6
06
03
fd
07
fb
0f
ee
06
fe
01
fe
0e
0f
15
1c
0e
15
17
fe
f7
19
f8
02
18
0a
f2
02
04
f1
05
00
f3
08
f5
02
f6
04
0b
07
fa
1a
0e
f8
08
fd
1a
fd
fc
fc
fc
ed
e8
eb
f9
08
f0
ec
