00
f0
f1
09
02
12
0c
eb
1b
e5
00
14
0f
0e
f3
fc
da
fb
17
de
e9
05
01
e4
ed
da
ff
11
01
ea
01
00
e2
dd
ec
f0
fb
e2
16
09
0b
de
0d
d9
0c
de
e2
f1
03
ec
06
f5
f4
02
db
0c
f5
08
e9
13
1a
0a
ea
e8
ee
07
f2
fc
e4
f5
04
f0
0a
e1
e5
15
0e
1a
15
09
0d
08
e7
04
de
1e
0d
dd
16
e6
e2
f7
f4
e3
f7
15
f5
e8
f7
f0
18
ea
14
0d
13
0b
06
0a
e7
05
f7
11
f8
1b
e2
08
ed
17
da
f7
f0
0a
fe
0c
15
18
e9
14
f2
f0
06
ed
ba
06
dc
fd
e9
13
0b
19
f8
fa
fb
fe
ec
16
00
12
19
35
18
df
ee
f2
e5
ea
fa
03
fc
f6
e9
e6
f1
00
1c
ca
d0
1b
ff
21
da
16
07
1a
f9
03
fe
fc
00
20
f6
10
ef
2a
df
28
fd
fd
1c
f7
19
e4
df
cb
01
00
da
f3
e1
ed
2f
12
0c
16
f9
f5
14
f9
fe
1b
e9
02
0e
e4
3b
fd
e7
f1
e4
fa
ff
0d
1f
1c
bb
ed
e4
16
e5
0d
26
d1
fb
1d
10
21
fc
22
20
ee
24
f1
fe
fa
f7
e6
ea
df
eb
07
e1
eb
db
0f
17
f9
ef
07
e5
2c
01
f4
f3
fa
fa
21
f9
17
15
e9
e6
0b
23
1d
12
15
f9
09
e6
05
2a
00
0e
07
18
f6
22
ec
05
0a
04
f4
07
da
1b
0f
10
ec
1a
03
dc
e8
07
1f
06
f1
1c
30
10
03
fd
17
fd
d4
3c
12
1c
27
f3
fc
dc
fc
f4
cc
08
ef
e9
17
20
0b
fe
dc
d1
25
bf
09
08
19
13
f1
1d
e5
20
e1
08
0a
f7
02
ed
03
ff
2a
f2
e7
f7
27
02
17
17
0f
f2
19
f0
00
ff
f8
19
00
f9
ea
ee
eb
f7
ed
04
e7
f9
e7
1e
02
eb
10
0d
d4
19
14
00
f9
03
18
f8
07
05
00
09
fc
08
dc
1b
e8
28
2d
00
0a
1e
df
eb
1a
23
e8
18
05
23
20
1a
46
fe
d0
ed
e0
18
25
ed
25
e7
14
d9
e3
e5
00
f9
cf
0b
d2
1c
be
ec
fa
08
1b
1e
fa
d8
b2
08
fd
00
0f
14
18
26
eb
33
eb
f6
e8
11
22
09
eb
ed
26
ea
10
01
e3
fd
e6
10
de
31
0e
0a
00
00
05
ea
0a
f7
d5
f1
fa
01
0a
27
03
2c
fb
20
ea
da
31
23
25
e1
f5
2b
ca
ff
1e
05
e6
11
e8
0b
02
f9
eb
e1
df
ff
df
ef
f7
0f
11
06
03
1c
05
07
11
1c
fc
e8
0f
07
2b
fe
fe
1d
1a
ee
25
fd
00
17
1a
f8
f0
09
11
ea
01
0e
02
12
e0
24
1a
06
28
19
19
ed
ed
f8
0d
f5
1a
10
ee
1f
f4
17
15
e0
f7
f4
00
e7
f4
00
04
27
0f
1e
fc
0f
dd
de
ff
09
1b
21
ed
0b
19
26
f0
03
f2
02
e7
f7
01
08
d4
08
f0
04
fb
06
00
18
17
eb
ef
00
00
22
12
f8
0b
14
01
df
f0
f1
15
19
d5
f4
08
fe
03
04
f2
e7
15
fb
06
e7
08
f8
01
06
ec
18
e9
19
02
1a
10
1f
1c
0c
03
e2
e5
f8
18
fd
e3
06
ea
f5
08
1e
ff
10
14
05
1b
09
05
1c
29
0e
0b
15
28
1b
14
35
f4
f9
04
f4
fb
fd
f6
14
18
22
19
14
03
10
21
04
f4
39
e2
df
f9
16
e1
fd
f6
e7
16
00
f9
f3
09
e9
ed
24
00
12
15
f1
0d
1c
08
2b
09
1a
e3
e6
00
20
06
e4
e7
22
f7
fb
0a
06
1f
17
f6
17
18
04
00
05
15
f2
e2
f6
eb
18
f1
ec
17
ec
e9
f5
f1
24
09
fa
ea
0e
1c
eb
e7
fc
da
0c
0e
00
ea
c8
fc
07
fe
eb
06
de
f7
fd
ff
fc
09
0d
ff
eb
f4
0b
0f
f8
29
11
ff
1c
0c
0f
f2
f6
04
ee
1f
dd
24
15
f3
fb
e8
2a
0c
1f
17
f7
d8
06
04
fd
27
ce
f0
f5
f2
f3
08
eb
f8
0a
e0
f2
1d
18
0e
11
0e
27
dc
ee
e1
ed
1c
12
09
d4
25
00
12
ff
f0
18
0e
2e
22
cf
14
0f
0d
10
17
f0
fe
f2
e7
11
f5
0e
05
0a
00
f8
14
1b
21
f5
eb
f6
10
fa
de
ef
19
0e
fb
de
f5
f2
07
04
e4
f5
ff
02
22
d8
f3
08
e1
13
fe
fb
f7
04
c9
02
35
ea
f3
0b
05
24
2c
f7
e2
2f
10
05
12
25
08
f3
00
3f
20
01
2a
0f
f1
e8
0a
1f
19
eb
1d
f5
13
dd
e2
1d
15
19
03
da
f1
02
dd
f3
17
12
13
03
de
14
f2
fb
0e
fb
f5
18
1c
13
0d
0d
01
fd
eb
f2
0d
2a
13
da
06
ed
f9
e4
12
f7
fa
12
05
d8
e4
25
15
f5
f2
e8
ff
e6
d8
fe
09
de
f1
f1
ed
00
17
f6
25
00
20
ee
f3
07
fa
06
e8
09
fc
db
f6
0e
06
ff
cf
f9
15
11
f1
00
0a
03
15
fd
0f
f8
2e
dc
f0
00
17
1d
13
11
16
05
1e
13
0b
fe
ea
25
18
13
ea
00
f2
10
04
f8
05
fd
1d
20
00
0a
fa
1f
fd
f3
0b
06
1b
02
0d
f2
0f
fb
f1
f7
f7
e9
04
13
ec
09
25
2a
1c
e2
04
df
f9
e8
05
ff
f6
11
18
0c
eb
e2
0c
e2
fa
10
e7
05
e5
13
12
f5
fe
05
13
e5
ff
18
0a
14
02
18
d8
ea
ea
e6
dd
0c
ea
01
02
0f
1f
04
f4
fc
0e
ec
0d
e3
01
02
e5
0d
e3
f9
f2
f5
ec
e4
dd
ee
f7
08
08
10
f4
e7
f0
d7
e2
fe
08
01
ea
01
e9
13
f3
15
f7
da
0e
db
f4
e5
df
0a
12
ee
ec
f8
17
03
12
04
f0
0f
0a
1a
eb
0e
0b
07
0a
fd
1a
e4
1b
0b
f6
e4
1a
f8
00
02
fd
d8
eb
0a
11
f1
e2
00
ed
0e
03
c1
ec
01
e1
f9
fe
0c
fc
e8
06
f5
28
1c
f5
f8
0f
05
24
f4
21
fd
04
1f
0e
f6
00
1a
fd
19
01
f3
e6
f4
e4
e7
19
0c
14
1b
01
fd
d9
ef
0e
f4
1f
ea
ef
09
22
fa
0d
e0
1c
eb
1a
fa
13
21
00
14
14
19
ec
fc
00
0e
07
ff
ea
ea
24
06
2a
e5
15
fc
f9
fe
eb
09
09
ea
25
09
17
e9
fb
16
df
f7
2b
33
07
fc
e9
fa
05
e6
1e
1e
f0
f5
24
0f
09
14
14
06
eb
e3
f7
1e
df
14
e6
32
11
03
0e
1c
26
ed
e4
1c
ff
1d
f9
03
e5
01
08
00
d3
f9
0d
11
2b
e8
e4
09
0b
00
d7
eb
21
01
13
16
1a
17
f1
f4
fe
07
1e
ea
f3
05
0c
f3
fd
08
eb
1a
d9
e8
05
e3
1f
1a
1e
09
22
19
1f
f9
0b
00
03
f9
fe
16
06
e2
1c
0e
14
10
e5
00
e4
e2
06
fb
e9
f5
01
e4
0b
27
f6
e7
12
0d
00
f3
01
e7
02
19
02
00
f5
1d
fe
03
dd
08
10
0b
03
01
00
e2
08
10
f5
ef
11
e3
d2
1c
2b
e9
06
07
fc
18
d9
ff
fb
0d
fb
cf
d7
0b
08
f7
18
fc
09
f1
fc
fc
e9
ff
0d
e7
ed
0c
20
f1
eb
e3
d7
f2
e4
0b
21
10
ef
ee
24
13
0c
f0
0a
04
de
1c
24
29
eb
14
fb
ef
05
33
30
e3
ed
2d
13
f2
02
07
02
25
15
0f
f0
f0
10
1b
16
cd
f3
17
1a
f8
e2
eb
e4
ec
d5
10
da
16
d6
24
eb
f2
0d
f0
0c
2f
05
e4
10
e9
00
fd
1e
06
06
02
f9
1d
f2
0e
f5
e9
02
1e
12
f3
eb
18
09
04
d8
16
27
f7
10
09
2e
06
f0
0f
0a
fd
ed
f4
0e
eb
01
0f
e6
29
1d
02
09
fd
16
23
02
f9
10
1a
0b
09
1a
04
00
0d
f6
df
f9
e0
de
1f
ed
e4
0e
1a
0a
0c
ff
e0
02
16
05
f2
22
05
d1
1a
16
1e
f4
06
2a
1b
11
04
0b
06
00
07
ed
e5
0b
01
ee
00
e2
0d
2c
e7
25
01
16
e2
10
e6
cd
eb
28
1c
e8
ea
27
0f
06
fa
0b
e8
07
03
f9
12
1b
0f
13
16
18
31
0a
ff
0f
20
10
0a
ed
10
11
00
f1
d7
03
2f
db
11
f3
f2
12
ed
15
32
da
e2
06
f0
f1
f8
c6
08
fd
0f
ff
de
2e
03
f0
e8
dd
f0
08
e8
00
ec
1a
0c
0a
f0
1c
14
fb
0d
2c
f9
07
12
03
0e
07
19
ed
e4
07
19
36
13
0f
10
d2
0d
f5
f9
e2
21
fa
eb
e1
eb
26
1d
29
14
0e
e5
1e
22
ea
fa
10
1c
01
21
17
10
0b
0a
ea
30
30
00
0b
f2
0e
1f
ed
f9
0d
10
26
1c
42
f3
0e
ff
f9
12
13
1b
fb
09
f3
f4
09
21
f5
eb
09
12
e8
d5
fe
fc
13
df
1c
17
19
15
15
0b
04
23
1b
15
ed
0c
11
e2
d1
ed
f2
fd
f2
00
fd
05
f8
df
e9
17
ee
0f
f5
ea
14
fb
01
20
ff
e5
14
e3
f5
18
2d
f3
00
0a
1f
ee
01
17
fe
0a
29
f4
17
ea
0d
10
e2
fb
ea
ed
e2
06
ee
f9
f3
04
05
1c
1d
24
f8
ee
db
2c
11
07
f7
f1
fe
de
f8
1d
1d
2a
3b
20
f0
ef
0e
fb
0f
fa
10
0d
1e
e6
f2
00
f5
09
12
d4
11
f3
e8
fb
03
08
ee
ee
e4
19
e5
15
e9
f1
15
0f
22
e3
e8
1d
0e
da
f1
16
12
ea
21
16
e3
02
ed
20
02
ec
f5
0f
f7
10
01
fa
09
ff
e1
e7
fb
04
fa
fc
1c
ee
e8
00
17
e5
ed
10
08
ea
16
18
fc
f4
1f
1c
f2
03
12
08
1a
19
f4
f4
11
f7
10
f6
09
ea
0a
11
f2
15
05
15
18
fc
00
fa
e2
17
08
00
f9
0b
eb
0f
eb
fd
fe
f7
fa
0b
29
1d
f9
ed
20
2d
12
18
ef
20
e1
00
1e
f9
23
09
06
16
f2
ff
07
e2
f7
f2
0c
e1
30
f2
01
15
de
e4
f0
08
e0
e5
19
f7
00
07
08
1c
0d
07
10
11
fa
f6
f8
07
f6
1e
06
fb
e9
19
0b
de
0f
f1
f4
1a
fa
12
fb
ec
e5
01
06
0e
e2
15
02
de
f3
ea
ec
ef
0f
f5
18
1e
f4
1e
dd
f5
16
17
18
e9
e9
ed
f0
f5
ef
e5
e4
e7
e1
e3
0e
09
08
06
e1
e5
13
06
e8
fe
ff
fe
f0
02
e7
08
ea
f6
17
e1
de
14
e0
fa
12
05
ec
00
f1
08
e2
16
e6
f7
ed
fb
ff
13
e5
ed
e9
0b
0b
e2
1e
f5
01
03
e3
f7
f6
14
f8
fe
0f
17
06
09
ea
e6
0e
0a
e5
0e
12
03
fc
02
fd
10
f4
ff
f6
1a
eb
e6
fd
ec
11
0f
e2
0f
00
fb
f3
1b
f6
1f
00
12
19
f6
f7
18
f0
f5
e4
fc
f7
f6
19
ed
f3
f1
fc
e4
e0
0c
ef
eb
18
13
fb
de
e5
fb
fb
eb
00
f0
f7
e7
e7
09
e9
f9
ef
10
ec
e2
e4
fe
02
e9
04
fc
ff
0b
12
06
09
0c
f7
eb
e1
16
f2
0d
ed
0e
fb
f3
0a
1e
f2
ea
06
f1
1d
f8
1b
ec
ee
f3
fa
05
ef
06
fa
08
19
1b
fb
df
e5
17
e6
0f
e9
07
ed
05
f6
11
23
22
12
fa
14
14
ef
09
0a
d7
0c
e6
13
f6
0e
16
18
10
09
11
16
11
f2
e9
2e
e5
f6
00
0e
fe
df
f7
fe
f9
fd
fd
04
e4
ef
ee
e0
2b
21
18
16
00
f5
fd
fd
00
ec
eb
21
e2
14
ed
0a
04
0a
05
fc
03
2b
ed
07
01
ee
f6
fa
33
ee
18
0b
d6
e8
e7
2a
f3
fd
f4
e6
07
de
23
05
ff
fd
1c
29
09
fc
0a
ea
20
f8
0e
08
dd
e5
e5
d1
32
fb
ed
00
17
fa
f8
27
0e
0d
2e
23
08
2f
0d
28
00
e4
e8
05
ea
01
16
f5
0d
f6
fd
00
fb
10
e1
da
0b
09
10
19
1c
25
12
e3
07
04
e6
e6
f2
1c
06
12
ff
eb
16
07
e4
f0
0f
ec
1c
e7
09
0a
01
0c
eb
e9
f5
0f
e5
f3
e4
ea
03
01
f7
1b
1d
f8
0e
db
0e
17
ed
ea
dc
0f
ff
ee
d6
e1
12
11
00
e0
fa
16
ff
eb
18
05
f7
00
ee
14
e0
0c
02
f7
1c
de
02
19
e3
ed
ea
fc
e4
dc
ea
00
00
16
21
1a
00
e5
15
e4
fc
ed
e2
fb
fd
e7
00
e5
f4
0b
14
e6
f8
e8
ea
e9
09
1f
17
1b
f5
f7
0e
33
24
f7
df
1a
1c
db
f0
fa
1a
de
eb
28
1a
00
fa
0e
09
11
00
e9
04
e7
f8
0d
22
16
f0
f8
e2
f9
e6
02
0d
f9
00
d5
1d
f3
13
f4
fe
18
ff
f6
e8
0f
15
04
18
ff
f4
fa
f4
d5
f2
ea
fe
18
f4
30
f2
10
0b
0d
e1
d6
00
05
f9
06
e0
0e
01
02
d6
ef
06
e9
de
14
1d
08
29
1c
20
24
14
02
03
fe
f6
05
08
fc
e0
eb
f7
e2
17
fe
10
02
fa
0b
fd
14
e3
23
f3
19
fc
f8
fa
21
ed
fe
18
0a
d8
20
14
fa
0c
ec
eb
d6
0d
ea
f0
fb
17
fc
f0
1f
0d
f2
e4
ea
ec
f5
10
fe
04
ea
15
10
e2
00
ff
ee
1c
02
03
14
d2
23
09
1f
fb
0c
00
2c
e1
f3
27
1a
23
dd
f2
f5
ea
1c
04
10
f6
ee
ea
e2
0f
22
13
29
25
04
f8
1c
ed
11
f6
ed
0c
f2
fc
ed
15
e9
1a
fb
f3
22
19
02
ec
f1
f1
f2
0a
15
fc
09
f2
11
05
01
1a
f4
14
f6
05
24
f0
00
1d
f4
22
f9
1a
e9
dc
ed
e2
e8
f0
f7
f4
04
e8
0d
01
24
28
ff
1b
fd
f8
23
06
ed
ee
11
18
21
1f
00
fb
ec
ed
ee
e6
10
e3
08
1f
f6
02
00
00
11
ff
fd
11
1a
10
09
fe
01
ff
29
08
0d
fc
ef
e9
ee
04
02
0e
2a
1e
00
df
ee
1b
27
dc
e0
17
1f
13
08
e7
20
e1
28
fa
ed
09
10
ed
08
e2
34
0d
eb
33
f7
f4
0c
de
30
35
e7
26
14
03
f3
02
f5
14
da
d5
2a
20
00
e7
de
1b
0b
07
e0
ee
f8
27
eb
25
ec
e2
05
ee
fa
e7
10
0c
f8
1a
e1
eb
07
e2
2d
27
ef
f1
fb
14
fa
06
03
0a
03
f4
f7
f3
19
f4
fb
0f
fc
17
fe
1e
03
fd
10
21
07
f7
ff
dd
ec
1b
f6
f3
fa
07
1c
ff
ff
1b
0c
ee
2f
f3
20
07
f6
fb
23
fa
25
12
0a
06
f3
f9
f6
0f
00
28
e8
dd
0b
f4
f3
1b
0f
0b
01
05
e7
22
f6
05
15
dd
e9
fe
1c
24
f5
1d
f4
29
e6
03
fb
fd
ec
f3
f2
04
fd
02
1c
e7
1f
1b
f6
25
ef
1b
f2
f0
2b
11
01
02
f1
fe
ec
0e
0f
1b
09
fc
df
00
1c
f3
0b
dc
e6
e6
1d
0f
09
11
f8
fd
05
fa
08
f3
0e
f1
05
f6
f1
f5
08
08
ec
00
05
09
e3
ec
13
1a
ef
ff
f2
17
d7
f1
01
d3
0c
eb
e7
00
07
f9
ed
0f
0b
e8
f0
ec
e5
ed
04
ed
15
ec
fd
f2
0a
fc
0b
e3
07
03
0b
dd
e8
19
da
f0
00
de
ef
f8
12
f2
f8
1e
fe
f7
18
02
dd
e9
12
e5
ec
fe
02
02
13
ea
e6
d9
1b
17
13
04
04
f6
e4
e5
f6
03
0d
0f
f9
0f
0c
d8
fc
f8
0d
19
e5
1d
02
f1
ef
03
0e
29
0a
15
e5
11
de
0c
18
10
07
1a
fd
13
f4
1a
00
07
d8
01
26
fc
ee
ec
fd
04
0b
fb
10
29
1a
20
fe
e2
1f
20
2f
04
f7
ef
ef
fe
f4
1e
e7
17
dc
1a
cb
27
fa
04
dc
19
10
00
df
f7
ff
1a
1b
f5
1e
1e
04
0a
36
00
06
02
f5
fc
04
ee
f3
13
f9
07
e9
04
16
39
08
f7
fe
fa
05
e8
0d
21
e6
f0
e3
0e
05
01
ec
1d
ed
10
fe
e5
d3
2e
10
0d
f6
04
02
ed
f4
e1
e4
fb
eb
e8
f9
1c
f3
f2
02
04
f0
fe
ff
1c
07
03
e7
0d
10
f5
0c
00
f3
e8
fe
16
0b
f5
f4
02
02
07
17
fe
fc
14
ec
e9
ee
e4
fc
ea
e6
ed
1b
f6
e3
ea
ea
07
12
e8
16
e2
fb
11
ff
00
10
ea
11
e3
1c
17
14
f8
ff
05
18
fe
ed
04
1c
ef
10
03
f8
ee
06
ea
ea
18
18
eb
f7
13
ed
fe
f9
15
0a
fd
1d
ff
fc
1a
ef
ed
f1
00
ed
f4
ea
e2
f3
17
0d
fb
e7
f3
ff
f5
f9
f5
08
f6
0a
07
fd
f7
0f
eb
df
0b
11
04
05
f5
ef
0b
18
03
1e
06
e1
f8
03
08
1a
0e
f1
e2
ee
10
fd
06
e3
fd
fd
03
f2
e0
f8
df
e0
ed
fc
17
e1
00
0d
1e
0b
07
e2
f8
ed
fd
17
eb
04
0c
f3
15
07
de
05
fb
ee
f9
0a
03
f7
f5
e5
f6
11
02
16
0f
07
e3
06
de
f4
0a
ef
0f
f9
0e
f9
ef
0b
ec
ef
e1
19
ee
0c
ff
03
18
0e
f0
e4
f1
f2
ef
e8
18
1a
e3
f8
0c
0e
f9
01
08
e7
e4
0f
de
f8
f4
f2
e8
f4
e9
0e
fe
ee
ed
1a
eb
1e
ee
f5
25
08
d0
ed
02
f9
ec
d6
eb
d9
f2
e2
e3
06
00
02
ff
08
e5
0e
0c
0b
12
f5
20
23
19
11
f9
ea
d1
e7
e9
e4
f0
1d
db
da
0f
21
fd
fc
f5
ef
f1
f5
f9
f5
1f
2a
ea
1b
1a
09
fe
27
f4
19
27
00
f6
fb
f1
f9
e3
1b
0c
c7
ee
15
1d
f6
0d
2e
e6
e9
16
1f
e4
14
17
18
0e
1b
14
e1
0f
f0
e2
f8
dc
20
00
2f
1d
1b
00
12
04
2e
04
f1
04
3b
fc
18
17
fd
0c
12
c2
11
14
ff
09
24
11
22
fc
df
e4
2c
ec
fa
f8
0d
1b
c9
f5
ea
00
04
0b
de
e6
fc
e4
16
f5
1a
04
da
16
e1
db
eb
fa
0b
e8
05
de
e0
10
ef
16
0e
ec
00
12
18
0c
10
00
2d
d5
25
27
1b
e1
db
ef
16
e3
0f
0d
27
21
05
1d
0f
ff
1e
fd
0b
01
00
0e
22
da
e9
01
05
0c
02
1b
18
03
f2
fb
06
1a
24
0c
18
1b
19
f4
ff
d5
02
eb
0e
1f
0d
fc
fa
0e
11
2a
f2
03
05
09
ec
32
25
f9
14
21
14
e7
e1
02
ea
01
e1
e5
e3
05
e1
e9
1c
02
10
e3
13
f7
fe
e7
01
1f
fe
02
e3
e7
00
ed
fb
05
e6
fd
f0
12
16
e2
e4
04
ea
ea
08
0c
00
13
f0
e7
f2
e4
03
e6
ea
13
e3
e6
1a
03
1c
e7
fe
00
e8
e8
1a
e4
18
13
ef
f9
f2
11
f7
0d
00
00
09
16
1f
0c
0f
10
e7
10
0d
06
00
ea
f6
e9
e7
15
1b
06
08
f9
10
e2
17
e4
f5
f2
ff
e5
ef
10
19
07
f8
e2
0c
f3
09
f9
e4
04
1b
eb
ec
e1
00
e7
f1
1c
e5
23
09
2c
fc
2a
fa
16
1c
f7
fe
06
1c
02
02
2e
12
e4
08
13
f0
fd
00
eb
32
ed
13
f6
f3
0e
e3
0e
e5
0f
f1
11
0e
e7
05
f3
fe
f0
0b
07
13
ef
1b
ed
06
1c
fd
e4
2c
08
ff
08
23
f9
16
1f
02
ed
26
f6
fc
1a
0d
22
00
03
f5
eb
07
f2
f9
fb
10
ea
2e
f8
ec
fc
ff
22
f3
d4
1f
f4
c8
05
f4
08
02
1f
de
0a
2a
24
00
e8
e2
1b
ef
e4
e9
f9
f8
fc
ff
f4
00
1c
ea
1f
25
22
ea
1b
1d
fd
01
f7
07
0e
10
12
e5
11
f3
11
f4
ec
fb
17
07
e0
06
e7
df
f9
f9
0b
e2
09
07
ea
1c
f2
fd
10
0d
12
ee
fd
15
f7
e1
1d
0f
fd
eb
ee
0b
e9
0d
13
0b
e6
f8
06
f5
0c
00
16
fc
00
0c
fc
13
f8
1a
e2
e6
12
17
08
e1
e0
eb
e4
06
19
f2
0d
e7
10
04
ee
f5
0f
06
f4
0e
fd
ee
12
e1
11
f0
1d
e4
f7
fa
04
f6
e8
0b
00
0a
13
09
ec
17
fa
1b
09
0b
03
e8
00
10
12
ef
ea
f5
0c
07
ff
db
e9
e8
1c
0a
e7
f0
f7
35
e5
f7
df
d5
05
1e
ed
0c
ed
e9
f9
fc
f7
05
1f
e9
e8
ed
fd
0c
eb
2c
07
01
f6
e8
14
e2
e4
11
0d
1b
ff
2f
01
15
06
f1
ee
0a
2e
f8
18
22
0c
0d
f0
31
ee
d3
04
00
e8
16
fc
04
1c
34
e2
04
04
0c
d9
dc
1a
e9
f5
04
f3
c9
ec
f9
25
ea
f1
09
f8
0f
ff
11
05
e8
11
e8
0e
0b
00
f9
f7
1e
ee
16
1b
05
12
24
0b
0f
21
f7
f3
e0
3c
07
df
13
f7
f8
f5
0e
ea
ff
f6
eb
2b
1a
24
20
f7
e2
03
03
e7
1c
f1
f4
f3
17
1f
2a
f2
01
0f
f4
f3
f9
fe
0b
fc
fc
05
0e
0a
05
e5
e4
18
0a
00
f7
ee
f3
09
1c
00
00
eb
d3
21
16
f1
02
f4
fb
05
00
f3
f9
12
00
11
1d
e3
f1
07
25
14
20
0c
00
f3
f0
04
ee
eb
cc
ea
dd
0a
e1
fb
13
eb
00
20
08
ec
16
fc
ec
03
24
00
eb
f4
da
f5
0c
15
09
0f
f1
f2
df
19
09
eb
12
ee
1f
0a
02
e8
06
f6
fc
e6
16
29
2d
ef
de
0d
12
0f
17
f6
1a
07
1a
ec
e7
0b
e8
fd
14
f6
e5
d5
06
02
06
1e
fa
1d
17
15
0e
0f
fa
eb
e3
00
ee
f7
e7
e6
05
f7
01
1f
f3
0c
ea
f0
e4
02
09
ed
19
f6
00
e7
12
e4
e9
0a
07
e4
e4
de
e2
f3
ff
f6
1c
06
e4
dd
e3
0c
0c
f6
13
e7
12
f4
fd
0a
e2
ea
fe
dd
11
06
03
07
f4
f7
f4
0f
02
15
f4
08
f8
de
17
ec
f0
fe
1a
16
fa
0d
0a
fc
0f
f2
e6
f4
18
fc
11
12
f5
f9
00
09
e8
e1
f3
ff
1c
0a
f5
06
26
c7
21
ed
1b
2e
ee
13
07
22
f9
f6
0c
01
dc
e5
d4
f2
1c
e7
e0
f3
f3
ee
0e
ea
f2
00
f8
0f
ea
10
f0
15
13
f7
e8
fd
e9
12
f0
f5
fa
fe
12
20
0a
f6
f2
d4
0d
ef
1f
1c
01
f2
dd
08
04
0c
05
ed
01
24
0f
25
18
f0
16
00
29
0c
d2
2a
e4
ee
e5
1f
1f
ff
ef
2e
0c
03
ec
28
10
27
de
eb
fb
1a
dc
09
ee
19
e5
f6
25
09
e2
27
06
2a
1e
fa
f7
e4
2c
fa
00
00
18
06
e9
18
18
ff
10
ea
11
ea
e5
15
00
f9
15
ee
e7
29
0e
df
c9
01
e6
fc
e6
f6
19
0e
fb
0c
10
01
e8
e6
16
f7
1f
08
ee
0f
f2
0d
f1
00
21
e8
29
f5
f4
e0
f5
0b
03
0d
f3
1d
f5
0b
02
e3
17
08
13
e9
e7
f1
15
24
17
20
f9
1f
f3
18
26
e2
f2
20
f9
2d
f9
f5
13
06
10
2d
ef
11
df
15
e4
07
00
f3
f6
df
1a
00
0f
0c
e8
dd
e9
f3
e3
ff
13
f3
14
da
10
1b
ff
0a
0b
d8
00
fe
0f
eb
ea
22
fb
e5
0c
02
04
3b
19
2d
03
02
fb
f2
21
21
1a
f6
13
f6
cd
03
17
16
16
f7
f7
f1
30
1a
ee
09
d7
f7
f8
fc
01
1c
08
0b
0e
04
eb
11
02
0c
ec
e5
ef
06
1b
da
f1
1b
02
e2
18
08
24
0f
dd
1c
f5
ed
17
fc
1f
e8
e9
0a
d6
fe
f5
05
f2
f1
e2
13
f8
0f
24
0a
23
18
15
d7
ff
26
02
e2
e8
07
fc
0c
0a
fe
2d
0c
fc
0e
2d
03
f0
f7
15
f2
0a
f3
ec
ed
0b
1d
fe
f7
15
02
0e
17
e7
eb
e8
16
0e
4c
07
1a
03
ea
d2
23
c1
19
fa
03
06
0d
13
1b
ef
04
17
f7
2c
ff
38
eb
21
01
1f
f2
23
18
13
ec
2f
22
22
17
1a
f7
27
ee
19
37
2e
23
25
1a
e1
2f
0b
29
05
fe
ef
1b
e9
14
10
06
de
f9
00
0c
f7
1b
f9
21
0e
ec
1b
ea
eb
11
e0
03
ef
18
06
26
16
2b
0e
f2
fd
18
e4
fe
e4
0e
21
08
34
f8
13
ef
26
e6
03
15
1e
04
23
2a
fd
f9
eb
f4
1c
ed
f9
e2
01
12
ec
f4
25
e5
03
fb
e9
11
26
14
10
30
10
e0
e5
11
0d
1d
19
03
e9
eb
d9
0d
e4
fb
2c
1b
04
e8
fc
00
e0
e8
0b
0f
f8
1f
09
e6
1d
f9
fc
20
e5
14
f4
ed
ee
28
1b
23
0b
fc
08
db
f7
04
eb
19
f1
1d
0a
22
3a
f0
dd
0a
16
16
04
05
1a
e4
0b
f9
22
fb
f7
22
f6
03
f4
25
f5
00
04
2d
f2
fb
e0
1c
dd
0b
20
09
02
08
f7
1c
04
f4
00
eb
0a
15
0a
ef
15
30
1c
25
20
e3
14
1c
1a
e6
f2
04
dc
06
2c
e5
1a
d6
2c
1f
fd
02
10
0d
e2
f3
f1
e8
1b
0c
f3
1a
fb
f2
1b
17
19
e5
d0
1b
f2
f2
13
17
fd
ec
01
f6
12
19
14
f3
15
e8
f8
17
fc
13
fa
14
fa
00
23
11
f2
f1
00
06
06
07
09
18
09
ff
df
15
2e
0b
f7
0a
f4
23
fa
e9
09
0c
0a
ea
2a
fb
f6
d3
0d
06
de
f3
f4
1b
00
e5
08
f8
0e
f9
d6
f7
e9
df
1d
14
32
0b
e6
13
ff
14
fb
24
16
f9
11
1e
f0
ed
f1
15
01
f7
1f
05
1c
24
24
d7
23
17
e8
fb
e8
f6
14
ee
f5
08
f2
f8
16
ef
02
0b
fa
f4
fa
04
18
f3
18
09
00
fa
fd
17
0b
fe
1b
fe
e3
1d
ea
10
14
e3
16
18
14
1d
e9
e0
05
e4
ef
dd
03
fe
24
f5
19
17
d4
e8
06
ef
03
13
ff
f6
df
e9
f6
26
e8
f8
25
05
fa
f7
d7
0e
32
e8
f6
e9
29
f4
24
fc
fe
ea
01
e6
17
03
10
00
f4
e3
1b
12
ee
00
f6
07
d8
27
04
f4
f9
e9
22
02
04
01
19
f0
f1
ed
fe
fc
05
ec
0c
12
2e
f5
00
1e
29
1a
ea
fb
04
1b
0c
02
03
fc
18
eb
ff
19
08
e0
00
08
f1
fa
e5
07
e1
f4
f3
e4
e6
05
dd
02
f1
15
e7
e4
f6
09
10
0f
ff
e0
ea
05
10
0c
16
ef
ed
e0
06
ef
e1
e3
15
e0
07
02
e9
fc
ed
ea
07
e3
e9
27
e3
00
13
e4
16
e1
f7
02
0f
02
f5
e8
e4
f0
e6
12
e0
00
13
06
eb
03
0b
0c
e4
00
0a
15
05
0b
2a
01
20
fa
e3
17
01
fe
dc
04
f4
de
fc
f0
ea
1b
fb
08
f9
eb
18
f0
e8
f0
ea
f7
fe
0d
0c
ed
eb
16
07
24
fe
21
13
f4
e8
14
0d
0c
09
f5
e1
dd
fd
ec
06
1a
f9
08
00
08
ed
f7
0d
fe
f5
fd
f1
f5
fa
df
e6
19
14
05
ee
f6
07
f5
02
26
14
02
db
19
2f
e3
11
fb
15
f6
1a
f7
fd
f0
fd
02
fb
03
f6
e7
23
fb
ff
d5
15
f9
f6
05
e2
ec
c8
09
e3
e8
e8
05
f5
0e
e9
0f
f3
fb
0a
2a
05
11
3b
f8
02
fb
d6
25
f5
ef
11
1f
1b
1b
17
ff
2c
cf
e9
fe
09
03
17
21
e6
1a
10
21
1a
2a
f1
17
d9
09
1c
e4
fa
fd
08
fa
1c
16
e9
0a
0d
28
15
e6
1c
0f
c1
f7
12
fa
eb
f2
0a
13
e5
f0
03
01
16
0e
1f
dc
ee
26
f9
14
f8
f1
f9
18
11
21
18
f2
15
25
ff
18
e6
1c
19
19
13
1e
3e
ff
d3
05
d5
f4
1d
e6
22
11
f2
e1
df
01
fd
ec
e8
08
0c
dc
e5
05
ea
c9
1a
14
28
c5
ed
00
ed
03
2a
14
fb
07
ee
1b
02
1f
0a
eb
10
10
f3
12
21
e0
04
f9
11
f8
12
03
fc
36
28
ea
f6
05
f9
ea
d2
e8
f4
e8
11
f5
e1
0b
ea
08
d9
1c
1f
0f
02
0b
21
d6
09
f0
c7
e3
fa
e7
f7
f4
28
e8
0b
08
17
0d
df
eb
e6
24
fc
06
fd
df
ef
1b
fd
e4
f0
da
25
ff
1c
e6
dd
11
11
18
ef
f2
10
21
e1
e3
0e
19
e5
f4
1c
17
16
02
de
2e
1d
15
08
e4
04
f1
18
27
f5
0f
11
e6
1b
ea
0e
0b
0d
11
ed
f2
0f
e5
f0
04
06
21
ff
13
f3
f0
f8
24
19
04
14
18
d6
f4
1a
17
1a
0a
d9
2b
00
1e
df
06
06
ec
d5
ed
19
0d
fb
1b
ef
17
04
d1
fc
fd
e6
07
f4
10
19
07
09
e9
eb
e8
04
15
ff
1a
0c
22
f2
1b
fe
e5
1f
16
0a
ee
1a
0e
e8
09
f1
ef
04
15
16
0f
05
ec
28
f6
cd
14
1c
04
fc
13
e0
f5
18
01
10
25
12
f7
04
ea
ea
10
14
dd
0e
1b
00
de
fa
03
21
fb
15
fd
d4
12
ed
20
e8
df
1a
d8
00
fd
0c
07
f8
0b
e6
1f
e1
1b
eb
1c
1e
04
12
f8
02
00
25
03
14
1d
0b
ec
13
0d
f5
10
00
00
08
28
06
16
f7
17
1f
ef
13
e0
20
1c
1f
e3
e8
13
f9
2a
09
04
03
11
3b
15
0b
e7
ff
0b
1e
fb
fe
00
0d
0c
14
ea
fd
2c
f7
e9
ec
d8
26
f5
f4
07
dd
f5
12
16
27
08
03
fe
f7
19
16
0a
1f
0f
0e
02
24
0d
15
05
13
19
02
f8
f5
f0
f9
f5
00
27
11
ec
26
0e
1f
db
e9
1e
e6
e3
e9
fc
ef
2e
01
00
fd
f2
bd
f7
10
ec
23
0d
eb
df
fb
ea
fb
26
db
19
fc
eb
e7
1e
14
f1
1c
d9
e6
26
0e
e5
e5
04
ec
1e
1e
f3
fc
f7
01
01
f5
ec
00
f7
f0
eb
09
f1
e9
0a
de
22
fb
22
0b
1a
00
0e
ed
0e
ef
fb
0c
1b
01
19
f4
1f
fd
0a
18
f4
e4
fb
1b
03
16
f2
05
e6
03
00
12
04
f2
15
ea
04
ff
fc
10
e5
f7
e9
02
0e
ff
0f
22
1a
12
fd
eb
f6
22
1d
09
e4
e9
f1
02
f9
c8
e8
fd
28
0c
eb
07
f2
fd
e1
16
db
11
ea
08
ea
fc
2f
e1
12
ef
16
e6
ef
ea
f0
16
e1
03
27
20
fa
10
ff
e5
20
0a
db
03
02
1a
04
08
e4
0a
1b
fa
fd
27
eb
3c
23
05
1f
0e
de
0c
f8
1a
06
14
15
04
19
d6
e1
0f
0d
e8
e8
e0
ef
f3
e8
e8
04
10
18
16
f5
24
15
f4
d8
f3
f6
da
f6
f7
d6
dc
eb
21
11
1a
ed
12
ef
ea
e6
ef
0a
06
16
17
ea
16
0e
02
17
28
2c
f7
ed
13
e7
ec
fe
00
e5
c9
0d
00
fd
ed
f7
32
e7
f4
2b
e8
04
d3
03
f7
12
de
09
df
ef
1c
ee
09
16
fb
04
12
f4
1b
21
15
26
0f
0b
f0
01
25
25
20
1f
18
eb
08
0b
07
df
02
1b
11
01
e1
f2
f5
fb
fe
fc
2a
e8
1f
df
fe
e9
15
ee
fd
ee
fc
1c
19
08
f5
e6
01
0b
e8
0f
04
16
f9
0e
ea
16
0b
ec
0b
13
1f
08
e5
fc
03
fe
14
07
e6
22
12
eb
11
ed
20
23
11
e8
e8
0c
31
1e
e3
17
2c
f7
dd
dc
03
00
0d
09
01
23
1d
d6
17
12
fa
ee
da
16
07
e6
16
ef
44
f2
00
15
17
26
10
f8
e8
f7
1d
e3
11
08
f9
06
0e
1b
2b
f4
16
13
14
ea
13
08
2c
0a
ec
03
05
eb
fe
e6
ea
12
f7
00
07
ff
16
e3
f4
e6
e0
ea
f3
17
1b
07
f1
f1
f9
fe
f6
02
e2
0d
07
02
15
0c
14
f1
ec
ef
19
f2
ef
f9
ef
18
09
f0
fd
e6
e1
f3
11
17
f7
02
f7
e4
ed
02
1b
03
0e
f9
1e
06
fb
14
09
ed
07
e2
16
e6
0b
eb
f6
ee
e5
f4
1b
02
07
f7
13
01
fd
ff
fb
ea
e1
03
e9
f8
eb
0c
e4
07
16
e7
e8
17
15
0e
e3
f5
14
e7
14
16
ef
0e
e8
0e
0b
fc
18
00
f2
fe
06
e1
17
e6
dc
fe
14
f3
1d
03
1b
f7
04
0f
f9
fe
06
00
e2
02
1c
f2
1b
18
f7
f8
0b
fc
14
05
12
f7
16
ed
00
fb
11
08
ea
05
09
04
e2
f1
01
e8
0d
e1
00
13
1a
f7
00
fb
f3
f8
1c
e4
0c
e1
0a
e9
01
0e
10
f2
f7
1d
19
e0
f7
16
e1
e0
e1
de
01
14
e1
00
14
0e
ff
f8
e0
e5
fd
f6
05
fa
1b
13
04
18
0f
00
16
de
0b
f6
e9
e8
0d
e2
02
11
05
ed
e9
e9
07
18
f6
ee
08
03
f7
0a
fc
ec
eb
18
14
19
ee
13
ed
e1
08
f7
1b
cd
e6
0c
fc
10
fc
04
00
26
12
f8
db
e8
1a
0f
16
1a
1f
f1
16
0e
18
e9
df
f2
2a
1a
25
20
f5
13
18
12
18
e5
e5
e3
38
03
09
e3
da
fe
f4
de
00
26
f9
f6
f4
0f
11
15
f6
11
f6
12
2e
03
fa
19
17
fe
eb
0a
00
09
f4
2f
25
25
2f
14
ec
fc
18
06
d5
e3
ef
fc
fe
13
08
18
07
dd
f7
da
f1
e1
0e
1f
10
17
e5
26
da
fc
06
00
19
eb
1f
1d
32
e9
10
06
20
e0
f1
f8
e9
e7
11
ef
e2
1d
0b
3c
3e
14
00
0b
e8
08
ed
01
e9
ee
df
e1
cd
eb
08
e7
02
19
15
18
17
e7
fd
0b
1d
e3
00
21
fb
12
11
00
13
fb
21
f4
fc
18
14
2b
20
22
0f
0f
ec
22
10
09
32
02
d2
2a
f8
12
e7
e7
00
f3
1b
05
d2
04
ee
d4
05
15
1d
f2
0b
2a
e3
fb
23
14
09
ec
fa
f3
1d
e9
20
fa
db
fd
e3
2c
0b
0f
fc
ed
24
09
e6
fa
ff
03
eb
28
f5
e7
09
e5
0e
f2
03
df
ed
2e
d1
e9
04
da
e5
3a
08
0a
fd
05
0d
fb
c0
e4
fd
f9
e2
f8
15
08
0b
29
0c
e8
40
e0
ff
fc
05
01
1a
f1
04
e3
00
09
0d
0d
f2
fd
f9
eb
0b
00
20
fe
f8
f8
21
e5
05
08
17
e3
ee
21
f3
20
22
34
d0
e0
11
ec
06
fa
00
14
02
16
d1
11
23
f0
04
fc
fe
f9
22
40
22
05
16
01
08
d3
ff
29
df
1a
16
da
1a
03
19
0f
cf
05
0e
d4
fc
f0
12
20
02
08
0d
0f
f5
fa
eb
00
35
eb
07
ea
1b
f8
d8
f0
28
e3
1b
2d
30
f2
00
f7
08
f2
1f
24
0e
19
16
e7
36
23
f1
0a
05
34
20
ee
1b
0b
08
f3
f0
1c
2a
e2
00
e4
07
16
d5
20
d8
e6
e7
22
ec
1f
26
fe
ef
2c
0c
09
00
08
16
eb
06
1b
08
04
19
e2
08
1d
13
f7
fc
10
07
e4
2b
e1
10
14
09
1f
0e
1f
ec
e5
13
d2
fb
f4
f6
11
1c
1b
f3
15
1e
2c
ff
f2
0f
0b
db
17
f0
3e
0e
09
11
e0
25
1f
eb
07
ee
fc
20
e0
f1
11
27
0b
ea
00
17
17
ed
04
16
38
2b
14
1b
10
f0
e3
f2
f6
ee
f5
df
1b
01
19
1e
2e
ff
13
08
2a
3f
f4
23
ed
1c
1a
04
fc
15
1b
f1
1d
09
f6
0b
1b
fd
ed
f3
e5
04
f7
23
ee
f1
22
26
f3
fd
1f
d2
04
20
00
0e
21
02
0b
0f
fb
00
14
0c
f3
e5
16
e1
09
10
ef
01
00
eb
24
fb
fb
0c
f3
11
e0
c6
de
1b
f5
09
fc
0b
e3
df
e8
e6
15
09
de
de
fe
13
04
fc
09
fb
1f
f2
1f
e9
1c
21
f2
e1
f4
f9
d2
f9
e7
eb
1f
05
ea
fc
19
2f
15
f4
05
03
f8
eb
24
00
db
06
1b
f7
0d
f8
e2
f3
fb
ec
fc
f8
0d
15
06
e8
05
e5
e7
0c
f1
14
0b
fc
03
10
d5
f1
f7
0b
f8
eb
ff
08
2e
21
00
0e
0f
dc
f3
0c
ec
f2
02
00
fa
0d
db
06
0e
0f
03
de
ff
ff
06
01
14
eb
ef
23
20
08
19
f8
00
01
35
0c
22
f3
2a
e6
f3
f8
f2
f2
08
00
1e
02
e5
08
0a
18
e4
d3
ec
f2
07
f0
0e
ff
21
0f
f9
0e
f2
0a
ee
df
27
1b
1d
0f
e9
28
27
e6
28
e7
08
fe
0d
0f
23
f2
1c
01
05
f9
ed
f1
e8
e8
15
fb
07
ea
f2
31
f9
10
08
fe
f6
1b
1e
11
1c
fa
0b
17
06
01
e2
03
e3
01
00
1f
16
f7
04
eb
f5
0b
03
18
f4
00
f1
17
01
19
0d
13
f1
0a
04
f3
fd
d9
23
08
08
00
f5
05
24
19
03
fd
1f
20
00
01
02
28
f3
1f
2c
f4
df
ff
12
e8
17
e6
17
ea
f0
00
f1
2a
08
03
d9
02
ef
11
ec
e8
25
00
22
eb
e3
f8
09
21
2e
f6
ef
ee
f9
00
1a
0f
1f
fa
1c
1f
e8
ff
21
ee
16
27
e4
13
04
16
f5
1b
dd
ed
e5
14
23
da
f6
eb
e9
f9
e9
e8
07
29
f0
f5
e9
f3
21
00
28
ea
21
fb
fa
f1
f7
e5
f0
03
fb
0d
e4
fb
df
01
0f
e8
26
f5
fd
20
20
14
13
f3
ea
0c
dc
e5
e7
28
03
d8
1d
fd
03
29
12
fb
ed
09
fd
02
e2
d7
dd
1d
04
de
e8
ee
1b
ff
de
0c
e0
f7
0f
fe
de
f0
1c
ff
ea
0b
2a
1b
f9
e8
27
db
0a
f5
f1
2f
ec
16
0f
27
00
12
ff
17
e0
09
00
1a
18
07
1c
fb
f0
26
03
cd
fa
0b
03
ed
e0
ed
17
02
ec
fe
ff
00
fc
e7
f7
fa
e2
19
00
fc
f6
2b
09
f7
15
eb
17
07
ec
db
09
eb
fc
1d
fa
06
0e
10
20
ec
1e
07
ef
f0
05
f3
0c
f7
f5
12
09
19
21
0f
24
f2
1f
e2
ef
20
0c
23
07
04
dd
cf
24
fc
de
05
f2
00
ec
fd
25
0b
f5
eb
1c
0a
f2
ff
ee
da
fd
e7
f1
f2
08
f7
07
1c
fb
f2
07
e8
ca
f9
f0
fc
11
02
00
fe
08
24
12
fb
2d
17
0b
00
f5
eb
13
1b
ef
f2
e9
fa
1a
ea
e5
02
e1
f7
0b
00
f6
0b
1c
eb
08
de
18
06
e7
16
e2
e3
0d
fa
11
e5
e0
de
05
1d
10
ea
0f
fc
e6
de
00
16
00
e3
0b
0a
eb
ee
f0
f1
fc
1b
07
e0
1c
0a
00
01
e8
19
0d
19
0e
01
f0
fe
e3
0c
10
f7
eb
10
1b
04
0d
14
f6
f8
f5
fc
f5
f9
01
13
19
13
e3
f1
19
03
0b
fd
e1
f5
f2
e4
fa
1a
ef
14
e4
1f
f1
fd
ff
ef
03
17
e5
f1
0c
f7
08
0d
f1
f9
0a
08
20
23
eb
fb
0f
1f
0e
e8
05
ec
f2
17
1b
12
25
eb
eb
20
e6
ef
f1
22
de
f2
17
f2
10
1d
14
f2
ff
0c
d8
2b
ff
fc
11
23
08
05
f0
e5
17
f8
fd
1c
0d
ec
ec
22
1c
18
f0
17
fa
e0
f2
22
ee
13
fe
16
ea
1d
19
f9
22
fa
0a
01
28
28
ed
21
08
29
20
2d
19
fb
f0
01
29
1f
03
eb
14
ec
ef
fe
11
17
24
f1
00
00
1a
0f
dd
09
1c
0f
1c
e2
1e
0b
f9
e2
1c
0e
1e
20
d9
f4
12
05
14
08
0b
e9
00
08
fe
e5
1d
10
ea
1c
e5
1d
22
2b
f2
06
ed
14
1f
fd
06
17
00
f9
04
27
ff
ef
f5
00
18
f1
27
d3
eb
ef
f2
e4
ed
19
ed
14
d9
df
fa
f6
02
28
12
1b
ff
f6
13
f8
ce
05
eb
ea
dd
ff
10
e8
01
fc
e3
00
d9
f4
1e
f1
17
0c
e8
19
15
1c
e9
0d
ed
d4
f9
01
1e
ff
d5
01
06
16
22
f7
fa
b8
ec
2a
4e
16
0e
e7
ec
03
fe
e4
d9
0b
ef
f4
f2
f4
e5
27
30
f7
fd
10
f6
cd
08
fa
14
fd
0e
fc
2b
e8
1e
e6
f1
03
fa
ff
25
16
1f
cb
e2
08
11
e4
ef
0d
f4
db
08
ef
10
ea
eb
de
fa
f7
e8
0d
ef
32
08
29
27
0c
0a
f1
1b
e3
35
16
10
07
01
03
0d
1b
0f
18
0f
e4
09
cd
ff
23
08
ca
1f
2c
14
fc
2c
dc
23
2f
d8
f8
24
20
d9
09
19
fc
05
e3
21
f5
09
e9
ef
ee
f6
17
e2
fe
fa
15
13
1c
15
1a
bf
08
e6
0a
f0
25
07
f1
2b
2e
ec
2d
f0
19
07
eb
f3
24
0f
05
be
30
07
e8
e0
20
e8
1d
42
f5
e7
18
0c
db
23
d3
0d
08
00
1b
05
25
25
0b
06
23
ea
02
e9
39
dc
ff
00
eb
1f
f3
f8
eb
d1
26
21
0d
fb
16
12
fb
1e
eb
fd
f2
2c
30
f0
fe
26
e2
20
2b
01
0f
f7
ee
26
ea
12
0b
2d
05
0d
06
ee
00
ff
02
19
16
e7
18
ef
04
e0
ee
db
ee
23
e9
fa
e9
00
16
fc
1a
eb
01
f7
f0
0f
00
e5
db
e5
0e
f0
ea
ea
e9
25
fd
ec
06
1d
2b
0e
f0
dc
de
ce
20
df
0d
08
00
05
fd
12
eb
05
f6
0b
13
fa
11
d2
02
e4
da
e0
17
2e
da
cd
ee
15
f0
07
2f
ec
1d
f1
33
e4
17
08
df
0d
fd
f2
2c
1c
ff
ee
fc
18
09
ec
f7
13
e5
26
28
0a
20
17
0c
fe
c9
31
0a
00
e2
04
dc
11
f1
ee
22
09
33
f9
18
01
0e
2c
01
0b
27
1b
29
19
15
e7
d3
ee
05
19
db
ff
f4
0a
fe
1e
1e
ea
17
12
fb
e9
f6
14
f5
eb
e1
18
19
0e
eb
06
1f
02
01
27
25
e6
f1
21
e1
d9
06
13
ff
01
1a
dc
f1
1d
2d
e5
1a
17
fe
28
0c
26
fe
ea
ef
f5
f3
fe
d8
ff
27
08
f5
1d
15
fc
22
df
ef
fa
1a
07
ff
0e
03
1a
19
f3
f8
2a
fe
22
f2
05
ee
e4
fa
00
15
01
ed
1c
d9
36
18
f7
dc
0b
01
f2
00
06
04
f3
03
f7
1f
f3
d0
1d
e0
23
04
11
f6
08
19
fa
d9
1e
e7
1b
d0
00
0b
fa
f7
0b
0e
dd
ef
07
13
0a
02
20
2b
e8
c9
f8
fd
18
18
df
ef
26
0d
f5
fa
f2
01
d6
ff
ed
1d
d7
07
07
21
fa
10
fb
e8
09
20
17
0d
14
f6
d6
04
1a
e1
11
1d
21
09
2e
e9
00
03
1c
fe
f9
02
19
ec
17
00
04
1e
f1
ea
05
f7
1b
ea
01
f1
e7
20
13
0a
07
23
e8
0b
1c
09
fe
1e
e7
0d
26
f4
17
1d
eb
fb
eb
db
ff
ea
f0
db
f7
14
f8
ef
05
02
1f
f6
09
10
fb
01
d4
06
19
09
02
24
23
29
fd
eb
f5
00
fc
24
f1
1a
09
01
ec
18
ea
23
ee
ec
fd
06
0c
15
fd
f6
ed
ee
f1
16
17
00
ec
d7
17
f2
25
0c
f5
06
17
f1
0e
ec
f7
19
11
f1
09
0d
fa
13
07
ed
f4
f9
0f
03
e0
fe
15
11
e6
ed
e5
e3
fd
06
f3
e2
fc
f8
18
fe
12
fc
1a
e2
f9
f3
f5
e5
04
f6
ec
08
fb
de
df
ef
fd
ec
00
16
ea
df
10
f7
12
ee
0e
06
fe
00
e1
f6
fb
fa
fd
f6
e8
0e
f5
0d
ea
f0
fa
15
0a
0e
f4
e0
0b
06
04
e7
e5
0b
00
e5
f7
e3
0a
e1
fa
17
0d
f1
0c
fa
06
fe
03
f8
0c
f1
dd
f6
0d
ef
e9
f5
e8
f1
e5
15
03
f3
e0
0a
08
f9
fa
fe
10
de
f0
f8
25
de
0f
04
27
00
03
10
ef
f7
f5
e5
f4
13
e7
fd
0a
26
fd
e5
eb
e4
16
22
f3
0a
1d
1e
f4
e0
28
1c
f4
14
00
10
ee
1e
21
00
ef
e6
f5
f1
fe
16
1d
dd
21
0c
1c
f0
22
ef
f1
f7
e8
0a
06
06
1d
1f
f6
ea
00
24
07
10
14
eb
0e
f9
21
19
07
37
31
f5
e4
00
28
f3
15
f3
f7
02
17
03
11
07
ee
14
de
12
00
20
f5
21
2c
2b
12
e6
15
ef
ff
2e
00
f1
f0
0d
15
f0
d8
07
12
19
29
ff
2e
da
12
0b
23
ff
07
1b
16
07
ee
f6
d6
e6
f1
e9
22
f9
0d
f4
ed
f9
0a
ff
fa
07
00
0d
e9
08
ea
ff
27
f6
07
19
ed
eb
f8
e9
e6
02
1c
19
f3
01
2b
f7
00
03
27
07
fb
13
0b
0a
04
ef
06
fb
06
dd
fe
08
ee
d5
07
0e
e6
04
e3
0b
fb
0d
23
ec
e7
ef
00
fd
1e
0b
fb
fb
15
e8
fd
0e
19
0f
f9
d7
0e
22
dd
1a
0a
ec
1d
06
02
ea
fb
e0
03
1f
f0
1f
ed
0e
e6
fb
1f
e0
e6
03
21
01
21
18
fe
f0
26
ef
30
ff
1e
24
e1
0c
1a
ff
ef
dc
e4
e7
04
1a
e7
12
15
fd
fd
e7
e4
2e
06
0d
0c
0f
03
e7
ff
0c
09
ff
13
22
0b
01
04
12
20
cf
f3
fd
17
06
e5
16
1e
12
ee
e6
fa
2b
f6
f8
f4
ff
e9
f0
1c
df
0a
10
00
f4
f7
22
2f
00
ee
fb
17
e4
d8
f6
27
f9
26
17
e1
18
0e
ef
0a
fd
1b
da
fd
05
13
08
04
15
f8
f6
16
0c
fb
1e
0a
f4
e4
0c
0b
0c
20
00
ef
de
1f
e4
fa
fa
23
20
f6
13
e6
de
15
f6
21
10
13
11
f4
fa
f0
0f
17
02
08
1d
fe
0e
f8
0c
eb
29
13
e7
10
00
08
20
0d
18
00
ec
11
f5
17
f6
10
0f
20
01
f0
26
02
e6
f2
fd
2d
0c
19
1e
e3
06
ff
f9
f2
25
27
1e
1b
f5
16
09
eb
17
0e
02
00
fb
ec
00
03
e1
07
f9
d6
e6
ee
f3
fb
ec
09
07
df
ee
20
f2
fd
09
f4
27
0f
ea
e5
14
30
00
f3
04
29
f0
14
f1
f7
ef
ef
1b
09
1f
e4
eb
1b
ee
fa
13
fd
1b
18
0a
12
f1
e3
fa
31
0d
1b
fa
2b
3d
ea
0c
16
28
0d
f7
f6
16
14
0e
f3
1e
07
e0
ff
08
15
1d
1d
07
f3
0c
00
d3
ed
db
f8
1c
0d
fd
f2
14
1e
e8
1f
cd
0f
ef
ec
3d
19
0d
23
e7
f2
01
0b
10
f0
fb
e9
e5
11
16
08
e0
f7
07
fc
07
22
e7
06
fe
ff
0a
e3
03
db
0d
17
f4
0d
15
fd
fc
03
08
fd
e4
00
cf
17
08
f8
0f
29
f8
e8
2a
ef
e8
2c
0d
f8
0d
d5
e7
f7
fc
37
14
05
00
25
07
e8
ec
f8
17
1b
eb
14
e4
f7
e5
13
04
0b
06
ef
fc
03
f5
f3
f3
e9
05
f7
ff
0b
e6
e3
0d
14
f4
12
ea
1c
e8
11
16
ec
10
07
e3
06
f6
e5
f3
03
eb
ee
ec
f2
1d
ea
e7
06
e5
19
00
eb
00
1d
fd
e9
e6
17
f3
e7
08
e0
18
02
02
1c
f0
ef
e4
e2
01
17
08
e6
e7
15
e1
08
fa
16
f8
f8
00
13
02
15
08
f3
ed
01
18
e3
04
08
00
e1
e5
f0
1b
03
ef
19
12
0c
f2
fd
1a
e1
ec
e6
e4
0f
df
fc
e9
f3
f1
04
ff
fa
e1
11
02
f2
06
d9
e7
df
23
e8
0c
25
27
29
14
20
0b
f7
d7
09
15
19
0c
df
2e
05
de
02
08
e9
f5
f1
ff
fb
06
01
04
da
18
0a
fb
fd
ea
12
15
01
21
0e
cc
1d
fd
17
10
1e
1c
12
fe
19
07
28
09
ea
15
0a
e8
fd
14
1b
13
f0
21
00
22
fc
16
f7
1a
0a
d6
d8
10
df
e8
08
2b
e2
0b
0b
2b
11
f1
dc
1e
fb
02
0c
e5
ec
02
e8
10
fa
ea
e0
f4
18
f9
ee
e4
e2
ed
fa
15
f3
f1
16
19
13
0b
15
1e
08
ec
10
e7
1a
04
2f
04
0f
02
0a
05
ff
25
f3
ee
35
fa
08
f3
eb
17
11
27
14
fc
1c
fd
e6
f7
0a
eb
f7
df
1d
f3
fb
06
09
0f
fe
23
ec
fc
00
29
2b
fb
0b
10
27
19
23
f5
f3
1c
ed
fd
16
f7
e7
11
0a
ed
f9
ee
ed
fc
06
20
e4
fb
03
07
db
0d
18
e5
0a
36
28
0d
e8
18
fe
f0
db
1d
00
f5
d3
d4
14
f2
00
1a
16
10
07
01
01
e6
fc
0e
1a
ff
e8
00
f5
07
ee
18
09
ea
f5
02
f7
f9
06
0b
2f
01
14
08
03
e4
0d
ff
f6
e4
fa
e3
eb
1f
f8
15
0c
ff
e3
0a
e5
35
e8
f6
17
f9
f2
13
11
f8
e9
13
e1
19
1e
02
10
f3
0c
1e
33
2f
2f
03
e9
f5
32
12
1f
fc
0c
06
1f
ff
1c
17
ea
ef
e8
fb
10
1d
1d
e3
14
23
03
15
e1
1e
eb
d8
f4
09
13
00
04
25
00
f6
18
17
f3
e0
e3
1f
f6
19
f7
52
04
f5
00
10
f9
f0
14
f0
11
0f
1a
0c
f8
00
01
02
0a
ee
fd
f2
05
de
13
02
e2
11
e8
ee
00
f3
de
de
29
02
ff
f3
e0
15
06
0b
f5
f4
eb
03
1f
f6
1a
19
e6
0d
1b
15
19
e6
1f
0e
16
fc
0f
2f
08
09
21
1f
16
f1
e9
e7
0d
15
fa
00
13
03
f7
ea
dc
fd
00
1c
e7
00
17
17
f0
13
f4
1c
f5
ff
14
14
20
02
f2
00
ef
02
1b
f8
29
fb
15
0f
0a
f8
06
e9
fc
fb
1b
f4
1c
14
ff
05
1d
1b
f7
fe
ef
f0
fa
18
24
ea
02
e6
02
04
21
e1
1e
f3
e4
e1
ec
fb
ee
05
29
e5
1e
11
d7
29
13
1e
12
21
fe
0b
1d
e6
21
e8
03
d1
e9
1a
d8
00
02
1e
1d
13
ec
17
f5
04
f3
0a
00
e7
e1
e3
f7
f6
f6
24
fe
0e
04
09
f3
0f
04
07
10
1b
21
0f
27
28
04
e2
f8
09
f7
f9
f1
04
06
fb
12
d8
0f
0e
f5
f1
fd
0b
13
f5
19
e6
f8
2e
01
f8
10
04
fb
1f
19
f7
01
25
1e
f8
db
00
34
11
16
09
09
f9
f1
0f
fc
e4
d1
f2
e8
0a
00
f4
18
ec
0a
f9
21
17
0d
ff
ec
fe
f8
14
0a
20
00
0c
ef
28
f0
18
09
13
