0a
e3
e3
d6
19
ca
d8
cc
df
e1
13
f3
08
0e
10
06
09
08
f8
13
f7
21
e5
14
14
f1
25
e7
e1
eb
d6
12
d8
f9
17
cd
15
d4
dc
06
29
d2
19
2c
db
c3
27
22
1a
d9
fb
d1
09
19
01
ee
24
dc
02
19
e0
d2
d4
c0
eb
e9
f7
f7
18
05
ea
22
e0
d3
ed
e2
20
f1
01
12
2d
18
cd
ee
e0
3d
ee
e7
1b
29
fc
fb
f9
16
ff
23
f1
e3
15
0d
0e
f4
1d
2c
d3
ec
2e
1c
1d
25
19
f1
22
2b
22
14
ed
1f
eb
13
e9
16
23
0f
be
d3
f0
08
24
31
ef
dd
ef
dc
f5
0a
29
03
ee
09
01
cc
26
e6
18
05
de
e9
ee
30
04
cb
f0
d2
c3
f2
20
e0
e1
fa
19
ff
db
d2
dc
ea
f3
e9
05
d6
e6
fb
fb
18
ed
17
f8
e2
35
ef
ce
2c
eb
f1
f0
01
19
e9
f8
10
ea
20
ed
eb
1d
df
1f
ff
f6
df
f2
16
d1
f3
df
2a
d0
06
d7
d5
f1
05
f7
d1
10
04
16
1e
e6
2a
dc
0a
fe
e8
19
04
22
04
0c
0e
f0
e9
0c
1a
2f
d9
e3
ef
d5
00
e9
fc
1b
2c
cf
1b
e4
2a
27
db
e3
c9
01
c4
0c
ce
23
e5
28
0c
f6
ef
f4
dd
c5
f5
08
2f
26
e4
ff
03
ee
ee
02
ea
17
1d
0b
ed
e7
d6
06
07
06
ea
eb
f0
09
f1
16
00
10
fb
ca
f8
00
d4
f8
27
cf
23
d4
e6
0c
f7
1d
30
e3
3a
0b
00
cc
0d
09
ef
e3
12
f8
d0
f0
ce
ce
fb
17
19
06
d5
ed
f3
11
0a
f0
de
08
11
24
3b
df
c5
f6
de
28
f6
ec
ff
0d
0d
33
d9
dc
ca
0e
01
e1
0b
1f
0a
e8
0b
fd
f9
26
08
13
05
fd
1c
d5
09
19
16
d9
1b
d3
d8
12
22
f0
dc
08
1c
f8
f9
14
02
09
1a
d2
06
d6
e3
ef
d2
19
25
06
fd
d1
1b
03
e8
eb
ff
dc
2b
f3
f1
00
29
ee
1e
00
2b
e1
d6
d7
02
36
24
12
cc
2e
e5
f2
18
ca
0a
10
ef
ea
cc
da
d9
21
2c
eb
f2
18
c2
f5
c0
ef
e5
e9
f6
06
e4
01
e2
d7
00
d3
e1
f4
00
eb
f7
09
09
25
00
24
1e
f6
1c
f4
1d
00
d7
e8
eb
25
fb
1f
30
e6
2c
d5
e2
2e
0a
f2
1e
dc
09
de
0b
e2
09
13
0e
dd
1c
19
00
11
e8
e0
db
fa
16
f4
1d
0b
f5
00
f6
bf
e4
08
e8
35
10
ad
06
14
f6
1c
0f
18
0b
ee
f1
eb
ee
db
1d
e2
de
f6
0e
fa
30
d7
f1
b4
0e
09
ee
e8
18
2e
c8
1a
fe
f2
e5
14
da
08
cf
11
03
dc
0e
f9
da
0d
12
11
cf
be
01
01
ee
ea
ff
fb
1a
e1
2e
23
2e
d5
15
f8
cc
05
f3
cb
e2
14
1b
02
01
fa
e8
fe
d6
f7
18
2c
d3
00
f3
10
15
14
17
f7
00
c0
e9
ee
0e
f6
02
08
20
e5
cc
23
dc
05
e4
00
15
0a
1c
1b
fc
41
00
df
f9
1c
35
f1
08
13
cb
14
f3
22
08
f0
fa
15
07
09
fa
d9
d0
1c
fa
21
dc
dd
f5
2d
dc
1a
d5
24
05
bf
cf
03
cf
de
09
1e
1d
08
1b
0d
d4
13
09
03
d5
e4
db
eb
d5
fb
f8
d7
02
22
fa
f3
e3
d7
2b
24
e4
ef
03
07
f4
fa
17
e4
f8
0f
e5
c7
1b
d5
38
f1
12
f8
09
05
f4
f4
14
23
db
ed
e2
f9
12
f2
c3
e7
28
22
e4
26
13
29
fd
00
13
ca
20
16
20
e2
dd
26
28
1f
e6
db
d5
08
2f
02
f2
02
d5
1d
fc
0b
ca
f2
22
1b
d8
13
e0
0b
03
19
d3
f6
ec
d7
f2
e1
f2
c2
1e
e5
17
16
ec
d3
fc
1d
29
d5
cb
d1
ef
0b
21
08
08
f4
b5
e7
f8
fb
1e
d1
25
ed
e7
ef
00
2e
02
bd
cf
df
19
cb
cd
e8
17
0a
e4
fd
25
19
f5
f3
2c
1d
29
ec
04
f8
08
eb
0b
c7
dc
26
16
09
ea
0d
fe
21
2a
12
fe
ee
dc
15
2a
fc
02
