ec
d2
f6
13
00
db
c2
f0
f0
f1
ef
d3
e3
fa
02
fc
f7
19
2d
12
09
1e
1e
1f
15
ee
e8
f9
0e
f0
f9
15
27
24
3b
2f
3b
06
fe
38
28
10
f5
36
46
e2
fe
41
3c
1a
e8
d0
ee
fa
20
e7
db
d6
0b
1f
00
06
fe
f8
13
0b
01
02
00
fc
f7
0b
f3
0f
ea
dd
c8
db
f9
fb
f2
e9
e8
09
0b
f4
19
06
fe
02
1e
13
07
0a
ef
0d
f5
eb
f9
e9
b5
d3
0c
fa
d2
cb
d7
e9
0f
f3
ec
15
23
12
ef
11
2f
0f
e5
e7
20
ff
f9
d5
d2
0d
d7
d6
13
24
ea
b5
cb
e6
f7
c9
c2
dc
e9
f6
b8
df
eb
ec
e6
f1
19
fa
ea
f0
