dd
f6
f5
03
0e
f2
eb
db
e2
ec
12
0a
f7
bc
c0
f5
13
13
00
e5
e5
14
1c
1d
02
f9
0f
0a
e1
d0
06
1f
57
38
00
f7
b2
ec
31
30
1d
34
04
ea
da
0e
1f
1c
f3
ee
0a
e9
ea
ea
f9
27
2b
ed
e6
dd
2e
46
3f
f0
f0
00
19
44
39
01
db
de
1c
19
0c
03
0d
dc
eb
fe
26
0b
12
cb
c9
01
18
21
02
d1
c5
18
43
39
fb
d6
d1
d1
0a
fb
01
09
d6
f9
fd
15
f2
d5
c1
ee
27
1c
f2
da
de
ff
17
06
f4
e3
e2
09
02
0b
d0
fc
ff
de
ed
04
dd
2e
0f
e0
06
e5
30
3d
2f
0f
b7
f7
0d
31
11
b3
d0
e6
26
13
