f0
19
16
fa
22
17
21
11
10
25
f9
ce
e8
ff
07
c9
d8
13
fa
f3
d2
f8
10
19
d9
0f
12
ec
f1
ca
1d
2c
39
17
07
ef
f4
d3
da
f8
b2
99
bc
e7
fa
9b
e0
10
0e
f0
1d
15
28
05
23
e3
1b
14
fa
04
e4
f0
f5
ee
eb
ea
d9
0c
05
cd
cb
ed
f6
01
d8
0e
18
31
2b
05
d4
f0
19
04
f2
bd
fa
fe
da
c3
06
fe
ea
e5
b7
13
e0
d8
e3
dc
0c
01
f9
19
fc
dd
00
14
fc
fc
db
21
25
e8
ca
fa
1a
19
dd
be
0d
11
f2
ca
b0
b2
cb
fd
fb
f0
b0
d4
16
0f
f6
c5
f6
21
2d
e5
ba
2c
21
2c
f2
0a
19
1e
01
dd
