1e
05
23
16
05
35
24
2d
12
07
f8
e9
1b
0e
ee
be
c3
bc
d2
e3
f4
e4
e0
fa
03
23
09
29
04
07
1c
19
18
21
22
f4
00
ea
0d
06
ca
db
e6
e0
d9
0f
00
fc
fa
19
22
20
17
08
12
02
03
22
16
fc
e3
dd
e8
dd
f4
b4
be
cf
c9
eb
eb
fe
e2
f7
1d
2f
1a
23
0a
08
f2
f0
fb
06
0b
ec
f4
c2
e2
d1
13
d7
ec
c4
f0
00
f7
0d
fd
f6
1b
11
ee
03
ed
10
23
1b
2c
31
0d
16
26
18
14
b3
c5
e9
ce
d2
f5
03
f4
0a
f2
47
43
47
46
27
f6
ec
f8
1b
26
c4
b0
b5
c4
c5
e7
12
0d
08
ff
1a
2c
09
2c
0d
