db
ee
f0
00
fb
02
fa
00
06
dd
f6
07
e7
f8
ec
ea
10
fc
0b
08
0d
01
16
00
13
dd
a8
c4
ed
fb
b1
c5
c9
e5
f7
c9
bb
cc
db
0e
e8
fd
08
0f
37
2a
1a
0c
13
16
1d
15
05
03
08
17
1a
10
18
00
17
28
15
1f
f1
09
24
00
0f
ff
da
0c
18
fc
f0
f0
08
0b
fa
03
13
1b
02
f3
ee
ea
f8
05
08
01
f3
09
0a
19
f4
d2
e1
ec
f7
e5
0a
fc
15
f5
fe
0a
f1
eb
ee
e8
16
00
0d
10
eb
0e
16
f8
08
ec
fc
fb
0a
f5
ca
01
19
f9
0e
1a
05
11
ed
2f
0f
09
10
f5
12
fb
ca
0b
e8
04
0a
ca
e2
e0
02
e9
