fe
f1
00
ed
f3
f6
ef
f3
29
10
15
37
24
2b
2a
09
0c
07
f6
ea
ee
c4
e9
bd
c3
02
09
1c
15
18
16
06
1e
10
11
25
06
fe
32
fe
16
16
00
db
eb
ec
e3
d3
cc
cc
05
17
0e
ee
fb
fd
fd
2d
27
29
1d
21
0b
2b
04
11
07
ed
d6
f0
03
f1
c1
d7
d0
06
d8
05
0c
f9
eb
0b
2f
07
f8
d9
e4
ee
11
05
19
f5
e5
f9
e1
05
31
fb
d6
e5
f5
06
e7
dd
ec
0f
1d
1c
00
f1
2a
2f
31
38
03
21
1b
ef
e0
04
fe
b4
bc
ef
e5
e5
f6
1a
00
ff
26
16
29
39
10
0a
26
e1
ee
f1
da
c1
ab
b3
bb
02
cb
f9
18
fb
