05
e5
f3
0a
ed
06
11
32
1f
08
09
16
30
2e
11
d4
f6
07
1a
18
cd
da
ce
c3
f2
f5
00
02
f3
e7
23
0f
f7
f1
0f
1d
f8
09
24
2b
d4
d7
eb
11
28
fb
d7
d1
fe
e9
15
26
03
01
e1
06
21
0b
2b
07
fb
fe
29
0f
05
c3
d8
e9
00
1c
00
f3
cd
fb
ff
23
01
1e
06
23
0a
ed
24
0b
35
cf
cb
d4
12
2d
e5
e9
bc
ba
08
d2
e8
dd
e4
d1
1a
12
de
ec
c8
04
30
00
26
da
25
3d
1d
18
32
f2
f2
12
01
41
ed
e1
d1
dc
14
15
13
2a
32
fc
07
23
3f
35
4d
f2
fe
09
e6
14
f6
cd
c5
ea
ed
10
1a
1b
ed
f3
