06
14
f4
ff
04
03
0d
14
19
e6
f8
f0
fe
ed
13
02
f8
09
00
07
e8
00
d5
f5
0c
e3
13
ed
18
23
f2
01
02
1c
f4
df
12
16
0e
1b
e2
0c
0e
0f
04
fe
ed
e6
03
1b
d8
07
fe
1d
10
f4
1a
f1
ef
22
01
05
ee
f3
0b
da
df
db
1b
28
f3
f8
f1
0b
03
07
0a
ff
e7
1d
fb
ec
e3
f2
fd
fc
e0
f2
e2
2e
00
09
15
e4
f8
ff
ff
f3
de
fc
11
07
0b
17
1c
e9
0d
14
2a
04
15
fd
f6
0e
18
f6
fd
00
0c
03
f8
f8
e5
17
26
04
00
13
1c
02
f4
2d
ff
ef
fd
f9
d2
cf
02
ea
fd
d1
ce
f1
f3
22
19
fa
e6
ea
