09
05
ff
16
fe
1e
15
13
e8
00
29
02
e1
00
15
1d
ff
d3
dd
03
28
db
ee
da
0c
2f
f1
11
db
f4
30
f4
0b
f1
e2
1f
14
d1
0c
24
f3
d6
cf
05
0e
09
00
07
22
23
08
20
19
e8
c4
0a
fa
d3
05
fc
34
de
c2
fa
2b
17
fa
d9
0f
05
0a
e4
e9
01
22
30
0b
f9
13
11
38
36
0e
f1
e8
49
2c
f1
da
df
3d
17
ea
f3
1f
21
10
04
03
03
f3
f1
e8
d2
de
1c
fb
f9
ec
da
00
c5
e6
1e
28
e3
c5
e7
1d
03
0d
d3
e2
1e
10
0a
f7
cc
df
c9
0c
dd
ce
10
14
ef
ee
f0
12
14
df
d6
ee
18
11
e4
04
08
04
f0
