23
2d
fa
08
1f
2a
15
0c
0e
24
0a
dd
de
e5
f2
0d
e5
d9
e7
e4
0e
f2
dc
15
1a
c5
e7
dd
ea
12
23
41
21
31
2c
f6
e3
1b
5c
39
86
9f
df
40
44
9c
eb
2a
56
6e
f3
0a
09
ff
ed
11
07
e7
ea
e8
15
eb
c8
d7
e5
18
d5
e7
0a
0c
0b
e0
ee
2f
20
ff
0b
0a
04
03
06
d2
d7
ce
d5
f5
dc
d1
d2
ee
0c
f9
00
27
26
ff
ea
14
23
37
14
f4
f9
0d
03
0c
ce
d9
ec
d1
03
c9
d1
d9
d8
0a
db
f2
11
06
00
ca
0d
2b
28
3a
09
1a
14
1e
38
f1
f6
fa
0d
18
f2
bd
b7
b4
2a
e1
c2
ed
d0
47
0b
cc
05
0e
