e7
fa
0e
13
f5
cd
d2
da
01
d7
07
e8
f2
f7
ec
26
1b
e9
f6
14
f9
fa
fe
0f
06
0e
0e
02
f5
e5
41
30
26
0c
1a
3e
21
15
0d
db
4e
26
f2
df
15
28
22
f0
f8
e7
de
e4
ff
03
05
ea
ed
fd
14
05
00
ff
08
ef
1a
1d
26
06
f4
14
00
0b
10
0a
09
d5
da
ec
e7
fb
12
07
da
f9
fe
07
02
0f
eb
fa
05
19
0c
00
02
e4
e2
e8
eb
0a
f0
f0
fe
05
dc
ff
fe
00
f0
fd
ee
0b
f1
f7
06
0a
fe
0e
16
f9
e9
09
16
fd
f1
01
e5
0c
25
00
e7
c4
c4
f3
ef
db
d9
ca
f4
e7
d4
f5
f4
e9
fd
b2
ee
dc
ea
f5
