ea
e8
15
17
02
fc
f1
f3
d3
de
0f
0b
e3
d5
e6
fd
fd
13
0c
0d
11
fd
0a
01
17
32
76
76
3d
fa
1e
33
5c
40
17
4d
18
12
f6
dd
63
73
19
04
c2
08
f7
de
dc
c4
fd
c4
d4
02
18
23
1e
f0
f7
fc
23
1f
18
04
ff
02
20
1e
0f
ea
fc
0a
03
f8
f6
fd
f0
d5
ef
f1
2e
2a
03
fd
de
02
28
11
0d
fd
16
f4
14
1b
06
0f
13
ff
ed
d6
d8
f9
de
f4
f3
f7
f4
cd
ef
eb
00
e9
f0
ec
f5
f8
00
f6
00
f6
12
fb
12
06
d3
cb
d3
cd
02
22
e1
15
e4
f4
ff
db
00
12
f8
09
00
fb
10
00
03
05
fc
12
09
f7
