0e
15
29
22
f8
18
f7
0b
fe
00
db
da
db
da
0f
de
d9
d8
ce
1a
eb
dc
f2
df
21
1e
28
07
11
03
0c
10
0c
fc
24
e4
da
ef
20
1a
dc
e6
e7
1e
31
09
e6
04
05
02
1a
0a
fd
2c
25
ea
e0
0e
f7
01
0a
cc
c5
00
06
dc
ec
e0
31
09
e1
d7
04
26
2d
e2
fb
d9
00
06
e0
ec
eb
da
31
ef
00
d9
ea
20
0c
dc
c5
c6
09
02
fc
d1
0a
0f
1b
0f
15
34
1f
f6
02
03
16
15
dd
e7
16
26
31
f2
e6
10
25
23
05
df
0b
13
0b
f9
fd
f7
13
fa
f7
ff
c5
cf
ed
d6
d2
bc
ce
f6
ee
00
ff
00
cf
f6
fa
f4
0e
e0
