f2
05
df
e2
1d
fe
e9
d0
c3
d2
1f
00
ee
c3
cb
10
0b
15
22
13
24
02
07
2d
24
f9
dd
f4
d6
0e
02
ee
d9
f3
d8
fa
06
f2
ee
f0
0d
23
ff
0c
fb
ed
06
23
1b
01
0a
d1
da
bf
e5
0d
dd
cc
d0
db
24
24
0b
04
04
15
22
0e
10
1d
1a
fd
ff
0f
f5
2c
07
14
d4
db
13
2b
01
02
d8
f8
2c
0a
20
e9
ee
10
25
0c
fa
e8
eb
05
ff
f5
09
d5
d1
1a
28
15
d4
c2
e7
ff
00
f7
e0
e4
e3
0e
1f
fe
fa
eb
01
fa
27
f9
23
12
f1
e0
db
e9
0c
29
1b
d4
e9
35
1a
14
29
f3
27
04
1e
0d
36
00
e5
ee
f3
eb
