0c
fe
0a
fc
23
01
03
ff
f1
ec
1d
fd
1e
ed
ef
f1
0e
20
21
fb
10
10
0d
ff
f4
f1
13
00
0e
ff
0d
2a
0f
fd
19
f8
20
ee
14
0f
00
08
0f
1f
f9
ff
16
f4
0b
f4
f7
11
1d
0b
eb
f2
24
17
f5
0a
0c
1f
22
f2
09
f2
11
00
01
1e
1d
14
14
1b
05
e5
ff
f8
0e
0a
e2
e6
29
05
16
e7
e2
1f
ff
06
07
0e
02
f4
14
fb
00
14
22
ed
31
05
f0
e1
00
30
1c
fa
e1
e1
f4
10
ff
01
df
1e
02
12
f2
02
04
f4
fb
18
fe
f9
13
f2
13
02
ec
f1
08
0c
16
e0
f6
e8
19
f4
09
f3
f5
fc
14
13
ce
c4
f8
fa
