14
fd
ed
11
fc
e1
de
e2
d8
00
1b
19
16
ee
e5
45
49
1b
0a
1f
fe
18
0e
1d
0f
ec
d6
db
d8
00
f1
f9
e2
de
14
23
21
f2
22
18
1a
03
08
27
f0
f1
04
0e
fa
dd
00
fa
f5
d5
f2
dc
d5
e3
ee
f8
25
15
0c
11
11
35
26
1a
06
11
ff
de
fd
0d
d8
e3
e1
f5
fb
f2
1b
ed
f6
ed
0a
23
f7
fc
0f
fc
ef
dc
db
db
14
ca
c3
e3
03
e6
ef
0b
06
fa
08
fd
c8
ee
df
01
05
e8
fc
f1
0b
24
3b
32
f6
05
ed
1b
00
f5
f3
00
d5
c0
c7
ea
22
0d
fe
06
12
50
5e
5c
3f
15
38
3c
29
22
14
dc
b1
d6
03
c8
