0a
fd
fb
00
f6
1d
0c
ec
01
12
12
db
ca
14
10
e2
c6
03
1d
05
f3
f1
06
0c
01
ef
d8
cd
db
da
fd
ea
c0
b2
bc
34
f6
b9
9b
ab
30
cb
a3
a3
c6
15
d9
c8
e6
0a
f3
f3
1a
18
0e
00
f3
0f
0a
12
de
cd
f4
0b
04
db
e8
f9
24
0c
e3
f0
1b
08
05
f7
08
11
13
1c
f9
e5
1b
15
e5
d1
ed
0b
f9
f0
e5
fd
ff
e8
f6
10
04
01
01
ed
fb
eb
0f
14
10
e2
ee
02
2e
fc
cf
0e
2d
15
df
d6
1b
2d
15
cd
09
0e
33
10
da
17
d8
da
2c
37
20
b4
f4
49
2e
fb
8e
1e
4e
1c
b6
bb
4a
52
0e
c1
fa
3b
27
f2
