d2
0e
0f
fe
ec
e7
12
23
ec
ec
fd
10
0f
f4
2b
f9
05
0b
10
18
fb
08
f5
f6
e6
1b
f0
e7
10
e2
f1
1d
09
ed
00
0d
05
14
12
26
1b
19
02
fa
0d
10
f3
f7
f9
f5
03
fd
00
fb
ec
24
12
d3
06
ea
1e
1d
0b
35
21
f9
ff
2c
fc
0a
f9
d3
fe
f1
ce
01
28
18
06
ec
00
01
00
f2
22
19
16
0d
df
e9
12
f5
fa
e8
e4
15
19
e1
da
ed
08
d6
dc
12
16
21
da
da
d9
e1
12
13
22
f9
15
1a
21
26
35
2c
e6
f7
f8
05
e7
e3
df
bf
d3
c3
cf
d7
23
29
2b
ef
04
3d
47
4a
e6
d8
fc
ea
ee
b1
a5
dc
cb
f8
