f0
e3
ef
f6
e0
10
ef
09
ec
fc
15
03
2f
15
26
fa
1b
22
0a
03
e0
e2
cd
d5
e7
e7
0c
24
36
30
0c
28
18
08
26
2b
25
28
35
33
30
30
60
64
52
f8
23
31
18
fe
f2
e7
f9
e6
ec
1d
07
08
1a
08
22
2a
09
0e
21
eb
07
fa
f1
f6
de
fb
0b
00
d1
18
fe
04
02
00
0b
0d
16
0b
2d
06
01
0d
20
1b
d0
ef
e1
e8
f0
ee
00
22
06
e5
00
f8
02
06
e8
fc
f3
13
1f
f9
08
f9
10
0b
13
d8
da
d5
d8
fd
f0
ef
f0
03
fd
fb
03
01
da
c4
1b
d9
d8
d3
01
f5
f0
e4
db
26
d8
d9
f5
e3
de
e9
e9
fc
d3
f4
