f6
00
ee
f1
0a
2b
0a
00
12
34
fc
11
29
24
22
b3
b6
d2
d8
bd
f5
c3
be
d6
0a
01
0b
19
1e
f6
fe
03
04
04
18
7f
5a
54
42
4c
3d
5a
67
36
f4
ff
14
27
0b
f3
21
f5
0a
14
1b
f7
25
0b
03
ea
e2
f9
f4
dc
e0
d7
b5
cb
fb
02
1c
f6
ea
09
05
09
10
0a
07
05
08
08
16
0d
03
a6
c9
f2
c0
c3
0f
da
e2
f8
f9
31
2f
2c
2e
29
0e
f8
0b
08
2b
ea
00
13
09
09
cf
f9
f5
db
e4
d1
bb
db
f4
03
0d
fa
f1
15
01
1c
24
fa
d9
fd
0b
07
0b
ff
e6
d4
d6
05
f2
dc
d4
aa
ac
b0
ba
0b
f1
d7
d0
fa
