0f
05
05
00
dc
f9
fe
01
04
fd
0b
26
2f
15
19
f2
0a
15
01
f5
d6
ce
c1
da
fd
06
17
11
17
1f
f0
0d
1b
17
06
51
44
47
46
37
31
3a
1e
0e
eb
fb
f4
00
e6
fa
ff
fb
0d
10
05
26
06
1c
0c
fe
f2
f7
10
ee
f5
e7
d6
f1
e7
ed
fc
e4
e2
e5
f5
17
0b
01
ea
f9
18
23
ff
12
fb
f2
f7
12
f4
00
df
c6
ca
ea
d5
23
1b
e0
e3
dd
f4
0e
1b
ee
0f
1c
0c
0f
ed
10
10
f3
0c
09
ed
02
d2
dc
f3
fa
f4
e9
fc
09
01
fb
ef
05
d9
d4
0b
11
fb
dc
f7
ec
f3
f0
f9
f7
f2
f3
e4
00
f2
25
f8
d3
f4
ff
