1f
1f
2d
52
3b
ee
03
f6
ee
09
fa
b9
b6
d3
bc
04
04
f0
e7
ef
1b
0c
2b
21
f6
13
24
12
03
23
06
e3
ea
ef
06
ef
e7
f1
f6
0d
18
f6
ff
18
0e
20
1a
25
08
ee
f9
15
02
04
12
e3
c8
c2
c5
d7
05
c1
d0
d2
d9
27
00
0c
f7
04
06
10
07
1f
10
ca
cf
e0
f6
00
e6
e7
e8
c9
d5
12
f7
cb
da
f6
fe
fa
04
f0
08
ec
f8
02
00
15
2a
41
4a
32
25
de
e5
1c
f9
f9
c7
b4
c6
ed
ef
2a
07
1c
f0
09
30
20
1a
ef
e2
06
00
12
03
03
ed
b7
aa
c8
c5
2d
3e
23
31
0e
12
2d
3c
3c
3d
1f
26
13
fa
01
