17
f4
e9
e4
11
ec
db
ea
18
1a
f4
fe
11
0a
05
e8
20
18
f8
f2
17
00
09
00
ed
1b
0f
f4
da
eb
14
d4
a9
e6
0d
c9
a4
bf
17
2c
cf
e7
e5
1e
3a
f6
09
28
38
31
00
f8
f1
0d
0b
ed
0f
09
fc
17
00
e8
0e
19
fe
07
f9
11
fc
ed
00
0e
08
f7
eb
ff
07
25
fa
f1
03
20
0e
f0
03
1b
0d
05
db
ea
07
ee
ec
f8
fe
ed
f5
00
fd
02
e1
f5
08
1e
0b
f8
0b
20
04
d9
03
27
0d
ef
e7
18
f8
fc
e4
d0
02
02
e5
ce
cb
f5
cf
e5
f1
0f
cc
e1
07
ff
14
e2
f9
06
03
ea
e0
17
0b
03
ef
06
0e
fe
00
06
