00
d6
db
de
c5
e9
f2
08
f4
cf
de
f5
06
ef
e6
02
ea
20
09
f8
18
13
18
ff
1e
14
f3
dc
c3
df
ee
01
03
d6
fc
fd
19
0a
fc
f5
25
ff
0e
0f
1a
16
0b
1a
1b
09
fd
d0
e4
cf
ec
f0
f7
e4
fa
05
17
f9
de
f4
1e
08
11
ec
28
0c
2f
0a
fd
fc
0d
08
1e
27
f4
fe
f3
33
0b
e3
e0
e1
2b
30
dc
f4
f8
30
2c
e8
11
18
20
1f
f0
26
e7
c2
eb
e6
f8
05
db
ce
ea
f6
24
ff
03
16
0b
f2
d9
e8
0e
08
fe
e9
1f
f8
08
00
11
0c
ca
e2
05
f9
f3
ff
e6
15
09
00
e9
00
00
05
e7
1c
f2
f1
ff
03
fe
e8
