f9
ed
da
09
05
fd
e3
00
ef
fa
ed
ee
fe
fe
da
e5
e5
f3
ef
ee
fd
f2
f8
03
fc
f7
b4
c2
cc
ef
fc
da
a9
00
1e
f4
f4
d4
d7
33
d7
02
40
27
16
d2
e8
2d
3c
0d
f5
ef
0c
fd
f7
db
ea
20
f6
f6
e2
f1
17
28
fc
06
e6
fc
1c
22
1c
19
f9
07
1b
e7
12
17
0b
0a
00
03
0a
f2
f9
08
e7
04
16
e9
0f
ec
e3
0d
07
03
21
0d
ed
fb
d7
12
23
f9
f0
00
20
18
ee
ed
f6
15
f9
ee
e6
0c
fc
06
02
ea
f6
eb
00
f2
08
15
0c
19
ed
d3
f5
05
13
2e
e1
1f
26
06
30
29
18
12
cb
1b
35
fb
e6
f7
fe
00
