eb
fd
fb
fb
1d
0b
2c
09
0e
00
23
19
f7
f0
02
eb
fc
bf
f4
30
ea
d3
ed
f3
fe
03
f8
14
14
10
0a
26
1a
23
0c
e3
e3
03
fa
fb
da
d0
05
0c
28
11
db
f3
08
ee
de
16
00
03
11
ff
1a
2b
23
03
e6
ed
05
f6
fa
04
f3
d8
f4
ff
1c
e3
e7
0c
f2
e9
01
fb
01
0e
f7
da
fd
04
3d
fd
12
e4
0d
1d
08
1b
d8
cd
06
39
1e
f8
de
d5
e7
de
03
ff
f6
1b
1a
0d
13
03
0e
07
f6
fd
27
eb
dd
f9
21
38
e1
eb
00
ef
f6
3c
3b
3d
09
fe
29
25
f2
d5
e4
df
d7
cd
e7
1d
0d
fd
f3
de
f4
0f
00
e0
c5
c7
