04
18
f3
e8
da
17
fd
f6
d9
fc
f0
de
f9
02
13
0e
04
28
33
14
29
1f
37
0f
da
d0
c6
ca
de
f7
f5
27
31
08
de
41
31
f0
de
1e
f6
05
19
45
3a
29
45
4e
22
f3
ed
02
ee
f3
f7
e0
e9
e2
fb
fd
f4
01
0f
00
f9
22
03
ee
0e
fa
27
0a
04
23
03
e7
f3
d9
f1
fa
e4
ec
0b
13
0d
04
ff
04
02
f5
39
1c
1e
08
db
10
f7
d4
d9
04
16
08
e3
ed
f8
ee
cd
fa
21
11
f7
f1
1b
29
e8
23
21
03
e8
db
12
f8
f0
d8
e1
01
0e
10
0b
00
f3
02
d1
fb
fd
db
dc
d0
f8
14
fa
de
08
10
13
fd
0e
f0
e5
e4
