fb
fa
f6
15
07
0d
13
f2
04
f1
f5
ea
00
e8
01
fe
02
e6
14
04
08
ef
d3
dc
08
0e
ed
b6
a9
b2
03
10
fa
a8
d2
0a
f6
d0
b5
c6
1f
ec
fc
13
f9
2e
32
42
51
3f
10
fd
00
17
fe
fe
fc
10
0e
10
fa
f5
f3
1a
3c
0f
ea
d8
05
3d
0a
ea
bb
c6
2b
ee
f5
de
14
07
f5
ec
ee
f1
ff
fc
d5
e1
0c
00
f2
e6
90
c8
17
32
1a
d2
b3
f5
08
f4
03
1e
07
ee
e6
13
13
09
f1
db
06
0e
0a
fd
cb
f6
06
1e
09
de
de
04
08
0c
16
00
11
1c
fa
12
f0
08
48
00
00
d9
0d
55
00
00
d7
df
1e
20
0c
c5
ae
02
