f3
e2
d2
06
05
f7
ee
ce
14
08
04
f5
e5
15
22
02
e8
df
07
10
d6
fe
10
32
f8
e0
df
13
26
23
d4
01
13
2e
15
d2
20
2e
18
e2
01
28
2b
1d
e3
13
f9
11
01
08
df
d9
f1
0a
2b
dc
02
ff
08
fc
cc
0c
1a
36
00
da
13
18
03
e2
02
12
31
03
e8
19
fc
b0
f3
0f
1d
bb
b1
20
20
08
99
e1
38
1a
f2
cb
14
44
1f
cf
d8
30
3f
1b
d0
eb
24
0b
db
e9
0c
1e
02
d9
dd
0a
fb
ea
e5
f0
27
1f
e2
ea
ec
1e
07
e6
d4
ef
0b
f4
03
fd
08
07
00
f2
de
ce
f3
e7
e5
c7
fb
0e
e5
b1
da
01
12
c5
d9
f5
