e5
d0
e7
03
2e
e4
d9
d6
f5
2b
fc
ea
e5
06
29
f6
02
f5
0b
f6
0b
ec
2c
fe
fa
d2
e3
09
2a
28
c0
dd
fd
ff
1e
e6
04
14
2b
0b
17
00
1a
1d
e2
08
18
fe
19
e5
c9
e8
08
3a
1b
e1
de
07
10
16
cc
e6
37
1d
db
d6
02
0c
1c
de
00
24
ff
da
dc
1d
e4
d8
36
1b
3a
ae
d2
3d
45
f8
a9
09
4d
37
f9
db
17
3f
34
f4
e5
34
01
ed
fe
0d
30
0e
01
f5
1f
2f
fc
e4
eb
0b
0b
fd
d8
15
04
29
f4
07
f9
11
ec
f0
0d
b7
bb
e3
0a
f8
c2
fd
04
f9
c0
e8
f0
0c
ef
c4
f5
e8
ec
e7
fa
f5
fa
f2
da
ca
