fe
fc
eb
f4
06
06
03
f9
ff
f4
04
f6
f6
06
f1
fe
f2
0b
20
21
ce
cf
c6
0a
0b
01
f2
d6
ea
d7
02
da
d3
06
45
19
04
f6
ef
29
0f
30
3e
4e
2e
14
2d
52
6f
6e
fb
04
07
e3
de
0e
19
1a
13
e7
e5
eb
1d
44
21
d2
c1
f1
25
40
eb
e8
c1
df
10
f2
f5
f3
e7
fa
e9
0c
f1
00
df
dc
d3
e8
10
22
e1
aa
a5
ff
18
05
11
fd
c9
e1
00
f2
0f
ec
e4
00
ef
0d
02
d0
ef
00
19
18
ef
c0
d9
fd
09
02
e3
ee
dd
f2
f7
16
f8
14
0e
c9
f6
07
0a
2e
f9
e0
e4
fd
3b
36
e0
c2
9f
01
1a
de
d7
9c
b8
df
