f8
14
e7
f1
e2
01
1e
e9
d1
c8
1c
12
10
03
06
f8
00
0e
1a
04
1a
f7
fb
21
1f
f3
0f
e8
ed
f8
fb
e8
ed
e2
e2
f4
0d
10
11
1f
fc
ff
00
1f
26
f6
07
06
12
f6
f8
fd
0d
ec
e4
f6
18
05
cf
da
e7
f6
06
06
20
05
15
15
12
24
fd
05
f9
1c
f9
f2
f7
1e
15
f3
0a
00
f8
ea
00
0a
e8
04
dd
f2
de
f5
d5
de
e6
df
e5
d8
0e
02
db
e5
e4
16
0d
03
13
dc
ff
06
11
22
f5
0b
10
13
f9
01
06
05
e8
0b
19
17
ff
0a
25
12
09
dd
1e
16
01
f3
1f
fe
01
08
2c
20
17
0e
33
11
12
20
33
f6
e7
db
