00
f8
0f
11
05
fb
06
08
0b
f2
f2
08
0f
15
fe
fb
ec
fc
f7
f8
08
f9
f4
f1
f6
05
ea
00
01
f2
f5
ff
07
0d
01
e4
07
16
02
02
f2
f3
f7
08
ed
fa
0f
07
00
f7
16
fc
11
26
0c
e0
f4
09
17
0a
df
08
0b
ff
ee
04
fd
03
f5
e2
07
1a
07
fd
d7
fb
13
04
04
0d
f7
00
02
02
20
14
10
0e
09
26
f9
0d
ff
04
e2
f6
f4
0a
e6
dd
0b
27
2e
24
01
f7
00
ed
fd
12
09
fc
fe
14
25
11
0a
f9
f1
fa
03
f4
f7
e9
c5
14
11
22
15
11
fe
05
03
0f
31
05
0a
10
02
f8
16
18
00
f7
dc
f9
05
fd
f9
e6
e5
06
ef
da
fb
ec
e8
e7
00
0e
09
f2
e9
11
30
12
e8
ef
26
11
11
db
ee
0e
f9
10
05
07
0b
08
e7
f4
05
fc
dc
f4
09
04
f2
f9
0b
0d
ea
f0
d5
02
15
e0
f7
03
fd
2a
fc
f6
04
0e
22
0b
ed
17
21
1c
20
08
1c
fb
f0
f4
fe
10
fc
e6
df
ed
08
08
f7
f3
fa
f5
0c
26
0e
06
00
27
31
06
16
16
08
fc
02
f9
05
0c
fd
e3
d0
da
db
f8
df
03
ee
e4
ec
fa
f0
fc
ef
07
10
23
0d
f4
f9
0d
1d
15
ea
f4
f7
db
01
03
0d
05
13
06
01
f7
01
03
f6
06
06
ed
d4
fc
09
04
fa
ec
f6
12
12
fe
0a
00
f0
00
f3
fd
0e
f0
fb
11
0a
f7
0a
20
fc
1b
fc
00
fe
18
08
04
15
00
07
e8
d4
f0
f7
11
05
0c
e6
fb
24
0f
18
ea
04
fe
0f
09
09
0c
0d
02
f0
1c
0c
16
ff
e2
f8
14
02
05
00
19
06
07
ed
f7
10
0e
12
ec
ef
fb
1d
1f
f6
f8
fb
0a
07
fd
ec
01
e5
e6
cf
dc
ed
fc
18
e4
d7
fb
14
02
df
dd
e6
06
f7
fe
0d
fb
0b
03
fa
08
f4
fa
fc
00
00
fd
f2
f3
f1
0c
16
03
fb
ec
0a
13
05
fd
f2
ff
0a
10
02
03
08
00
09
fd
fc
02
12
10
04
ec
ef
1a
f3
fe
ea
08
13
ff
f2
00
20
fb
00
fa
04
fe
fd
f8
0e
02
f4
12
11
0f
e6
05
0b
14
11
10
10
0b
08
0d
00
f8
fc
04
09
fd
f5
fb
04
07
05
19
f9
08
06
08
11
02
f1
fb
f0
fa
1f
12
13
f9
fd
18
0b
f9
0f
fb
f5
f5
f4
ff
2a
e1
00
16
1a
17
d2
00
05
fe
fc
e0
06
04
04
06
00
08
18
12
05
f9
f3
f7
f9
06
e4
00
0a
fd
0e
fe
00
04
ed
02
15
17
06
ff
0e
19
11
0b
fa
ff
2b
1f
21
d2
f7
f5
f5
fd
fd
fa
e5
05
f2
fe
f4
e9
ef
ef
f6
0b
17
0c
fa
fa
0f
05
03
1a
15
f4
14
15
fc
e8
ce
17
15
04
13
06
ed
fc
ec
fa
08
02
00
e3
00
fd
ec
e6
07
03
12
e0
e6
f9
12
0a
ea
e5
e8
04
00
fd
fd
00
04
10
04
00
0a
fd
00
d9
f6
0a
04
12
d6
f6
f7
0b
23
ef
f7
f0
f5
04
00
ff
ff
16
0f
12
08
07
0f
08
14
13
19
08
fb
eb
fd
f9
fc
10
ea
ed
f7
f5
06
ea
ed
ff
09
fa
22
15
00
0d
04
e9
08
fb
fb
f3
09
0b
02
f9
1e
04
03
06
1a
1a
f6
00
fc
fb
06
f2
fd
08
11
0f
c6
e3
fc
11
01
db
f8
f7
06
1f
11
0b
12
f3
f6
0f
fb
00
00
f8
0d
09
0b
f3
0a
f6
fd
f7
eb
03
fd
09
05
06
0e
16
0e
1a
0b
fb
04
f9
0d
09
e9
fb
ff
18
f4
f2
f4
ec
01
13
0d
ff
03
fc
0e
16
f3
f7
03
f2
0b
02
fb
f4
f4
06
04
01
f4
f9
14
f0
f8
00
0c
de
eb
f5
f5
f0
fc
08
ee
e9
fb
28
03
01
f2
0b
0c
02
fc
d5
ea
fc
0a
fe
00
09
03
fe
00
f6
04
05
f6
fb
03
0b
fb
fd
00
03
f0
03
ec
e4
e2
f3
f7
e1
ea
ed
0f
05
f2
01
fe
0c
15
f2
04
09
06
f4
ea
f3
f8
f7
fb
f8
fe
07
07
00
fd
ff
02
03
05
0e
0d
03
ee
fd
09
f0
f4
f2
0a
f7
ef
05
0e
fb
03
f4
df
df
e2
08
ef
fc
fb
eb
0e
00
00
01
f0
f2
f4
07
17
f3
01
0d
1a
19
07
f0
00
f2
ff
00
2e
31
0d
05
cf
25
0c
10
eb
01
0e
11
13
05
25
21
05
09
1a
fb
21
12
f0
00
04
04
05
f3
01
f0
f9
07
0c
08
fa
12
04
13
17
05
18
fe
06
10
fe
f0
f0
f8
f2
fc
fc
ea
eb
15
fe
0f
f7
ff
f9
11
16
09
1f
f7
07
25
0e
0c
1a
e6
35
16
04
04
00
f7
ef
f7
01
0c
02
13
14
06
18
e2
f8
04
00
f0
15
fd
08
f2
06
f2
fc
09
f8
f7
ed
03
07
03
ed
05
e9
13
1a
04
ff
0f
11
15
f9
15
f3
ed
00
f3
e5
e8
ea
06
fe
1a
00
fe
06
e7
0d
f6
fc
0c
e7
07
17
1a
0b
f1
10
0b
ff
07
fb
e9
e5
e2
fe
15
ee
0a
03
14
fe
04
14
f2
10
f8
0e
fe
f3
09
03
0a
1a
0f
05
10
fa
10
1b
17
02
01
f8
02
f6
fb
f9
05
f1
fa
f8
fe
f5
fc
03
0a
ed
fd
02
0f
14
04
ee
00
0b
de
2a
1d
f1
fc
fa
fa
f8
e4
ea
fc
f7
f7
f5
ff
0f
00
1f
fd
fc
0e
df
d8
e7
f1
ee
04
f7
fc
04
04
0c
f7
ff
f5
e6
da
e7
f4
04
09
01
01
0a
f6
fe
02
00
fc
ee
00
10
00
fc
ee
f2
f9
f4
ef
fe
ec
f0
f8
0e
0b
f4
02
f2
02
f9
f0
f5
e1
e4
ec
0b
f1
fc
11
17
24
04
00
f4
14
fb
fa
eb
f3
0e
fd
00
ee
09
17
04
fd
fc
18
28
33
fd
f4
f4
fd
04
00
00
00
f4
fe
00
01
f5
fc
f9
fd
09
05
0a
f7
fb
09
01
03
fa
05
09
02
06
f4
00
03
fb
f9
07
04
00
04
05
02
fb
03
00
fc
00
06
fc
02
f6
f9
f4
09
fe
02
03
02
f6
00
ff
08
fe
f6
f6
fd
06
02
f1
ff
06
f6
fb
00
05
f6
07
ff
ff
f8
f8
fa
f8
09
fe
00
0b
f5
f5
fa
05
00
03
fb
00
f6
00
03
08
00
00
f9
f5
fb
00
fe
03
08
03
03
f3
04
f2
00
fe
f6
ff
04
f7
09
09
fc
07
fa
f5
03
00
ff
f6
f2
f5
f5
00
f3
0d
00
02
0a
fd
f8
fd
0a
02
fe
03
04
05
fb
02
04
f1
fd
03
fa
ff
f5
04
fb
f4
06
fa
f8
fb
09
02
ed
02
fc
00
ff
08
fb
f7
02
08
f5
f5
00
09
07
00
00
f9
00
ff
f9
00
00
07
00
07
f6
00
f9
f4
fe
08
fb
f9
fe
07
05
f4
09
09
03
f5
fd
01
f3
f6
f9
f7
00
00
fc
06
fd
01
f8
fc
06
fa
fe
f9
f4
f3
fb
06
0a
01
05
fe
f6
f9
02
fa
09
f8
fc
08
fb
f9
09
04
fc
08
01
fd
00
f6
f6
f7
0a
f8
07
04
f5
f9
08
00
00
06
f5
06
00
fe
00
f8
fe
01
fd
f9
f2
fe
f2
fc
f4
01
01
05
fb
f7
ff
f4
fd
f6
f6
00
05
01
f6
ff
02
00
f4
f4
f8
f3
00
fb
07
0a
0b
f4
f4
f2
ff
f5
fb
fd
0a
f3
00
f6
fb
fc
07
05
fa
05
08
f3
f8
f2
f4
08
f3
05
f2
f5
fc
01
f9
05
fb
f7
f7
00
00
f8
f6
f6
00
05
05
f7
02
f2
0a
fc
f5
f8
06
03
06
f7
f3
05
00
07
f8
09
03
00
f6
00
f5
fc
f4
fc
02
f4
03
09
00
fe
f7
f7
02
09
f8
02
05
fd
f9
fe
f8
05
f4
09
02
fb
fc
f7
f6
fc
f6
fc
f7
00
fe
12
03
01
02
08
16
fc
04
09
13
1d
0f
0c
02
04
03
f8
f6
02
0c
f0
fe
05
fb
06
fb
f6
00
10
15
fc
03
f8
09
24
03
14
fc
03
08
fc
f8
03
02
f7
fc
00
f2
ed
06
10
f6
f1
02
1e
08
fc
00
f1
fc
0a
e5
02
19
1a
0a
0a
f5
0c
0c
e9
bf
c9
e9
e4
12
eb
db
d4
d2
0c
0e
11
f9
ff
16
1e
09
09
01
1a
11
0e
08
1c
00
f7
f3
e8
ff
10
ee
cb
bb
90
f9
f9
e7
e2
e4
04
f4
01
e9
f7
1a
f1
ed
f3
fe
ef
dd
cd
df
f5
07
ef
f2
da
ef
fe
17
f6
06
1d
1c
00
fa
fd
12
11
0d
17
24
0a
ea
ea
fc
fa
f1
ee
c3
f2
f8
fc
ef
e2
eb
f1
0c
07
1b
1a
0e
ff
f4
f9
fa
05
00
e8
e6
ed
0b
1c
ff
fe
f8
fe
1e
08
f9
f6
0c
06
0f
f7
fb
01
ec
13
08
ff
f9
fe
f1
ea
f7
0c
cf
fa
07
05
0e
00
fc
06
07
fe
0a
0e
09
0d
eb
12
f9
06
0d
03
ec
f4
0a
17
12
f4
08
f9
e6
09
fc
07
00
ec
00
08
0f
1b
03
ef
e8
01
0a
e8
ff
f2
ee
06
0d
16
00
eb
f8
fa
fa
0b
ef
f1
00
fd
00
03
14
1d
ec
e7
1b
0c
0c
e5
02
07
0f
1b
08
fa
17
07
f8
fe
11
17
10
0f
0d
ed
f6
06
18
04
e7
ff
0a
1c
09
f8
f2
dd
ee
ff
ed
2c
19
f7
f3
07
1f
0f
ed
ff
ef
1c
1c
07
00
04
fc
01
00
0e
17
eb
fc
ff
fa
08
1f
02
00
fe
fb
13
ff
e3
f9
f8
0a
f4
0c
f7
03
09
08
08
02
21
ed
d3
eb
04
09
03
07
17
00
04
01
15
fd
f6
08
10
08
ff
02
fb
ef
f9
e7
00
00
fd
f6
f9
02
ff
fa
21
0d
2d
4a
01
23
0a
03
38
02
05
06
14
1e
f7
03
1d
fb
19
08
23
13
00
05
0b
ff
09
ff
fe
fc
f3
fe
12
18
e7
f6
ec
f4
03
ff
03
03
f7
06
f6
06
00
08
05
f4
00
fb
f6
e4
fc
fa
00
04
f5
f6
f7
0e
f7
04
ed
fa
07
14
14
fd
f8
0b
0a
1f
0a
f5
fe
ff
f8
02
03
08
f3
fd
0d
08
0e
00
01
03
fc
06
03
02
f1
f1
00
09
fc
0d
0d
21
12
fc
08
0e
13
0b
f6
f7
00
09
09
07
f4
ef
f6
08
13
f4
04
03
fc
fd
28
2c
10
0f
02
31
0f
fa
e9
fa
1f
17
fe
21
12
02
f8
f3
eb
fd
0d
0f
08
0c
ff
0f
12
02
13
ef
05
0f
10
ff
ed
ff
00
f3
f1
ef
ef
0f
f5
f9
00
f8
06
06
ff
09
13
15
0d
eb
02
2c
1d
f8
f0
ea
2b
00
0d
fc
00
26
03
01
ff
e0
0a
06
02
08
fa
0c
01
17
fa
e7
fa
06
10
13
fe
f7
ea
12
e7
1a
f5
04
05
0b
1d
ec
f3
dc
0b
25
fd
f1
0c
12
1b
05
e8
fe
f0
09
06
12
f6
fd
00
02
04
fa
e7
fc
f6
02
f4
f8
19
ff
01
15
00
01
f3
fb
15
0f
0a
f9
05
00
0c
00
fc
f8
07
06
f7
f0
f9
00
f8
ef
09
19
16
30
fb
10
20
f9
2f
04
03
e9
e2
01
01
f5
e2
fc
fc
01
f7
fd
06
00
0a
fa
09
09
0e
f6
02
02
00
02
1e
fd
f5
ff
02
13
11
06
00
00
06
01
00
ee
03
12
fc
08
04
10
fe
e2
ee
f1
0b
05
dd
e7
e0
fe
0c
16
fb
0e
fa
f5
e5
fb
0b
07
fa
ff
09
fa
03
03
ff
04
00
05
fb
ec
eb
fc
f9
12
0a
f7
fb
09
ff
fe
06
08
08
f4
ef
ff
f9
10
17
e1
f7
f6
fb
f3
f1
ff
f6
0b
f4
00
07
00
00
fc
0a
11
fe
00
0b
f1
fa
e1
eb
fa
03
f6
02
0a
df
fe
f9
02
11
f7
fa
eb
f7
0c
f9
04
00
ef
00
00
02
f9
f2
08
00
fd
f4
f0
01
fb
fb
f9
00
f7
fc
fc
f2
f8
fb
f9
0a
f5
ff
fd
04
fb
f8
03
06
fc
02
09
f7
08
f7
f3
fb
03
f4
f6
00
f2
f2
fe
f4
ef
fd
f5
fc
01
f0
00
f1
fe
fe
f3
f3
fb
f7
f6
f5
ff
f8
fe
f0
f6
fc
02
ff
04
f5
f4
03
f4
09
f9
f8
04
f4
f0
f7
f9
fb
fc
04
f8
08
00
05
fc
f7
08
f3
f2
f7
fc
fd
05
f1
f5
ff
f6
00
f3
f1
00
ee
08
f4
f2
fa
f0
01
f2
f7
f7
f5
f1
fc
00
fd
01
f0
05
01
f8
fc
fa
f3
00
ef
03
f1
f9
f7
02
09
fc
fe
02
03
f3
fb
06
f5
f9
f7
f6
fd
07
f2
fb
fe
03
f3
f6
06
0a
fc
fd
03
00
f7
f0
0b
09
fe
00
01
fe
f5
04
f2
01
00
f0
00
f4
fb
f7
03
00
00
06
02
f1
f7
02
f5
00
f0
fc
ed
fa
fa
f6
06
fc
02
03
00
06
07
f4
00
04
ee
09
f9
06
fc
fb
f7
fc
ff
00
ed
ff
f5
fd
03
f0
05
f3
fc
f6
03
f2
00
f7
02
f0
07
f4
05
fe
08
fb
f6
f6
fd
fe
01
f7
03
08
04
fa
05
04
fc
f5
02
0c
fb
00
f7
f3
06
f9
00
06
f5
01
03
fd
01
00
fb
ff
f3
fb
fd
f2
fb
f8
02
f4
00
06
f7
fc
f9
f2
f5
fc
fe
06
04
02
00
fe
f1
f1
f4
09
f3
02
01
fa
05
00
04
00
03
fb
f4
01
fc
00
00
f5
f7
f4
ee
00
fd
03
08
fb
f9
f5
f8
0a
03
f6
fa
ff
f8
09
06
f1
01
ef
f3
02
04
f4
fd
04
f1
fa
04
fc
00
fe
f3
f7
f2
f6
00
f0
ff
f5
fa
f7
02
02
f7
00
04
fe
02
f8
fb
f8
f5
02
f4
f2
02
f9
07
00
fb
f5
f7
f7
fc
08
fe
f2
f7
f8
fc
00
fb
f4
fd
03
02
04
fa
f3
01
ed
f4
01
fa
ee
05
0e
f9
fa
f7
00
fe
f0
0e
05
f9
f7
f6
03
01
fd
16
06
f7
f9
19
08
00
fd
e7
f0
f3
06
07
f6
01
02
f6
f9
f7
fd
ff
f4
f8
0e
09
00
10
0c
27
fe
f4
06
0d
f6
f6
f0
fd
05
f6
0a
13
0b
f7
fc
06
12
fa
fd
02
e9
03
00
08
f6
fb
14
19
07
f6
ef
fa
f2
03
0a
10
0a
18
00
00
ef
f7
f1
01
09
f0
f8
00
21
1d
06
19
14
1a
12
fc
01
03
17
22
16
04
04
0c
1a
f6
04
ee
0e
fc
ea
fe
fe
fe
0c
fc
15
34
29
29
ee
ec
de
f1
fc
14
01
0a
0a
03
f4
f5
03
fb
1a
f3
fe
0c
10
23
0c
1c
20
20
10
14
2f
2a
1a
fa
25
0e
09
15
f0
de
15
0e
0f
de
d5
fe
15
f4
f6
fa
19
39
25
0a
0c
f5
12
08
fc
05
fb
0c
2a
20
fe
f7
0f
0d
23
ea
e6
03
14
31
02
04
12
13
1c
f2
fe
0d
10
0e
e8
f3
24
0c
15
f1
0c
0e
02
23
04
0b
f5
f7
f3
17
fe
e9
dc
e7
ea
f4
fd
09
0c
f1
f7
18
17
1b
04
ef
14
0f
2a
00
05
0e
1c
04
09
17
00
ea
dd
0b
0f
0a
17
da
16
0e
21
fe
04
fd
ff
ef
0d
08
09
f0
ef
0c
fa
12
14
f0
fa
fe
ee
00
0a
00
f8
f8
03
0c
0d
2a
04
0f
fc
fb
1f
f4
00
ff
05
fa
fe
0b
09
03
02
12
06
fb
f6
f9
14
00
29
0f
05
fc
0d
0b
14
09
1d
09
0c
f2
d2
18
15
00
e7
d6
f9
fe
ec
dd
f4
00
19
04
11
17
1a
1f
16
00
18
07
00
0c
09
e9
f6
f4
05
ff
de
08
03
f2
00
14
f4
03
f7
08
15
f7
0b
f8
fc
00
fb
0f
f8
0a
00
01
18
05
e8
e1
ef
e8
f1
e7
d3
f5
e4
06
f5
ee
0c
0d
f3
ec
06
fd
fb
f4
f3
ee
f7
e4
d0
be
af
fb
f7
0c
10
09
fd
f2
10
15
fa
f9
08
06
01
05
00
00
f9
03
fa
01
05
ee
03
07
f4
07
fd
13
0c
0f
01
03
15
ff
10
09
0c
1e
0e
07
fd
fe
fb
fa
07
00
02
02
f7
2e
11
00
0b
ff
0f
f0
fd
f3
01
e6
02
01
00
12
0d
f7
05
0b
06
f6
e7
e1
f7
fb
ff
0c
f0
ed
d5
01
fb
f0
f4
e2
09
15
06
04
02
04
17
15
02
f6
f1
04
09
fd
09
1f
2d
0b
e4
d1
fc
e5
f2
de
dd
fb
fa
fc
02
01
fd
0d
fa
fb
f0
03
ff
e6
ed
ea
0f
0e
06
f4
e4
fe
0b
f6
e3
fe
13
0a
f4
f5
e3
1b
14
02
ff
00
fc
03
f9
10
f7
f6
eb
a8
cf
0d
02
fb
e8
f9
05
22
f9
f9
fd
18
f9
0d
fd
15
01
ff
fa
e6
0b
00
18
1c
f4
05
ed
fc
01
09
f9
f4
f6
f5
13
08
00
0f
fe
f3
0c
ef
f4
ee
f8
ef
e2
e8
04
02
00
e2
f7
0c
00
00
ef
04
0d
15
fa
13
f8
01
f5
fc
f0
04
00
06
04
00
e9
f8
07
0b
04
13
0d
01
ff
f6
0c
19
fe
00
f2
01
0c
e7
ee
eb
fa
f8
0b
02
f2
d4
f7
e1
f9
00
00
02
f6
07
fb
fc
0b
07
fa
e8
fd
07
17
f8
12
05
02
11
07
f8
14
0a
17
04
00
01
09
00
02
f3
02
03
00
f3
e6
fc
ee
05
05
f0
f1
e5
ec
0b
e7
e2
fd
0e
13
16
01
f7
0d
04
fb
07
19
f7
04
ec
fb
08
02
f5
19
f5
f4
f0
f2
0c
06
03
17
10
09
07
00
04
09
03
07
fa
ed
f0
ed
fc
fd
fa
f8
13
f4
f1
08
04
f1
f3
15
11
08
00
fe
00
0c
f2
fe
00
0a
0e
f6
f8
06
f4
ff
f8
ff
04
01
fd
11
f6
df
ff
e6
e9
02
ff
05
14
0f
0e
09
06
18
16
00
01
03
0b
12
03
07
0d
18
1f
04
0d
0b
ff
ee
f2
0a
16
f8
e9
f4
07
14
0c
f7
fb
ef
00
04
0c
13
fa
0c
13
04
12
1d
fe
13
f9
01
fb
fa
06
f3
09
0a
0d
12
ff
f4
06
18
0e
f9
06
fa
ff
09
04
fd
f3
ed
e6
fd
0b
f0
08
ff
2c
20
0c
06
1e
0d
1c
1d
00
03
0b
f4
fa
e6
10
02
fb
0b
00
ef
fc
0c
ff
01
f1
f2
0a
0d
02
f5
0e
12
0f
ff
02
fa
14
ff
00
06
13
02
fe
fb
e5
f0
22
f0
e4
ff
0d
15
04
fc
e8
04
2d
0e
fc
ff
06
fe
fa
fe
0e
f5
02
f9
eb
00
fc
f5
00
f7
f3
00
07
10
13
02
2f
29
06
fa
04
02
12
05
00
02
00
fc
f1
f5
3f
31
01
05
00
16
ff
06
ea
f7
f4
e9
fc
f9
e8
f7
f5
ee
fa
01
ed
eb
00
ed
f1
f3
01
00
01
0a
fa
03
43
06
02
f8
f9
f2
13
04
21
00
f2
06
fb
15
ff
04
11
f2
e0
f7
00
0c
ee
ed
e8
f2
15
fa
eb
f9
04
0c
00
04
f9
00
01
0b
17
f6
08
24
0c
d7
ed
f7
00
ee
cf
db
f6
ff
00
f1
fc
09
09
fd
02
f8
0f
01
fe
0a
16
ec
25
fe
06
01
21
17
ee
02
e6
dc
19
17
04
f6
0d
0f
09
f6
06
17
01
f5
f8
09
fd
00
ed
f6
f1
f7
ff
00
0d
00
15
11
0a
fe
14
1c
1b
0d
fe
fa
04
0b
09
04
f0
03
31
f8
db
e4
ea
1f
0d
e4
e3
f9
00
fe
10
00
12
e8
05
fc
1a
18
d7
09
03
f7
fa
03
00
f8
eb
f4
09
06
e9
f0
11
04
07
0c
12
18
ef
ef
fb
10
23
fd
f6
f5
fe
0a
14
00
f3
f0
fc
0e
00
14
08
fc
00
05
00
07
04
03
05
00
08
04
f7
02
0a
ee
f4
25
1a
12
12
fc
17
08
eb
f4
d6
19
04
f8
e4
e3
14
0c
00
f4
f4
f9
09
0f
08
07
0d
0c
07
f4
15
f6
05
06
11
01
17
00
f0
ea
fb
fe
06
02
ed
f3
19
0a
ff
ef
fd
11
1d
0d
ff
f9
16
0c
08
fd
e4
19
15
fd
ec
fb
3b
2a
0c
f0
0d
1d
f3
f8
fd
00
04
ff
fb
fd
f8
07
f8
f3
f9
f4
1b
0b
06
00
0f
08
13
07
01
0a
ea
06
19
00
20
0c
f9
0b
06
f4
ff
f3
e7
ee
05
d4
f8
ec
0d
0d
ec
f9
06
00
20
f8
00
04
14
14
f7
fd
e7
fc
f8
08
f1
fe
ec
e9
c6
dc
ee
06
f2
aa
ec
08
16
33
cd
f4
1e
19
34
f6
fd
09
f0
01
02
f3
e5
e7
0b
c9
eb
fd
03
28
de
eb
fb
1a
2d
07
02
fe
14
2c
02
07
fb
da
11
10
f1
f0
e6
e7
03
06
f7
fa
e9
a3
0f
11
fd
09
aa
fc
06
0b
ed
0a
13
0c
f4
e7
06
06
f6
f7
fc
1c
29
09
00
2c
e3
ff
eb
17
2d
07
ea
fc
19
19
ff
f9
f7
08
29
d7
04
1a
0d
08
d5
db
06
ff
1a
12
00
fe
0d
11
18
0a
de
14
03
fa
03
14
06
47
ca
01
0b
10
17
b7
c4
fe
f9
00
ee
f2
f7
0c
12
1b
0c
f6
19
11
16
00
0b
02
f4
0a
00
0c
08
18
0d
12
00
e9
e2
f8
e5
02
00
e9
01
fd
fa
00
0d
09
01
00
05
01
00
fa
09
fd
ff
1d
05
f0
08
02
f4
df
ea
10
ff
fd
fd
f1
07
21
e8
05
2b
14
05
e8
03
23
09
02
cc
e7
fe
f2
ea
df
f3
ef
fc
f8
21
1a
0b
f0
0c
0e
1c
05
03
13
19
0e
09
16
fd
21
06
fd
fd
e2
ec
f6
fe
fd
fb
ea
f8
00
15
13
fd
03
07
07
23
f6
0e
0a
0b
13
f8
fa
03
0b
09
fc
f5
e3
08
1b
17
05
ef
f8
fd
0a
0d
f1
e4
06
0a
00
fa
f5
35
28
01
fc
f0
16
30
13
ef
f3
ff
19
ff
dc
c9
f2
fd
01
00
06
02
03
f1
ee
fc
f9
fc
f9
ef
00
f2
00
fc
ff
fc
fd
0a
02
03
f0
f5
f7
f3
f2
f9
01
f5
f7
fb
fb
f1
00
ff
f1
f7
f6
f2
f5
f3
00
00
f2
ef
f2
f1
fc
f4
fd
f4
01
00
f1
fc
f8
ff
f1
fd
fe
f4
f5
04
fe
fa
fb
fd
05
f4
f8
f5
f8
08
fd
fd
06
ff
08
ee
f3
08
fb
00
ff
fd
05
f8
fd
fd
03
02
f7
04
f6
f8
fe
01
04
f9
f7
05
fe
fb
03
04
f6
02
fb
f0
fe
f7
04
f0
04
f3
fe
01
03
f5
00
fe
fc
00
00
05
fe
f7
fa
00
fb
f9
01
fb
00
fb
07
fb
0b
ff
f0
04
fc
f2
fa
f6
fa
00
06
fc
0a
f3
ff
06
02
00
f5
f5
f3
07
07
f9
02
f1
ff
f2
f7
fd
03
fd
fc
f6
06
ff
f9
ff
f0
00
f4
f9
f9
f2
f6
02
00
f3
08
02
f3
ef
fd
fb
f9
01
fe
fe
06
f6
0a
03
01
02
08
08
f5
fd
00
f7
f4
fe
f5
fa
02
fb
f5
f3
f8
00
f0
f0
03
f2
f7
05
05
01
f6
09
02
f2
ff
fa
00
f9
f2
01
02
04
fa
f1
fa
04
fb
ff
fa
fb
fb
fc
00
00
05
fd
f2
ff
01
0a
09
00
f8
f1
f7
00
fe
f6
f4
fa
fa
f9
03
f0
01
fb
f8
ee
ef
f5
00
fd
f7
00
ef
f4
f0
f6
f1
f8
f1
fd
01
00
ff
00
ff
ef
fb
00
f6
f4
0b
fe
00
ef
02
f9
00
04
fa
06
f5
fc
01
f6
f0
01
01
06
fb
04
f8
fc
f4
f9
00
fb
ee
02
02
f5
f4
02
05
f9
01
f4
fe
01
00
f7
ff
07
fc
fb
fa
f7
f0
03
02
0b
00
01
00
05
f0
f2
00
02
fa
00
fe
f3
fe
03
00
00
ff
01
f9
05
02
fe
fd
f5
f7
fc
02
ff
f4
01
fb
fd
00
08
fe
00
01
f1
f8
08
fe
f2
00
04
f4
00
fe
f4
00
02
fa
ff
03
16
0d
05
e4
f2
0c
1c
04
dc
e7
ef
04
f9
00
f4
0c
00
05
04
f7
f8
fd
08
ff
e7
fc
0b
e8
f4
03
0b
08
e6
f7
0b
11
12
0b
00
f7
11
12
11
02
f4
03
17
0e
0f
14
03
fa
e3
fa
03
17
02
f9
e9
09
15
00
18
f1
e6
f8
f1
0b
f5
02
15
0d
f9
0a
15
05
f2
bd
26
00
f6
f8
eb
f7
06
0c
0c
09
ec
ff
f4
08
00
e9
f0
fd
04
f7
46
28
fb
cc
ba
29
00
dd
d8
dd
0b
0b
f5
fc
0e
fd
15
f8
fe
e3
03
11
fd
df
e7
11
23
02
ff
cc
28
0a
f3
ef
dc
05
0c
11
ea
ed
f5
0d
fa
ea
f0
ed
0a
fd
00
fa
2f
1f
af
e5
14
1e
0f
d2
ea
fd
20
e6
e8
00
09
f1
f8
f6
f8
f7
00
13
e5
fb
03
1d
16
00
f5
c8
fd
06
0a
fe
dc
df
eb
0a
f9
0c
0a
09
fb
fc
ec
fd
06
fc
00
0a
ef
fb
04
12
0a
18
fd
e4
fa
1b
07
0b
02
e3
10
05
0a
f8
fe
ff
0b
1a
fa
f7
05
f6
ee
00
ff
fe
19
f8
05
ed
f3
14
11
09
05
f3
01
19
0d
0d
05
e9
00
f9
e8
f6
15
00
0e
1e
fa
f1
f7
fc
26
ff
f6
00
e9
fb
e6
f9
f7
07
0a
07
ec
e9
fe
ed
0b
15
12
02
0c
fa
f4
00
00
f2
fa
f6
02
fe
e4
0c
06
fe
00
02
15
11
f7
f6
fb
fd
ec
ef
12
1a
09
d2
dc
fe
14
09
d3
ee
ef
20
04
11
fb
0a
1d
0a
18
01
01
05
fa
09
fa
0b
1b
03
eb
fb
fd
00
fb
e0
eb
f2
12
0d
0c
f2
00
0a
08
08
0e
11
10
00
e5
f2
0b
00
fe
00
f8
f7
fa
fa
03
02
0f
0c
fc
00
0b
27
04
fe
05
0f
19
02
fc
fc
eb
e7
ff
e2
f8
f9
11
15
ff
f0
05
06
f0
f3
ed
f6
ff
07
15
03
fc
f9
ff
09
ff
e6
f8
05
fe
f2
fe
0c
16
f5
10
15
0b
10
0b
14
fd
f9
f1
f9
0d
03
f3
eb
07
0b
06
08
05
03
16
10
f5
0d
f7
00
01
10
0e
0b
f6
ff
04
0a
06
04
f3
05
06
f8
07
02
08
15
0c
f0
e7
08
00
09
d7
f6
00
04
f7
f5
13
0f
00
ee
07
0f
0f
05
f8
ff
09
f8
f5
0f
ec
f5
e6
f9
06
0e
00
0f
0b
f5
0a
06
07
fb
d0
0b
1c
19
f8
e6
d4
e4
f9
fd
16
be
ee
ed
07
1d
d9
ff
14
f7
f4
05
10
10
ee
e8
25
23
01
ef
f2
f3
01
0b
fd
08
e9
f4
f2
01
00
f7
0f
23
ed
e1
16
11
12
e2
d2
18
06
fd
fb
df
fd
fb
df
c8
fa
bf
ef
09
0c
12
d0
02
f2
14
22
fc
0e
f3
01
13
21
f2
fc
03
05
fb
11
09
17
f9
ed
f5
f3
ee
b9
fd
0a
00
03
e7
10
0f
fc
f5
f4
15
f9
f0
09
f4
f9
01
d8
f9
f1
06
05
ee
08
00
0c
07
1f
1f
fe
04
f4
0e
11
06
f2
f1
01
18
07
d7
df
fa
fb
f7
fd
19
0e
00
00
0e
24
ec
f7
fd
18
11
e0
08
00
0a
f4
f0
f3
fc
fb
14
f4
eb
f2
e4
fc
fb
ea
ff
ec
04
0c
fb
06
ef
11
10
20
06
fd
19
0c
fb
ee
09
0a
14
0c
08
00
00
f5
ff
ec
00
02
f4
f1
dc
02
f0
e6
eb
e7
01
05
0a
0c
ed
c2
e0
fd
13
14
f6
f9
13
0c
ff
16
17
00
f2
fe
12
07
d7
ee
e5
08
08
ef
e1
fd
f6
fd
0f
08
11
ec
fa
0a
06
0b
e5
f5
fa
f9
f5
fc
0c
00
e8
d7
0c
23
05
cf
d0
fd
0c
fd
06
f9
10
15
10
00
13
10
13
0b
f9
fc
0d
11
df
ee
04
fa
ef
f4
22
05
f6
f2
eb
ef
d0
0c
06
01
ed
e1
04
fe
0d
0b
1f
01
03
f7
15
08
ff
fd
05
0d
ff
ee
f9
e7
fe
ff
0b
fa
ee
fb
ed
f4
f3
fe
fa
ed
f1
f8
e9
fb
f9
f1
f0
ef
03
f1
f4
e9
f5
fd
f6
f9
ed
f9
f0
f6
ec
ee
00
f4
00
00
f1
f0
ff
eb
00
fb
02
00
fd
ef
ff
fa
f6
f9
ff
fe
fa
04
f3
fe
fe
fa
e9
f8
e6
f8
ff
f4
f4
fe
f7
fc
ed
ec
f9
fc
04
f0
f7
f8
04
ee
f8
fc
f8
f0
f6
ff
f4
fb
ee
f3
00
f0
e9
ed
f8
ee
f5
f3
05
f7
fc
f1
ff
f7
f3
f5
fb
00
00
0e
ec
f2
ee
ea
e5
ee
fe
eb
ee
f2
f6
fc
f4
02
f7
fe
e8
ee
00
f4
f3
f9
f8
ec
f1
f8
f4
fa
e0
f2
e8
03
e9
f2
f6
f2
f2
fb
0c
01
f6
f9
04
00
00
00
05
fc
03
f3
f4
fe
f5
f8
e7
fa
fe
00
fd
02
05
fd
fc
ec
f5
00
fa
f7
f5
01
f3
03
fc
ee
06
fc
f1
e8
f6
fd
fe
f0
00
f1
ec
ee
f5
fd
06
fa
f4
09
f0
05
05
03
fa
fd
ef
f3
f9
08
f3
f9
0d
ee
f2
ec
f3
0a
fd
f5
ed
ed
f2
f7
08
f8
f2
00
fe
fa
f8
eb
05
f4
08
fa
f7
04
f5
02
ef
f6
ff
f4
f7
f4
fe
07
f9
10
ed
f6
fb
f3
ea
04
fa
09
02
f2
fe
00
00
fc
eb
f0
f9
f4
ee
f4
f1
f2
01
f6
00
f3
f2
0a
00
f4
f1
ee
02
03
f8
f5
e9
ee
06
ee
00
03
f9
f7
fa
f3
f0
ee
f8
f1
f8
f3
ea
f0
f0
00
ff
f2
e8
f0
f1
ec
ed
fb
f9
ef
ff
f9
f3
ee
f2
e7
f3
fc
fa
fe
00
fc
f6
fc
ff
04
fb
eb
ec
f4
f2
ed
e7
e9
f8
eb
ef
ec
fd
e6
ef
ee
00
00
fd
fb
f5
00
fe
f1
f3
00
f9
03
f2
e9
01
02
ff
f1
00
00
fa
f2
e9
eb
07
0a
09
f2
f5
0a
fb
ec
ed
fa
03
06
ef
f5
fc
f6
fb
00
f4
fa
f6
f0
03
f9
fd
05
17
0a
d6
e7
0f
21
1d
f8
f5
00
10
0f
0a
f9
fc
fa
fb
20
03
0d
04
f4
f1
f3
06
03
fd
05
10
00
01
00
ed
ef
0b
07
f9
ed
e7
f2
06
00
04
f8
14
17
10
09
14
0c
00
f2
f8
06
ff
e5
e3
e1
f9
05
ef
e7
e6
ef
f7
ef
f2
06
25
25
14
02
00
0d
1b
0a
dd
03
f4
00
ed
e7
eb
03
00
f9
f4
e8
fe
e9
f2
f0
fd
fe
02
02
e8
1f
13
0a
06
c5
0d
04
ee
e8
e2
fb
0d
00
07
e8
f4
11
07
f1
fd
0d
fb
f2
e4
e8
f1
09
11
0d
ed
f6
07
f5
f3
d4
ef
fd
11
ef
c9
03
12
f4
c0
e1
fd
11
07
f6
f2
2b
2b
d7
bd
10
13
05
e6
fc
01
fe
f6
f4
08
0b
e4
fd
fd
07
09
18
ff
db
09
02
0b
0b
14
fe
ce
f4
05
00
f7
d1
e8
ea
05
07
0e
f9
04
ea
0f
16
00
11
f5
12
1c
f2
06
fc
20
18
0c
f4
06
07
12
05
17
0a
02
f8
ff
1b
01
02
16
0f
06
ff
fe
0e
ea
f1
11
0f
0b
fd
fe
19
0b
f5
fd
0a
14
17
12
09
fc
ff
f6
06
05
07
10
f4
f6
02
21
12
16
1b
f3
10
ec
15
14
f4
00
fd
fb
f8
cb
d2
18
1e
f9
01
e6
04
f1
ee
01
00
1b
15
04
fb
00
00
f0
e6
fd
01
fb
e9
f3
01
00
f4
fd
e7
1f
12
08
0f
17
d3
d7
f8
2e
13
cc
d2
e6
0d
08
00
f4
ed
f8
07
26
05
fd
eb
db
20
12
12
fa
d7
02
ed
00
22
0f
ec
eb
00
ff
fa
ee
e1
e7
fd
ec
14
fd
fd
ff
de
0a
1a
1c
06
d1
ee
fc
17
05
05
f3
f8
0e
fd
fc
0c
05
00
f6
fd
02
11
02
f9
ff
19
19
ff
01
03
f5
e3
f6
0a
1c
03
04
17
24
19
f8
04
fa
02
18
ef
fd
08
1b
22
11
ff
10
00
ed
fe
02
03
04
01
fd
ef
02
05
05
e6
fd
17
11
fd
f6
eb
0c
08
07
fb
00
f1
ed
f0
fc
d9
e0
09
0a
fd
fc
f3
19
0a
df
0a
0d
1a
1e
dd
f7
04
17
f8
fd
0b
1b
07
05
0f
04
fc
ff
08
09
07
02
19
1a
e1
fd
0e
0b
02
ea
ee
fe
15
f6
1b
0e
0e
fc
b3
02
01
ef
ea
c8
11
f2
f8
ea
f5
fd
11
10
18
0d
0a
0c
04
15
f0
ea
fe
06
09
fb
2f
0e
f8
e1
c0
15
02
f7
f2
fb
ff
0e
07
f6
2b
1e
15
10
02
e6
09
fc
ec
e0
ed
16
14
09
fb
de
fb
f4
f2
f0
f2
fe
0f
26
0b
de
1c
22
0c
05
eb
ff
e9
fd
e9
d2
ff
04
c3
dc
fd
f1
03
e7
dc
ea
f7
f9
fa
ef
14
21
f3
fd
01
11
30
fe
f0
f7
0c
13
0e
ff
f2
04
f3
05
0e
00
e2
d9
e9
fc
03
e3
00
1b
ee
03
ef
fa
10
f8
fa
f9
05
02
ea
f7
ed
fe
0d
ef
f1
fc
1d
32
0b
fc
f7
09
00
f8
ff
ed
e9
f0
ef
e9
f9
05
fc
03
09
e5
0d
0c
03
04
ed
24
3e
0f
09
04
0b
1d
00
f5
04
e2
e2
dd
ea
e5
e6
f4
f2
f2
dc
ef
df
e6
e8
f5
01
f7
fa
f7
04
ec
f5
21
0f
03
d6
fd
1d
05
fa
06
0f
04
0a
ff
f6
00
f1
f6
f9
f2
fe
09
fe
f1
04
09
ff
01
f3
13
06
fc
01
d7
03
f8
01
12
0f
d0
d8
f5
f7
09
ff
f7
03
05
0c
17
03
17
0b
10
0d
fc
d7
e0
db
fb
00
00
1c
01
e5
f5
0b
00
01
d2
e0
ff
fd
ff
0b
fe
09
0a
ed
24
0f
19
ed
ce
08
0b
0e
f9
f3
00
ef
f0
00
fa
f9
0e
0f
04
f8
f8
1a
0b
f2
e9
f7
ff
f4
fa
fb
e8
f8
03
f3
06
fa
10
0c
02
02
e1
03
f8
f8
f7
d7
0a
f6
05
15
f2
ff
0c
02
00
08
0d
0d
fb
04
f1
10
00
11
01
e7
fd
07
02
05
01
19
07
00
08
0e
ff
13
01
09
1a
fd
01
fd
fc
00
01
1b
f0
15
f4
12
0c
ff
0b
f8
07
04
12
05
fb
05
1b
06
04
f1
ee
e3
ee
02
f3
1a
11
07
08
20
fb
d5
01
06
e0
00
09
03
00
e8
03
01
e9
f9
0a
f4
de
e1
fa
0b
fb
f2
f5
e5
ff
fd
04
e9
f0
f6
dd
f9
01
10
ff
02
05
1b
1e
18
02
eb
00
12
08
e5
e3
e5
e8
01
03
f7
12
ed
f2
e6
ea
e3
06
e6
f5
22
2b
0d
07
e8
c3
d4
e5
fe
f7
01
e7
cb
02
07
f0
ed
fc
e5
e8
f4
04
1e
03
09
02
19
18
18
2d
35
1a
11
2e
07
ef
ee
f9
f6
19
06
ec
e3
04
06
ee
e3
ff
f4
12
0b
10
15
f6
d7
fd
f0
0f
f9
0d
17
18
15
ef
fb
fb
02
0b
c5
e7
f5
03
1d
f0
fb
e5
07
0e
f3
f4
08
00
1a
f3
f3
01
01
fd
f9
0c
02
03
fd
12
1d
fe
f8
e9
08
08
ea
02
f3
fe
0b
16
ef
ea
df
fb
05
f9
e8
e9
ee
fa
f5
0b
e7
00
0c
0d
fe
02
04
fd
19
fa
32
17
23
0e
e2
0a
23
00
f3
0e
00
fe
f0
ff
fc
e3
d7
02
f4
db
fa
11
05
05
10
f0
f7
09
eb
ed
0e
19
12
0b
15
0e
f5
05
0d
0a
f4
fe
f3
0e
0a
f8
05
00
e7
fa
0b
2f
20
01
df
e3
04
27
25
10
eb
ec
fc
08
00
f7
f4
0f
ff
e7
fe
fa
e2
ec
09
13
0e
00
f0
f8
1a
10
f8
16
12
02
ec
00
f8
f6
ef
f2
f8
07
f9
e5
f2
dd
e6
fd
f0
03
ee
04
ff
f7
f4
f8
14
06
e0
00
07
f1
ff
ff
05
ea
13
f7
fd
08
f3
09
f3
fd
11
15
0e
07
e5
18
0b
01
f3
f9
0e
ee
1d
f7
00
1a
f6
03
f4
0f
06
e4
e2
df
03
09
08
fa
0f
e9
f2
f4
00
05
fd
fa
00
0b
fe
f7
ef
11
04
0c
00
01
f3
f1
0c
eb
e8
f4
01
0b
e4
fa
f6
10
15
e9
0f
0e
0d
f6
00
fe
0a
05
f1
fd
07
0a
0a
0c
0b
fc
f8
10
16
f4
0c
fb
28
05
fe
08
10
f4
f8
0e
fd
ea
f2
f1
07
fa
1d
0f
e7
1c
0d
00
07
00
11
fc
fe
06
2d
0a
fa
05
13
31
fb
f1
f0
ff
c3
f7
f8
fb
f4
d7
1a
1a
16
06
ff
0c
fa
02
fb
01
18
05
00
0a
48
01
0f
fa
0f
de
0d
0b
ff
d9
bb
16
14
25
18
0e
06
0a
fd
14
20
16
05
0b
15
03
0f
17
0d
02
da
02
00
f6
f2
d7
ff
00
eb
c3
f5
04
eb
f0
da
fa
19
f5
f2
f7
27
1e
dc
fc
05
0f
07
09
d8
e9
f0
0b
03
0c
ff
01
f8
12
05
00
f9
ed
02
fd
eb
e6
13
26
f3
e2
b4
0b
ff
e4
f4
10
fa
24
10
f0
ee
12
23
f9
e1
05
16
16
fa
0b
03
fb
f0
e4
02
15
08
e0
cd
db
f6
03
09
f6
ee
e2
07
1e
00
fe
00
2c
34
0b
12
10
1c
03
08
08
10
05
fe
dc
e6
d6
ec
dc
ee
15
1c
eb
e7
f2
f4
f3
ef
ec
0a
03
0c
0c
ea
10
0c
16
f3
e7
df
e3
00
10
07
f8
0d
0b
fe
f9
ff
08
f1
12
09
eb
f3
fe
1b
12
ee
e7
00
0a
06
f3
ef
03
00
07
e9
fa
0d
ef
e3
00
ec
00
24
20
15
16
22
03
f7
24
26
1d
1c
fe
eb
dc
e9
ea
04
f6
0e
09
e1
eb
14
0d
fe
fc
08
ff
00
0b
29
05
1b
1d
15
10
fe
1a
06
f0
ff
fc
ef
04
03
fe
0f
fb
f4
d7
20
09
11
f7
eb
03
16
28
f9
fb
14
12
ea
e3
eb
f4
f0
ea
e6
16
fa
01
f2
01
f1
f3
0d
f7
eb
c3
f2
13
f0
f7
06
f7
f5
f5
fe
2b
f7
08
14
0c
f3
ff
08
fa
fe
ee
f8
f9
00
f6
f6
e8
f8
fd
03
f0
fd
08
0e
10
f1
e3
11
1d
13
ec
ec
08
fd
06
00
fd
05
f6
07
f1
f4
18
11
f7
e5
05
16
0a
e6
0d
fd
06
12
02
fa
0c
02
fc
db
e9
08
11
04
ec
ee
1b
07
fc
04
2b
1e
06
f1
1f
4b
da
fc
11
16
02
f7
fd
14
f2
e2
04
00
ee
ea
ed
f4
00
ff
01
08
07
08
0a
15
31
f6
0d
f8
0a
00
fe
14
f3
dd
d0
35
0e
e5
07
d8
17
01
ee
2a
21
01
fc
09
25
27
f6
ff
00
19
10
0b
1a
00
fe
eb
0a
f3
cc
ea
17
f5
fc
f2
f0
13
fb
01
0b
12
48
07
07
0a
35
13
10
12
03
2f
1a
28
f7
ef
1c
fd
36
fb
1d
20
e8
15
08
29
1e
e1
f9
17
09
0c
f7
04
12
14
00
15
fa
f8
08
f1
11
1e
07
00
02
24
00
07
12
fa
22
03
0b
0b
06
f1
03
f6
f5
fc
e1
01
ec
fb
df
f3
e3
fb
07
07
06
f0
11
1b
0d
f9
fc
04
04
07
e4
00
e3
ec
e8
f4
f7
d3
f8
eb
f8
e8
e5
00
ec
f1
f5
00
0e
03
15
10
fc
0b
19
01
09
0f
23
1b
f9
e8
0f
fe
07
f1
fa
0c
ff
d2
f8
00
0e
03
00
0c
00
04
03
05
ef
fd
fc
fd
f1
fd
fc
06
fa
f0
f0
09
10
11
ff
0c
1f
0e
1d
1c
39
dc
ff
1c
0c
f2
e9
c9
ee
07
e2
e2
db
c0
db
ce
dd
f0
d9
e4
f3
db
00
14
17
12
f5
08
07
fb
fb
f4
fe
e5
f6
e3
f0
01
e3
ce
f4
0d
f8
d1
e3
09
05
08
e7
08
26
f5
04
ff
00
ee
ef
f8
f7
f6
f3
fd
fc
f7
fa
03
ef
ec
00
03
fc
fd
f8
10
00
00
00
05
01
07
f8
09
05
14
18
ee
f8
03
18
09
ca
fd
f4
0e
e2
d0
00
17
04
e6
f4
15
09
0a
f7
05
fd
18
f6
f3
01
f3
10
0f
11
0d
01
fc
fb
0c
04
e9
f3
fd
f9
02
d7
eb
ee
fe
08
e1
01
fc
fc
20
e9
01
fe
07
02
f6
f6
f2
0c
e0
03
0b
1f
04
f4
e6
e6
f4
fd
1a
fc
08
07
07
03
16
0b
07
ee
00
f9
ec
06
ff
f6
19
fc
f7
e6
d2
03
f7
f6
16
0b
0c
f4
10
03
0a
fb
0a
16
15
13
f3
f5
01
04
00
f1
ff
fb
f3
00
2c
23
1c
01
00
35
1b
00
fe
1a
16
26
22
07
28
25
1b
07
09
11
16
08
fe
f2
fb
10
07
11
15
04
04
0a
16
04
13
1e
15
06
19
0c
25
0e
05
15
03
fe
e7
f9
f3
f0
f9
ef
e3
06
ff
2b
0b
02
ec
10
14
f4
21
eb
0a
40
fe
12
04
f0
3f
13
f5
05
03
e2
e3
ff
01
2b
f7
19
0d
0b
28
ee
12
00
f8
d7
1d
09
00
e8
e4
03
fc
ff
fe
08
1c
29
11
f4
f0
09
f6
0a
f1
ec
0b
16
11
f2
f8
14
fc
f7
00
07
02
db
e4
f7
f2
2e
20
fa
f0
e1
12
0e
fb
fc
d8
13
12
0f
06
00
06
fa
0c
01
f8
f2
e8
d8
02
12
dd
0f
01
19
f9
f6
07
fa
f9
e5
f3
ec
fd
1c
fe
f8
18
15
00
06
fa
0d
13
07
fb
f1
ee
fe
0b
0c
02
00
ef
f6
ec
11
0c
02
0b
f9
1a
00
0e
fd
01
0e
10
04
ff
ed
1b
1a
ef
eb
f0
06
ef
d6
ea
ea
ff
fc
fd
04
1a
1b
0d
0e
0d
0b
fa
f8
ea
f3
f8
04
00
fa
f5
f2
01
f2
f3
f4
f6
ea
ee
f9
01
09
22
1f
0a
09
02
1a
1c
06
00
0a
02
fe
01
e4
ec
ff
02
ff
03
d0
f9
09
0f
11
f2
fd
06
00
fe
f9
03
fd
e6
fa
02
f0
0f
0d
11
01
f8
15
ec
12
e3
fc
05
fc
12
db
ef
e9
06
20
f6
ff
f6
ff
1c
12
f7
fe
fa
02
f9
ff
fe
f4
f2
f7
01
f3
ff
fd
00
0b
01
f3
04
06
f7
06
00
04
f9
03
fc
f6
03
01
f4
f5
f8
fd
0a
00
01
fe
f1
00
0a
fd
fe
fc
f6
08
f5
f6
07
00
fa
eb
eb
02
fd
f9
fb
f7
04
f4
fa
f4
fa
fb
f8
00
f7
09
07
fe
02
fa
06
01
04
03
f7
f1
fa
f9
00
03
07
ff
f2
f1
fa
ff
09
f2
f6
04
fa
fe
fa
00
fb
0b
01
0d
f3
00
f8
f0
fe
fc
fa
00
f0
fc
fb
fc
f9
fa
fd
fe
f6
00
06
f9
07
0c
06
00
fa
fc
e9
ef
f0
ec
01
f1
f3
fe
f8
ee
f4
f2
f1
fb
0c
04
f0
04
01
f5
ff
08
07
07
eb
f9
07
ff
00
03
f9
00
07
f9
f9
05
ff
fe
ef
f3
0a
fa
0b
fe
02
fb
02
f9
05
f9
f2
f4
ff
f3
01
04
f6
02
f9
ff
f2
f5
05
0f
02
fe
05
09
00
f5
04
05
0d
ef
0a
07
00
0b
f8
fb
fd
0e
10
f0
03
fd
02
f7
fb
f8
f7
f1
03
05
02
0b
09
09
f4
fe
f8
f4
fc
f2
f7
f0
fd
f9
f8
00
f0
ee
07
01
f6
06
05
ff
f5
f9
0d
fa
f6
f4
f0
e8
ee
f2
08
f3
06
f8
ea
f4
fd
02
f6
fb
f3
fc
f7
fa
06
fa
02
fc
03
f2
fd
f8
f6
f6
ee
fe
f4
fd
fc
01
f7
04
00
ef
01
f6
f3
00
09
00
f0
03
f4
f7
04
ff
04
fc
ff
01
f4
04
06
03
fa
fe
02
00
f3
fb
f6
f5
00
f7
00
fb
ee
04
0a
08
fa
05
f7
02
01
06
00
f2
ff
f7
f5
00
04
00
f3
09
f8
09
0a
f3
02
ef
fa
f7
f8
f6
04
fe
04
f2
03
f8
f2
f8
fa
02
fe
ee
f2
f9
02
fd
f9
fa
f2
0c
04
fa
00
f4
fd
fa
01
09
f6
0e
05
ff
f9
f5
fd
02
f7
fd
f6
f7
00
03
02
fb
00
f3
f5
01
08
f9
1f
17
0c
0f
f6
25
10
09
fb
01
f9
f7
0c
16
fe
f1
05
01
0d
0c
eb
fb
14
13
06
f2
07
0f
1d
15
f8
fb
00
00
1c
02
10
f6
f8
15
f1
0c
fd
fd
f9
f8
06
03
fd
fd
00
f6
00
fc
09
08
00
fe
0e
14
1f
06
ea
03
14
1d
0a
f8
14
06
04
f2
e0
e4
c8
00
fa
0a
00
ea
08
14
20
fd
f2
00
f8
f6
e9
07
0e
fa
03
01
2d
e9
01
fc
ef
0c
00
1f
2b
1b
de
12
1a
f9
ea
ec
08
e8
e4
fc
0d
17
e3
e6
00
1c
cf
d5
ee
fa
11
f9
fd
ec
00
fb
08
0b
09
01
00
0f
e1
de
00
0d
f6
e6
f5
0e
24
e3
f4
f7
15
1d
e4
04
47
69
05
23
10
0b
10
0c
1a
17
23
ee
f0
1a
f1
0a
01
e9
e1
eb
fe
11
0a
02
ec
00
07
23
ed
00
1d
38
62
00
fd
06
fe
f4
00
ee
0d
01
07
f7
12
14
ff
d2
05
06
07
fe
02
fc
ff
15
e6
f5
13
14
0f
fb
08
ff
fc
08
f5
e5
f6
1d
19
12
dd
15
0f
0b
f7
f7
04
e0
00
f6
f7
ff
f3
fd
00
02
ed
00
03
e0
e3
d3
f5
0a
09
f5
04
fd
1f
0f
ee
2c
23
20
1e
05
1e
00
fa
07
ff
0f
ff
00
db
15
f7
00
05
1e
ff
0a
0e
fa
04
02
fd
09
20
0f
1b
fd
f9
14
f5
f1
f5
1d
14
13
05
01
fa
04
ef
eb
46
1d
ff
f0
e7
19
24
f8
09
ef
fc
eb
f4
f5
fd
e0
f7
ff
02
01
d1
e4
fd
0f
09
29
14
03
fe
f5
32
21
f0
f5
00
fc
0b
f4
f8
08
f5
f9
e5
03
19
fb
dd
d9
ee
0a
18
ff
0e
f9
fe
00
fd
f8
11
0c
f9
08
fc
26
fe
f9
e1
01
23
f5
e1
00
0b
fa
ed
0d
1a
2e
34
32
06
14
1e
12
06
14
13
09
0f
00
01
11
05
03
0f
fd
0c
0e
16
d9
f9
ff
17
12
1c
eb
05
04
09
00
f4
fc
ea
07
f6
fc
00
06
01
04
12
13
0c
27
10
04
0f
21
fc
f8
09
1d
06
f7
fe
fc
f8
06
00
00
fc
f4
01
ff
02
f9
f4
04
19
30
10
0b
0f
f6
ea
14
06
e3
f5
08
e6
03
05
07
fb
e8
eb
d8
e3
12
f1
0b
2e
34
2c
0a
00
13
1b
02
f6
ef
06
fe
05
f0
fc
eb
0b
1c
01
f5
e7
ed
d8
ed
d5
da
06
ee
0a
ee
eb
f8
e3
11
19
02
fb
f0
0c
f4
fd
01
fa
f6
00
fa
f6
e9
dc
e3
d3
d5
cd
ff
0d
fa
15
fa
fe
ff
fa
ee
e4
05
f5
ee
fd
00
f0
08
ed
d7
dc
de
f3
ea
eb
03
35
16
d7
04
1a
0c
03
f3
fc
ff
f6
ed
07
ed
00
00
fc
fc
00
02
00
09
fa
d8
ed
16
0d
0a
f2
da
11
12
eb
fd
06
e9
d6
f5
f5
00
f6
ec
e5
f2
f4
fe
20
16
05
2e
00
00
14
0c
26
fe
04
07
05
08
12
14
00
04
fe
f7
20
02
f5
00
08
0d
ea
02
21
ef
f9
1d
11
18
eb
ea
1d
0c
f6
fb
f5
16
0d
1e
f3
fb
1b
0c
13
fe
06
07
02
1b
0b
1a
0c
fe
16
05
fd
0f
20
19
f4
f0
f7
01
fa
f9
fc
f1
fd
0d
fc
e0
e2
f0
13
02
0d
00
01
fc
00
fd
e2
ee
fe
fb
00
f9
00
13
04
fe
f4
f2
f5
1b
1e
08
0a
1d
e3
f1
18
08
fe
ba
d3
fa
09
fa
e4
f1
13
0d
12
f0
06
1c
1e
14
1b
06
28
26
12
16
0a
08
09
ff
eb
f0
eb
09
00
d9
ed
fc
06
07
ee
ff
02
1e
0f
03
0a
1e
1e
15
ee
f7
00
ff
02
e6
f3
00
fd
fe
10
f8
f4
13
16
12
06
21
00
24
13
2f
1c
06
27
13
12
05
02
08
18
0d
01
0d
0b
04
0b
eb
fe
ee
ef
09
01
04
10
fe
11
17
18
15
fc
06
fa
f9
f7
05
f1
04
f8
f6
f6
fe
fa
fb
00
05
00
02
00
fa
f4
fa
00
f3
00
04
06
f1
fc
03
06
fd
f8
f2
fe
f4
f9
fa
fe
06
f7
f2
04
f2
03
f2
f9
02
f7
fe
fb
07
02
f6
01
06
00
f5
fe
f7
07
09
f2
04
04
00
03
00
f6
02
f9
f5
03
01
fd
fb
f5
06
fc
03
01
f6
fe
fa
00
ff
fa
02
06
06
f7
00
fc
05
fa
f4
04
06
05
f3
07
08
00
ff
fb
04
fd
fb
03
03
f6
f8
f9
05
fa
f9
01
f6
f8
00
01
06
00
08
f3
ff
fe
f2
06
f2
f8
05
f9
02
07
f8
07
fd
04
00
ff
06
f8
07
fc
03
fa
00
02
02
00
00
f9
07
05
f5
04
f4
04
01
f3
00
06
03
f8
fe
f5
f4
ff
04
f6
f6
01
04
f3
f7
00
05
07
fa
01
06
f5
fe
f9
02
fb
fb
fd
06
08
04
05
00
03
f2
06
fb
ff
f2
f5
f8
f3
00
01
f7
07
f8
fe
02
fe
f8
f2
00
ff
f8
fe
01
f4
07
fc
f3
f5
00
f8
fb
fa
08
fc
f6
f8
04
f3
05
fb
05
fa
04
00
f3
f6
04
00
fb
f2
05
f4
fa
ff
fa
f9
fb
00
f7
fb
fe
fa
f4
f6
fb
f2
f1
f6
ff
04
f2
f5
fb
09
06
f1
f6
06
f7
04
fc
04
05
f6
05
f6
f4
03
fd
f7
f5
06
ff
f2
03
ff
02
03
01
fb
f5
f9
03
fd
fc
f2
f8
f8
f3
fe
05
01
fd
ff
f6
f7
f2
fd
06
04
f3
f2
f7
f7
00
fb
f5
07
07
f7
01
f5
09
08
f6
f5
fd
f7
05
f8
ff
05
f5
fb
f7
05
f6
fb
01
07
fd
00
01
06
fd
f2
00
fb
fe
fb
f5
f8
f3
06
02
00
f7
08
00
f4
01
fd
f2
03
fa
01
00
f8
f3
fb
fb
f5
f9
fd
f6
f5
06
06
05
05
08
f4
00
06
f6
f3
f8
fc
f8
f7
01
02
fc
0b
f8
0b
09
0b
f9
00
03
0b
ed
04
f8
cd
05
fd
f3
f0
e6
f4
0d
fa
f3
eb
e2
e7
ee
f5
fc
fb
f5
ea
07
09
0c
00
00
f0
01
10
27
18
fa
fb
f0
14
00
ff
f2
f4
02
00
12
00
08
fb
08
f8
14
0f
f4
18
09
ee
05
1a
00
f9
e2
e2
01
fe
0b
07
08
00
11
da
00
03
0d
fc
f0
13
f9
04
05
11
fa
f3
fc
20
1f
eb
fc
0a
0f
ef
ed
f8
f4
0b
f9
26
08
f3
ef
fd
2b
02
fd
fa
0b
07
fb
eb
10
36
15
21
11
0f
f9
12
26
1f
f5
e0
09
0b
01
f5
e2
11
02
08
fb
04
04
05
fd
03
06
fd
22
05
12
f9
e7
06
04
f8
ec
10
fc
ef
12
f1
18
0a
f7
16
e1
0a
02
01
00
f7
25
19
10
0b
ed
2e
13
25
04
f2
19
08
00
00
11
00
ed
ea
08
10
e6
ed
07
f9
04
fd
f3
ec
f3
05
0a
1f
09
03
10
f1
f0
09
f7
0c
09
e4
db
ff
15
16
16
ff
00
0d
0b
1d
f4
f6
12
ce
ec
e6
ec
06
16
04
18
08
00
0d
fa
f8
fa
00
00
0f
10
16
1c
01
15
22
00
10
c8
da
f8
e6
ed
0a
07
0b
ee
ca
16
04
02
23
00
1f
e6
ea
17
f4
f2
ea
04
f5
f9
e4
f8
11
04
f4
05
f9
0a
0f
09
07
fc
e5
f7
12
f6
08
ef
09
26
f3
fb
f1
f6
26
17
0a
fe
02
fb
0f
23
17
02
f1
cf
db
fb
fd
0f
a8
de
0a
06
11
ed
e1
18
0c
0e
02
e2
f0
04
f6
0f
15
08
05
f7
ef
ec
fc
03
f6
be
da
03
01
00
e7
d1
dc
1e
0d
1d
13
0d
07
00
10
00
03
01
02
02
e6
f1
ff
e8
f2
f2
f9
05
11
f5
10
2c
f8
00
df
fd
07
f6
fb
0e
fd
ec
e6
f5
22
0e
00
00
e0
05
05
01
f1
f3
d3
f9
f8
ec
12
c6
f3
f7
fa
0e
0c
04
f7
fb
e5
07
04
f7
17
00
f4
f7
04
0f
0f
05
f6
05
04
01
d9
e3
ed
00
f1
f0
f4
ff
0c
f6
ff
03
04
05
03
07
12
09
fb
01
00
f9
07
fc
08
09
0f
06
f5
f9
06
0a
10
15
10
fb
02
15
ff
08
f8
07
00
fa
f2
04
04
02
0f
f1
ff
e2
b1
b1
b5
db
f5
10
fe
f1
fe
09
1b
0f
0d
e9
fb
05
06
f8
f8
00
02
0b
f3
e7
01
f3
e5
ec
2c
3d
36
3f
27
12
14
0e
ff
28
fa
00
07
05
19
09
f3
e3
07
eb
04
f9
de
f3
f8
ee
0c
0a
1e
02
fe
1f
13
21
0c
f9
ee
02
10
fc
13
fa
ec
e7
ef
c7
cc
ee
ef
e7
01
07
0a
12
e7
22
0e
0b
10
05
1f
1b
16
18
fd
f9
08
0d
19
f8
18
f5
f1
1d
0e
02
09
11
24
14
f4
00
25
17
1d
f7
02
09
f0
e0
01
fa
fc
ef
05
01
e8
ea
f1
d7
f6
d9
d7
ff
ff
ef
eb
ff
ff
0b
ff
05
07
03
0f
0f
0a
0d
16
f7
ce
01
26
1f
fb
ff
04
fa
ee
f3
07
ec
05
0c
fa
f4
ea
ee
f9
fa
06
f2
fc
ef
e3
ad
e6
0c
f3
fa
ee
d9
d5
c7
b5
0f
1c
06
10
f2
15
f2
09
0f
0c
ea
06
0e
fb
12
f8
17
27
04
f0
fa
10
0a
1f
0b
00
08
07
0f
18
05
fe
f2
e8
05
f6
05
f9
14
04
f9
e5
f4
e8
d3
1a
18
fd
07
08
fd
f9
02
fd
11
ea
dd
c0
f0
00
f5
02
dd
e7
00
af
c7
ef
ff
f0
fb
09
14
15
0d
1d
1c
0c
10
17
f6
ff
ef
07
10
e8
e8
ea
eb
04
f1
e4
d0
c4
e9
01
08
03
0c
00
f7
ed
f3
fb
f4
ea
fa
09
fe
df
0e
fa
f1
ff
03
c7
d7
00
fb
00
d3
dd
ec
d6
cd
08
0f
13
fb
e2
04
02
14
0b
02
ff
f1
0d
18
07
f6
15
28
20
f8
10
fd
fe
06
0d
04
fe
07
03
10
f0
ff
fc
f6
0a
00
f0
fa
f5
e7
ff
fd
e2
f4
ea
f5
ec
ed
0c
01
e5
eb
05
02
17
f3
fa
15
0d
0f
fb
f6
ff
07
02
f0
00
10
08
f9
ec
f3
00
14
1b
fe
0c
19
06
f2
12
00
f8
05
0d
fa
f4
0a
0d
f3
06
f5
d6
d6
b9
f9
f1
20
0e
fc
f8
00
04
19
1c
f9
01
f9
08
03
05
16
0f
19
1f
f8
ff
fa
ec
06
1c
21
37
17
e6
16
02
0f
09
18
fc
e9
f6
19
0d
08
01
07
00
fd
f2
f0
f8
0d
15
09
14
0a
12
07
00
fa
08
21
15
17
06
06
05
02
09
0d
0f
14
0c
e9
ef
f6
06
ef
ee
0f
ff
19
e7
2f
12
f5
08
ef
11
0e
fc
06
e5
02
02
02
f7
fa
02
dd
fc
1e
14
e6
f1
02
05
28
ea
fb
18
10
28
fa
0a
0e
02
15
f3
f8
fa
08
21
ef
ff
ee
ff
e2
fd
00
fc
02
0d
ff
eb
f1
00
17
05
f9
eb
e9
01
f7
f8
f1
f5
eb
ef
03
0c
f8
ec
02
18
0a
13
11
f4
f3
ff
06
11
02
0c
e5
f1
ee
f3
0d
f4
ee
db
d7
df
f4
e8
eb
06
f4
e7
f9
d6
00
f3
04
21
06
f2
e7
f2
f5
0c
e5
0f
0b
f5
13
00
09
28
11
f5
eb
f4
12
16
0a
f9
00
08
01
11
03
fb
1d
ff
16
e7
f0
01
ff
11
08
f9
f3
eb
db
13
0e
04
0d
21
1b
fe
e2
e6
ff
e7
ee
e0
f7
ec
fe
eb
d8
e4
ea
f4
ef
e9
df
db
f9
f2
ff
03
04
13
04
fe
04
fb
f9
0d
14
fc
07
fa
fc
e8
f3
ff
0b
01
f0
d4
ce
11
00
0e
09
02
07
e9
f8
fa
f8
f5
f4
fb
fd
ec
f2
eb
e7
e8
e4
e2
f0
fc
e5
f5
e4
f2
f1
fc
23
f7
00
04
08
25
f4
ee
0b
02
1d
f5
04
fd
04
15
f7
17
08
ec
dd
00
06
12
0d
0c
ee
ef
0e
0b
12
fb
f0
07
09
00
ef
ef
02
08
f8
03
f8
f2
fc
01
05
07
fe
f1
e4
09
06
04
f9
fc
f3
fd
13
00
14
0f
04
00
12
0b
14
10
fc
0c
f1
08
fb
00
02
fe
06
09
00
fd
09
fd
20
21
11
fc
00
09
0f
01
f5
02
08
01
ed
08
00
11
1d
12
d2
12
08
03
13
f3
f6
fe
f3
04
f8
f9
fb
07
fe
1a
fb
ff
05
fc
02
2a
2e
16
26
02
13
fb
03
07
e7
0e
ff
0e
13
e8
ed
04
02
f3
0e
f7
03
0a
0d
0f
f6
06
0d
0a
ed
10
21
05
0d
f4
fb
fd
02
e4
fa
f1
fd
09
fc
15
03
fd
08
fe
01
0c
22
f1
cf
00
25
0f
f7
fe
ee
31
01
fb
0c
f0
fc
09
f5
08
09
f6
0c
ed
09
03
fa
06
21
fd
d5
eb
02
20
ff
ee
06
16
0a
01
27
f9
06
fa
0c
1a
ff
fe
e7
d5
ea
f6
02
07
03
fd
05
03
ea
ef
09
f9
08
fb
e9
f5
0a
fb
f8
02
00
fe
fb
05
18
04
df
08
1e
0e
06
00
0a
0a
f7
04
f2
f9
ea
f8
e3
ea
fb
0c
ff
07
eb
f1
fe
11
ff
20
fe
0c
1e
ed
11
00
f1
29
2c
f9
f4
f8
f9
fe
ff
f9
07
0b
fd
f3
00
04
10
17
f6
0b
04
05
11
f4
15
0a
13
00
01
12
10
f8
fa
0f
fe
04
03
f5
fe
f7
e8
fe
fb
f1
fe
06
19
11
f2
fe
14
0d
00
eb
fe
e9
fe
f1
ec
ed
f7
eb
fb
fe
f1
03
19
0a
fd
fc
fb
04
0b
01
0a
28
21
06
15
15
11
06
fa
06
ff
00
ee
f9
f4
fc
ee
e7
02
f4
08
00
17
02
f0
09
0a
02
fa
f7
ff
08
01
f4
05
02
fa
f8
10
06
03
00
fe
fb
ea
de
ce
e7
d0
fa
f4
05
10
12
f3
f9
10
fa
fa
f7
f6
f6
03
e5
07
ff
fd
ed
ed
f4
fe
07
f5
f6
f2
01
f8
03
f2
f6
03
00
fd
fd
00
f4
fd
00
00
f6
f5
03
f3
f4
fd
f4
f3
fb
f8
04
fd
03
fc
03
09
04
03
ff
03
05
06
04
fe
f5
07
08
f3
02
00
f6
fd
f3
f5
fc
f5
00
ed
f7
06
f6
fd
00
08
f7
f3
04
fe
02
f8
f3
01
00
fa
fb
fd
fe
fa
f6
08
0a
06
f7
07
01
07
00
02
07
fa
02
fa
f9
03
fb
f3
05
01
01
02
f3
00
04
00
f6
05
f7
00
01
f4
04
fb
01
fc
f3
fc
fa
0a
06
f4
f8
f9
f7
f8
ff
08
f8
ff
05
09
00
fe
02
00
f9
09
00
fd
f0
04
00
f9
00
05
f5
fa
fe
fe
f2
06
f0
f8
00
00
06
05
fc
00
f9
05
fb
03
fc
f5
00
f6
f7
f5
09
fd
00
f5
f9
f9
f2
09
01
00
f5
06
f4
01
ff
06
08
f1
f4
f3
fc
03
ff
06
f8
00
fd
f3
fe
ff
08
fa
01
fb
05
08
f7
04
f1
09
07
ff
0a
f8
f8
fc
01
f4
00
04
03
fa
00
f6
fb
f7
fd
f8
f7
02
00
ff
f8
fb
f6
f4
02
fe
07
fa
09
fe
fe
02
06
0b
05
07
f1
f8
05
f3
08
07
f6
f9
01
fd
07
08
fb
fb
01
f9
f9
f6
fe
00
ff
03
fe
f5
00
f8
0b
fb
f2
fb
03
f9
f9
f6
ff
05
01
f7
02
ff
01
f4
f5
05
09
f9
fb
08
fe
01
09
03
05
06
fd
f4
ff
fc
01
05
01
f2
fd
f3
f4
fc
fe
f3
f7
fc
f3
fa
fe
02
00
04
f9
f8
01
f4
00
03
05
03
00
f2
fb
f8
ff
03
f1
f6
fc
fa
f6
06
ff
fe
fa
f5
06
f4
f9
fc
f5
f6
07
00
07
fb
f1
00
ff
f4
fb
00
ff
f2
f4
07
04
f6
fa
f0
f1
f5
04
fc
f3
f4
0b
fd
ff
f8
01
02
fb
f1
f1
f9
04
f9
00
fd
f0
f5
f5
fe
08
f8
fe
fb
09
f5
07
00
fa
f1
ee
24
13
fa
fb
07
0a
05
05
06
0b
f8
fa
ed
de
f8
f4
e8
f0
e7
e9
04
1d
09
eb
f0
15
20
11
fe
04
11
03
f4
ec
ef
fb
e8
e6
e9
fb
f7
f3
03
fe
ed
fc
0e
07
1b
10
0a
fc
03
f6
f9
03
ee
e1
c5
d6
0f
ff
f7
f7
eb
06
f8
fa
f1
0d
e6
f6
0b
00
0b
ec
0f
0a
16
16
03
0d
06
0f
fa
0c
08
ff
04
f8
08
fe
de
cc
e5
cd
f8
2e
25
2f
ca
f7
04
0b
1c
0d
1f
23
11
22
07
0c
f6
f5
05
10
04
f9
fb
fd
de
e9
f3
fc
16
e5
0d
1a
19
31
00
0f
fe
02
1f
11
f3
e6
f3
f8
02
f3
f5
e4
f2
f8
01
17
d7
f5
f5
fd
1f
07
0d
f1
04
13
12
20
34
1b
08
11
ff
3a
14
11
05
ff
f9
01
0e
18
31
00
01
0e
07
fe
07
02
e6
f3
ce
0c
f2
fd
05
18
fb
f7
03
01
1d
f2
df
e7
fa
fc
01
06
03
19
0d
08
f2
06
18
10
00
e6
fa
1b
0c
f2
e9
03
ff
10
ec
f0
eb
ed
f3
0b
09
08
17
21
0f
00
ff
08
1a
02
fb
ff
01
06
f6
01
fe
f6
07
e5
02
e7
da
d1
15
33
fb
f3
ee
1f
0a
08
1a
1c
03
02
fb
f4
f3
0f
16
08
00
fb
06
0b
07
0a
1e
11
06
0e
0e
1b
fe
fa
ea
f3
dd
16
f6
e8
0d
08
ff
08
05
04
16
05
10
05
f7
e7
20
0f
05
17
16
0e
01
00
f3
fc
01
fd
e7
ed
e9
ee
04
fe
05
f9
ff
0f
fd
08
f4
0b
00
10
17
1b
0c
f5
ee
f4
f6
14
00
f1
e0
e3
0d
fb
fa
e0
09
ff
0a
02
ff
09
06
12
ee
03
00
01
0f
ec
f5
04
f7
ff
df
0a
13
ea
e1
fe
1b
01
06
06
ec
cd
d1
1e
14
e8
f1
d6
14
f3
01
24
0c
fd
df
04
0c
02
eb
e4
0d
0c
01
02
f9
02
0f
08
ee
ec
f5
0e
20
fd
f5
05
06
11
12
08
f3
fa
ea
fc
f3
f3
e7
f2
e7
fe
f5
0d
0c
fe
fe
fa
05
01
0a
0d
05
07
06
04
ff
f2
fe
ff
ff
f4
fd
04
f9
11
00
07
0c
17
0b
fa
03
f2
e3
07
09
de
e6
ec
ec
13
11
fd
04
f8
f9
df
e9
d2
e0
f9
16
fa
d9
09
ff
11
ff
f9
ed
f5
08
00
04
fb
00
0b
13
ff
fa
12
ff
f6
00
03
13
f4
10
fd
fa
04
f9
e9
02
dc
fd
0e
1d
01
f4
05
fa
fb
e6
fb
0d
06
18
1e
fb
10
f7
00
e6
ed
02
1b
17
fb
f9
0a
05
e7
fc
07
ff
0e
f7
fb
f3
f0
00
13
0e
18
19
03
e6
fb
3f
ff
f1
f6
f5
fe
13
04
06
08
01
0e
07
01
00
05
fd
fc
18
11
09
f7
14
0c
1e
fa
00
1f
00
d6
f7
00
f9
00
f8
f4
e8
fe
02
4a
ee
db
f3
04
00
d7
df
e7
0c
00
d7
d9
0f
00
11
f9
fd
18
0c
19
0f
f8
ef
fc
04
e7
fb
0a
06
04
f9
fa
11
01
fb
e4
db
07
22
1a
00
fb
f9
07
1b
07
f7
dc
f8
f4
e1
ef
03
ee
f8
d5
0e
f6
e6
ca
10
1f
2a
21
0b
02
ee
f7
02
f6
de
fb
04
00
f3
0a
18
15
0a
f4
f8
09
13
13
17
fb
13
12
0d
11
0e
f6
f7
e4
f2
e3
fb
f9
1a
24
e8
e2
f1
01
f4
09
02
11
17
fd
fe
ef
fe
08
0b
fd
e4
ce
e6
dc
14
fc
ce
eb
eb
e6
f9
ea
d1
df
02
08
0d
19
11
18
0d
0d
0a
06
0d
e7
f3
e2
ea
f1
f4
f9
e3
f1
ea
f7
ed
d8
cb
fa
f3
0c
0a
00
f4
e3
04
00
02
ef
f5
ff
00
07
08
ea
e0
ff
f5
da
ef
eb
00
f6
d7
dd
f9
ed
eb
02
f7
1f
09
fa
10
09
08
04
26
fb
00
0c
15
2b
09
0e
04
fa
f2
fa
ff
0e
0c
f9
ea
ff
19
1b
06
ee
f4
12
0a
16
00
00
0d
13
0b
03
fa
04
06
17
fa
02
02
00
02
08
0a
10
02
09
03
06
16
21
08
03
03
10
11
1b
00
03
04
04
0b
1b
03
fc
f1
dc
12
08
14
01
04
ef
05
21
26
11
eb
f6
0a
fe
15
07
fa
03
fd
08
11
fe
f7
e6
ce
0b
f0
00
fb
c8
f0
11
1b
fb
e3
f3
13
0d
00
09
f4
fa
fc
07
23
3e
0f
e4
c8
bc
2b
f8
e9
e1
d0
09
05
08
f6
cd
0b
0f
05
0b
19
00
19
ff
07
1b
1f
16
eb
dd
be
1b
06
ec
d9
c5
fa
07
11
f1
f9
03
02
0d
fc
02
f4
fd
0f
0f
05
19
04
d3
f8
0d
08
07
d4
fc
03
26
fa
e4
ff
01
00
16
fc
09
11
05
20
20
fe
13
0b
00
d7
e4
c3
f9
06
ff
00
f5
f2
f2
0c
0a
00
05
0c
02
10
0c
0a
16
1a
f7
fc
0b
ff
fd
12
00
03
f6
e5
11
e5
fe
09
07
f8
06
04
13
1c
00
04
00
02
24
39
0c
02
02
14
0e
e9
0e
03
0a
0c
ce
f5
0d
10
02
e4
fb
12
16
f4
01
03
f8
13
23
1d
1e
07
12
01
06
ec
f9
ef
f9
f4
08
06
0a
e3
e4
fa
0c
15
0e
fd
f4
0c
0b
1d
06
00
fa
0c
ef
e4
02
00
07
00
ea
fa
fb
1d
08
ec
f7
f6
16
04
f3
02
00
f9
04
f4
ee
03
20
25
f1
eb
e0
08
01
07
da
f3
e9
01
05
f6
0e
01
f7
fb
fb
f9
0a
23
26
11
f8
19
0f
ee
f2
f8
06
05
f6
f3
f9
fa
04
07
05
12
fc
09
05
f9
fa
03
fd
10
f4
04
0b
06
ed
fd
f8
0c
0f
11
f2
fe
14
03
15
01
f9
fb
ef
f5
0b
0a
ff
11
02
00
fd
14
30
3f
00
09
1a
3d
24
ee
ee
00
09
06
f5
fc
17
0f
f3
02
0e
1f
14
0b
fb
ea
00
fc
ff
0f
fa
0a
00
03
06
19
15
08
00
e9
f3
f4
02
fa
fc
00
fd
e7
f9
05
06
ed
fa
04
0b
05
e4
03
02
f7
f7
03
1a
fe
16
17
05
ec
e3
1f
00
fc
ed
e7
11
ff
01
fa
11
db
e3
09
1e
0a
ed
fa
1a
07
e5
24
00
f1
f1
f9
04
fc
0d
13
f6
f3
01
e7
e4
f4
f7
fe
e4
e1
fc
09
24
0e
1b
25
fc
02
0f
07
ef
ff
02
12
fd
0a
d1
f5
05
f0
1c
bd
e5
f1
eb
e4
08
fd
04
ef
0f
f6
f2
14
11
f7
d3
dd
df
f5
06
fa
05
0e
01
0d
fb
fd
f3
06
12
11
11
0f
1e
0d
02
fa
04
05
dd
07
fe
f5
08
fb
da
d4
ec
cb
04
d0
ec
ef
e4
f2
03
fb
d7
f3
1e
02
05
03
11
20
d9
e5
f6
00
11
08
04
e9
f4
fa
f5
e0
eb
f1
ee
0c
25
fa
0c
03
1d
1b
ff
0f
ef
12
ff
13
1b
f0
0a
1b
0e
f9
e9
1b
31
02
f3
f2
05
08
17
f8
19
ff
db
0d
06
02
03
f0
e9
f5
e2
fa
f6
f5
0d
05
0c
25
0e
fd
00
22
24
00
fa
13
ed
f0
f1
fb
07
13
ff
ed
e9
dd
da
e0
db
04
0f
d8
d7
e1
e6
f8
0b
1f
12
05
f6
05
1c
08
04
0f
f1
e7
f5
ea
e9
0f
0a
f7
08
11
fe
f4
01
06
f7
00
0f
f1
ed
d8
08
f6
e0
ea
d9
f2
fb
10
00
ee
dc
ec
ff
05
11
2a
1d
1b
11
04
28
30
06
e5
ed
c0
eb
fb
0c
f2
09
16
00
ea
ee
fa
f6
ff
0b
16
f1
05
14
19
1f
19
0b
0f
fe
da
01
f2
00
f6
f6
f1
f8
08
f4
e8
f2
18
08
0f
02
1c
2c
19
fb
0b
16
1b
fd
da
00
f7
fe
ea
ee
df
04
fe
11
14
da
ff
fe
f4
fc
d5
fb
fe
fa
fa
00
0d
fa
00
e3
f6
10
14
02
ff
01
06
06
fc
ee
f2
fe
f8
00
02
f2
08
f9
fa
07
f6
06
02
fc
fe
fb
f9
03
05
fb
02
f8
f6
f4
f8
07
ff
06
03
05
00
00
f5
05
fc
fb
f4
f7
f2
ff
03
00
f6
03
f6
06
0b
05
fe
09
06
fc
f8
05
f4
00
f9
fa
f8
02
f9
06
07
03
0b
0b
fe
f5
f6
fd
06
fe
fa
06
f8
03
fc
f6
fb
00
f7
03
f6
05
ff
fd
05
08
01
fd
fd
08
fc
00
04
04
03
03
ff
fa
08
0a
00
ff
f7
f5
00
02
0d
f6
fb
f4
05
fa
f7
07
f5
fd
fa
f6
f1
00
05
07
f2
04
fa
f8
07
ff
f5
fc
03
02
f4
f9
f4
09
08
00
fa
04
06
fc
fc
f8
f3
f7
00
f9
f8
0b
0c
f6
04
04
06
05
fc
09
fa
01
fe
fb
fb
f6
f7
f7
fb
07
05
08
fd
fa
fa
fa
f9
00
00
f3
ff
f4
fb
03
fa
ff
f2
f4
07
02
f5
09
ff
f9
03
07
0b
02
f6
0a
f2
08
00
06
f7
ff
00
00
f3
f5
00
f9
08
f1
04
f5
f2
05
00
00
00
f3
09
f7
00
03
07
f9
01
08
f6
f5
fd
08
fd
f2
fd
f7
00
04
0a
f2
ff
fd
f7
04
f1
fe
04
fb
04
00
ff
0a
fe
00
fd
f8
ff
fd
09
f2
fc
05
fe
f7
fe
f6
f9
01
f5
f6
07
f8
fd
f6
05
f6
f7
03
07
f6
01
f2
f9
00
fe
fd
00
f9
07
fc
04
04
f9
00
f2
f3
07
f2
f5
f9
fc
f8
ff
05
fa
ff
09
09
f7
02
f7
09
05
0a
06
fd
f3
f9
01
0a
f4
00
fd
00
07
06
00
03
f6
fd
02
fb
f2
04
f4
04
06
f2
f7
f6
f9
fe
fe
05
06
06
04
fb
f4
fd
02
f7
f9
fe
06
fb
0a
f6
fd
f2
ff
f5
fe
fd
fd
05
08
fa
09
f3
f6
fb
f4
0a
f7
04
fa
05
fe
f2
fc
f3
07
04
08
fa
f3
08
07
07
04
00
04
f6
00
00
fe
f6
03
0c
08
fa
01
11
17
14
f0
f5
0c
07
0e
04
0f
fc
f6
0d
0a
05
0b
0b
21
07
0a
09
fb
ea
f6
0a
23
ff
f9
04
11
18
16
18
03
f8
fd
1e
f8
05
fa
ed
ea
09
0f
0e
0b
f1
f8
ff
06
1f
f2
04
0f
00
10
24
02
f7
fc
f6
11
02
00
07
e9
f9
04
1d
13
d5
0f
fc
ea
ef
15
e9
f8
ef
00
32
0b
ee
e6
19
2e
0b
f3
f8
02
f1
17
f5
fe
f9
ed
ea
e2
ed
f3
1a
f9
d5
e5
03
10
ee
f1
f0
0e
1a
fa
e7
f2
11
ed
f7
ff
0c
ed
e9
0f
01
e4
fb
0f
fa
ed
00
13
30
0d
01
00
12
16
fc
f7
fa
06
f1
0e
fe
06
11
f6
fb
f9
28
23
fb
00
f8
06
e3
10
de
02
0f
d3
14
06
0e
03
e5
0f
ec
04
f8
f0
0e
f3
ea
01
fd
23
05
07
01
04
2c
16
f5
ea
f0
ef
04
fb
f8
fd
d2
ee
f1
f8
19
1d
14
10
ef
fd
0d
12
fc
0e
00
15
03
ff
02
1b
0b
f8
0c
ec
f8
01
0e
09
f4
ed
d4
19
0a
d5
ee
0b
f3
fc
fc
0b
1d
18
04
ff
1c
30
00
f6
ec
fc
f3
0f
07
f8
f2
da
f0
f2
fd
f4
04
f6
fe
0a
00
eb
ea
05
f3
0a
03
13
e9
e7
ff
1b
17
fc
f5
e9
f2
0f
fc
0b
fe
14
fe
f9
ef
f7
0a
17
fc
ed
e8
0f
13
09
fc
f7
f2
0d
14
ef
f6
02
28
33
fb
ef
fb
06
ff
f4
fa
fd
0b
0b
06
0e
16
03
f2
13
10
fd
17
f5
00
f9
f6
04
0d
0d
f8
14
03
16
f5
fd
09
00
eb
03
07
0a
03
f6
02
06
08
0b
f6
05
0c
e7
1b
02
fe
09
0c
00
08
f3
06
16
09
14
fd
00
fa
00
fb
13
f7
fa
00
05
04
01
e1
15
0b
0e
28
1c
07
1f
fb
f5
f8
1f
25
f8
0b
f5
0b
17
02
fd
2a
02
08
f5
fb
fd
f3
04
01
19
0c
f2
fa
f2
03
0a
f0
f2
01
06
f7
f1
f8
02
10
f1
07
00
12
03
09
f4
00
0d
0a
05
01
0b
0c
06
f8
f7
fd
06
15
00
07
10
15
ef
f0
06
05
01
f8
05
0f
03
01
08
06
0f
03
fc
f6
e1
07
0c
fe
f0
e9
21
f2
dd
ca
00
ed
ff
1a
08
02
01
06
0e
01
f9
f7
f7
04
03
0d
f6
f3
dd
e2
11
f3
fd
ea
d7
cb
f8
e3
fb
ec
dc
00
0b
0b
08
ec
09
0c
f5
fb
ea
16
e8
c6
f8
10
0d
ff
f2
f9
e5
e8
f1
f3
c6
c9
01
0b
09
09
f9
06
0c
03
0a
0e
07
ef
dc
e8
ea
f4
fe
f9
cf
e0
ee
f7
fa
f8
07
01
ff
f5
00
f0
0e
0a
f0
fd
fb
0d
e2
e6
06
29
f2
da
f7
03
10
e4
ff
e9
f1
f5
0d
14
0f
03
f5
fe
0c
11
05
ea
f0
ef
08
f5
03
f7
ff
e5
f4
e4
f7
08
11
fb
1e
fc
20
23
07
06
f9
05
0b
fa
05
06
0e
fd
ef
09
e3
f8
f6
05
0b
07
0e
f4
fd
16
ec
08
1e
fa
fe
fd
f1
05
05
00
ff
0e
17
ec
0b
ed
f4
0d
07
09
05
f8
fd
f7
ff
ea
f1
f7
16
1b
ef
fb
03
2c
0a
e8
fb
00
0c
f0
12
e8
f0
f9
f2
f1
e7
f0
da
0a
ff
08
00
00
f8
fa
f8
02
fb
f3
f3
00
08
e1
ee
0c
05
fa
e5
f1
12
0d
07
f9
12
ff
fa
07
11
10
e2
00
02
fe
02
05
02
08
04
eb
e4
dc
04
22
0e
28
02
fe
09
00
09
06
04
fd
fb
f3
fe
01
fc
f0
01
0d
0a
f8
ee
05
e6
dc
0f
11
0b
fc
f3
07
10
f3
02
ff
13
02
00
04
ef
ed
ed
00
f8
ff
00
fc
fd
0b
30
00
13
10
0f
19
0a
08
f4
ee
0d
00
05
fa
f4
0b
0e
07
00
1c
10
f4
d4
fb
14
0c
eb
ef
f1
09
0d
fb
1c
00
00
f0
f7
10
00
fd
0b
0e
01
fd
f5
fc
f9
f1
f7
f2
e6
f1
00
07
00
f6
f9
02
16
1a
03
04
ef
15
07
06
fd
f9
0f
fe
f1
fd
19
12
0b
f1
0b
fe
0d
fd
f4
f7
f0
15
13
0e
05
04
f0
f6
0c
f7
ea
fd
09
fb
06
ee
14
0d
17
09
f6
02
f6
fe
eb
03
fb
1f
0e
09
fb
0a
04
fa
02
06
ff
06
0d
05
fe
01
0b
f2
f1
f5
f8
06
f2
f7
fc
05
1e
2d
18
10
f2
f4
fe
0d
ff
fb
08
0d
06
fa
e3
05
06
fb
12
fe
fe
fc
03
fe
f7
0d
0a
12
22
07
0f
fe
0f
30
00
06
03
fb
0c
09
f1
f3
f5
f1
01
fa
07
fe
f4
fe
fb
e5
df
fc
00
fb
f7
0f
02
1b
05
f8
11
16
fc
0a
f1
0a
0d
f9
f8
ea
0d
fe
13
07
12
17
fe
f8
fa
fd
ec
fe
0a
0d
03
fe
1a
03
fd
fa
ff
ff
0d
f2
de
e8
00
f3
e6
ef
07
ec
0a
1f
00
fd
07
fb
0e
09
00
03
00
ec
00
00
0f
0c
00
fe
04
ff
e0
f1
ea
fe
0d
09
19
02
0d
0e
f8
10
e3
ff
f3
0b
f1
f6
f0
06
00
ff
f2
fe
11
f1
fc
f1
00
f9
12
0e
fd
0a
25
05
05
0e
f9
fb
f0
f4
0f
07
00
09
04
f6
fb
fa
07
11
05
14
1c
00
11
0f
18
0f
05
f5
fc
ff
fc
fd
ff
fb
f8
ea
ea
fa
fa
fe
08
d5
f1
02
0a
0e
26
1b
21
00
fe
f4
04
f0
e7
db
e6
ea
e3
fa
e4
f8
fd
fc
fe
0e
f9
00
09
12
19
11
1f
15
07
11
0e
15
00
f8
e0
f1
08
f1
f1
f8
f2
f9
f4
f6
0a
ed
0a
0b
19
17
15
11
f8
eb
0a
07
14
0d
f2
f8
fd
f8
f8
03
00
09
f3
02
1d
f9
f0
ed
e3
d0
da
00
11
0a
f0
13
02
00
11
0c
08
02
f8
f1
0a
e5
04
ff
f1
07
e8
f6
fe
0a
06
06
ea
f2
fd
06
06
ec
f8
fc
fd
f7
10
08
02
09
ff
fe
fc
0c
0c
06
f8
f3
f8
f0
fb
ed
fe
00
ec
07
e0
f1
0d
06
09
eb
05
ff
11
14
f6
0e
09
19
10
f6
fb
ef
ee
de
1f
0d
ff
0f
05
fc
1f
08
07
17
f2
04
0d
11
17
04
15
fe
00
0e
fe
05
0e
00
db
0a
f9
14
09
e9
f4
09
13
fb
02
f6
01
0f
fe
21
fd
05
0f
0e
1a
36
09
ed
f6
bf
2d
13
0d
09
da
0a
15
0e
09
02
fa
0c
04
f4
1e
fb
11
18
12
15
0b
0b
f5
07
e4
13
14
02
eb
c6
0b
14
0e
f8
fa
f7
19
14
fb
28
05
10
1c
04
1e
20
36
fe
1a
f7
1e
15
ee
ff
ef
1d
f4
f3
16
ec
10
08
04
f7
e8
04
19
2e
f6
fa
0b
f7
fb
f0
d4
06
fa
0f
08
fe
ed
ff
0b
15
1e
03
0a
0a
08
1f
00
05
00
00
fd
f6
fd
0d
00
00
fb
f0
e2
14
fe
f4
08
02
df
f2
f4
f2
0e
e2
ee
12
f7
01
0d
00
f7
0f
19
fe
f7
f7
eb
f7
f9
d6
e0
09
0f
f8
f0
f2
ea
21
f8
fa
00
f5
06
0f
0a
21
04
26
20
03
ee
02
04
fd
19
fb
e7
ed
f0
fd
eb
ec
08
06
ec
f9
04
fa
0c
04
ff
00
fc
f1
e4
f2
0d
07
02
01
01
0e
13
1a
10
0d
0f
1b
00
03
0f
1b
13
01
04
ee
f8
fb
0f
fc
d9
e4
f8
ff
fb
e5
eb
0e
10
f1
18
0f
10
0f
01
fa
05
fd
0f
10
01
fc
08
f6
ed
ea
e9
fd
ea
e8
f5
ef
0e
11
fb
0d
18
11
1d
01
08
11
13
02
1a
de
ed
fc
f6
f6
da
e6
eb
04
fa
f5
fd
01
00
00
02
fe
12
ee
ff
04
00
f9
f9
fe
ed
ea
fd
11
0f
da
ee
03
09
15
da
ed
f6
01
0b
f7
ea
f3
05
ee
02
f0
ec
f8
f8
0a
ee
eb
0e
02
10
0a
06
fc
02
17
0e
07
07
f7
0c
0e
01
01
0f
f5
fb
f1
06
16
07
f6
f9
03
22
fd
fe
fe
02
1d
18
1f
e8
ff
0a
23
f6
ea
04
da
03
ff
f9
00
ee
de
fe
f1
f3
14
0f
0a
f6
e3
e0
2f
fb
02
ff
f7
20
fd
13
00
fd
08
07
f0
e9
10
f8
e9
d3
f9
1f
ee
ee
f9
f0
fa
16
19
09
0c
0b
16
13
15
06
f3
05
0d
f4
f9
05
01
c4
cc
d3
f3
c3
db
0c
ef
eb
ef
0c
13
e5
f7
0c
12
15
ee
ff
19
10
ef
e9
ef
00
d4
ee
f7
10
dc
f0
04
d3
fa
0e
0c
09
f4
15
20
16
0a
10
11
10
00
fd
ed
fd
01
da
f0
df
11
dd
e4
f4
e3
17
e5
fc
fe
de
15
09
16
fa
f6
0e
2f
13
e4
e3
0c
cd
e2
f9
f9
15
18
0a
f8
e0
f7
19
11
e2
fe
e8
0a
06
eb
03
e9
ec
f9
0c
fe
f3
00
04
0e
0a
f8
f9
00
13
1d
df
f3
fe
11
11
e1
06
f0
0a
0c
17
e5
ee
0c
12
18
03
0b
0f
f7
f0
0b
fe
f4
f9
ec
01
f2
01
ff
04
11
0e
fc
fa
11
01
eb
07
26
30
04
08
00
09
20
f2
ed
f2
fb
10
f9
fc
07
06
e6
08
07
12
f7
e4
06
19
0c
00
e8
00
f9
eb
f2
05
0e
f9
00
ec
dd
1a
00
0f
19
e7
fa
fb
0a
03
04
00
0d
13
13
f9
04
13
00
f4
ef
0a
07
de
f2
e8
11
12
11
f5
fe
22
16
12
f5
01
18
07
01
13
1c
06
06
f0
fe
f9
fc
ed
dc
e4
d9
00
00
04
f5
d1
1f
1e
1d
07
fd
1f
19
14
10
09
06
06
fd
00
fb
00
02
05
03
f6
fa
0b
08
f9
11
06
11
d1
0d
0b
06
e0
f3
16
1d
05
12
2a
35
31
12
1a
ec
1d
1b
03
f2
e0
14
f9
ff
e9
07
08
0b
fe
fa
1e
0a
38
00
ff
fc
fa
02
05
08
fb
f3
09
f4
fd
fb
f8
f8
04
09
fd
02
fd
04
02
03
f4
00
03
05
07
f5
f5
03
f6
03
f8
09
01
00
04
fa
01
00
fa
00
02
05
f6
fb
f7
00
09
f5
08
09
05
f6
fe
04
00
fd
09
fd
f5
07
ff
f4
02
04
03
f6
fa
f9
04
fd
fa
08
f5
f9
f8
fe
07
fd
01
f4
02
05
04
f4
fa
f3
fa
fd
04
05
fd
01
f4
09
07
00
f4
00
fb
0b
05
02
ff
fd
f6
f5
0a
00
0a
03
fc
03
fa
06
08
00
ff
09
06
02
00
05
03
f4
fb
02
02
04
f3
02
f8
f3
00
fa
fd
04
f8
00
f9
f6
0b
08
02
02
fd
08
fb
06
06
f7
08
fc
f7
02
f6
fe
f5
01
05
fa
fa
05
02
09
ff
f8
f8
01
00
ff
02
07
02
f9
f6
0a
f3
f6
fc
00
f8
04
f4
01
ff
f8
06
07
05
01
f9
0a
06
00
f8
00
fa
fe
f8
06
fa
00
05
06
04
fb
f6
ff
fb
01
f5
01
f9
00
f7
fb
06
f9
04
01
04
fa
01
02
07
fe
fe
09
f4
f8
ff
ff
05
0a
00
04
fc
00
04
00
ff
00
fb
f6
fb
f3
fa
09
fb
f7
f5
01
03
05
fd
00
f7
f7
00
02
ff
f4
f7
fa
fb
00
07
ff
f9
f6
00
04
fe
fe
f4
08
f9
fc
06
ff
01
fd
04
ff
09
07
f8
02
f5
fd
04
01
ff
fc
08
07
00
f6
01
00
fc
f5
fc
f4
07
f9
fe
04
04
f8
08
07
f6
f9
00
00
f5
00
f4
05
f7
07
04
00
0a
ff
f3
f4
07
f9
02
05
f9
08
03
fa
02
f4
f4
f2
f5
f7
04
f9
f7
f3
00
ff
f3
07
04
ff
fd
f8
f3
f4
f8
f6
00
fd
f5
03
00
05
f9
f4
fb
0a
09
03
f9
f8
00
01
fd
00
07
f8
f3
0a
05
07
fd
f7
ff
09
f6
02
fb
fd
02
f6
fd
fb
00
07
fd
0e
f7
ee
f7
00
0b
0a
f9
e3
e7
12
07
08
ef
01
fb
f6
fb
01
ff
ed
10
11
00
fb
30
0c
04
06
04
ff
02
00
09
fd
f5
05
03
fa
00
f1
0a
07
fa
f7
f8
f8
0d
f7
f6
08
04
07
1e
0a
f2
fb
09
13
23
ef
f5
0c
00
19
00
03
09
08
ed
f3
e3
f5
f8
e6
13
0e
00
10
25
f0
f2
ed
09
2e
23
05
fc
07
06
1a
ff
ec
05
03
00
00
01
fe
f7
eb
fd
14
0f
45
c1
d9
fc
15
3c
04
fb
ec
f2
2e
04
eb
e3
fd
ee
f7
e4
fe
f0
f7
09
07
09
18
1c
fb
ea
06
23
3a
0c
fc
0b
0f
0b
03
f5
01
fc
02
04
05
01
0b
f2
e7
fb
2d
0c
06
d2
16
28
09
16
ec
f6
00
00
05
09
f1
ea
00
03
e5
c4
d4
ed
0a
f3
00
1b
1f
21
05
ef
ed
01
0f
f9
f8
e7
f2
dc
0b
fa
1a
f3
d1
0e
ed
ed
ef
05
0b
fd
e1
eb
dd
14
f7
e0
dc
f9
12
04
dd
f1
0e
07
f4
ef
00
11
15
fa
01
de
ff
01
dd
d7
d0
f0
1d
ff
de
eb
00
2a
00
f3
08
02
1e
06
fb
fa
00
01
12
04
f0
e1
10
f9
f8
00
25
f4
eb
0d
e4
fd
f8
08
00
ec
18
22
02
f6
ff
00
02
05
f3
d7
f4
0a
f8
f9
fa
12
fb
fc
fd
f7
24
07
0d
00
fe
11
1e
1a
ff
fa
fc
05
fe
fd
fa
09
fd
e9
d0
e4
ed
17
07
ec
e5
f5
13
23
15
0d
11
e4
0b
02
1f
22
dc
fe
00
fa
f2
ff
fb
ec
e8
ec
04
fc
03
06
06
00
04
04
1c
15
04
00
18
0c
19
f0
ef
01
0d
0c
02
fc
f6
04
f0
25
05
fe
eb
01
15
0b
11
f7
08
ff
03
16
f9
19
06
fc
02
fb
f2
20
0a
01
00
d8
0d
14
f4
e0
df
0a
07
16
e8
eb
0e
13
06
f3
fe
01
17
01
e8
f5
fe
f4
f9
fb
f7
f9
08
04
fa
fe
f7
f9
07
08
03
06
04
fb
03
02
0a
02
f9
f2
f5
f9
f6
f8
f9
01
f6
f4
03
0a
04
08
fc
08
fa
f5
ff
f7
ff
f2
06
08
02
00
f9
01
f4
fb
03
fc
02
f5
06
03
01
03
02
f7
01
ff
04
03
00
ff
0c
f8
02
02
f6
f6
fa
00
fe
08
08
f9
00
00
f7
06
08
00
f5
ff
04
fd
f9
02
fe
08
06
f5
ff
f6
03
fc
00
f7
f4
fc
07
fa
06
08
00
ff
f3
fa
06
05
04
09
01
0a
fa
fd
f4
0c
06
fd
f7
fe
f8
07
03
00
06
09
f9
fe
ff
03
fb
f8
04
04
fe
00
fa
f7
03
ff
04
f3
f6
ff
fa
f5
fb
ff
ff
f5
03
f6
f8
00
fe
01
05
fe
fc
08
fa
08
02
00
04
fc
05
03
f6
07
ff
ff
f6
03
ff
fb
fb
01
03
05
f9
fc
03
f8
fd
07
fe
09
07
ff
07
04
fe
f8
fb
fc
02
00
0a
09
06
fa
fe
f4
f7
04
00
f8
fc
f3
fe
fb
f6
f5
ff
fd
f5
07
0a
06
09
f5
f3
f9
05
08
05
00
06
fc
09
f5
02
03
09
f5
f5
fa
00
f3
f6
f8
09
08
00
f3
0a
f6
06
fb
08
f9
06
ff
f9
00
01
fd
04
03
06
05
05
f4
ff
02
02
00
fe
f5
ff
f7
f8
f9
01
f3
02
05
fe
f8
ff
ff
f3
fb
06
fc
03
fe
f8
03
fe
fa
02
f8
08
04
f6
09
f4
04
f2
00
00
01
08
0b
01
01
f8
04
ff
fc
f5
00
07
fc
f3
0a
fd
0a
fe
00
01
02
fc
05
07
05
09
f9
f2
f4
fb
01
06
f9
f9
fc
f5
f9
01
f4
0b
07
03
fe
fc
ff
fc
02
fd
08
05
fb
f7
01
03
09
fd
ff
f4
f5
f4
08
f4
00
00
fb
fc
0d
01
f6
f6
fb
f9
f9
fc
f5
f9
fd
04
f8
f6
f6
01
f5
f6
fa
0d
f5
f6
ff
fd
0a
0a
f9
0f
ee
e7
06
fd
00
00
fa
f2
f5
f4
01
0a
f3
05
0c
0b
00
fb
03
16
01
0a
40
15
09
f1
f0
0f
05
0f
00
fb
ef
ff
0b
f5
f4
ee
04
09
0e
1e
f0
fe
0d
15
ef
17
fe
ea
ec
f2
ff
f3
20
41
33
e8
05
0e
fb
2b
d1
f3
0c
fe
f2
f4
f5
fd
00
1e
08
09
08
00
ec
fb
f7
ea
f1
05
eb
da
f9
fb
e3
ee
e4
dc
dd
0d
fa
15
19
1a
0e
f2
03
f6
13
27
0f
03
0c
00
0b
ec
db
d7
07
cb
c6
c8
d6
e1
fe
e4
fd
11
19
21
0f
0f
ed
e2
e6
f2
fa
ef
ff
ec
c1
f0
fc
06
0d
d6
eb
e0
d6
0f
08
0f
0e
15
11
ed
35
3a
3a
12
f6
3a
19
20
f4
f0
13
f2
1c
de
d2
ed
f0
0a
f2
d8
fe
0a
11
04
0f
00
f2
07
04
f2
ec
03
1a
1c
eb
fe
09
f4
fd
d3
de
0b
fd
01
f6
07
15
03
17
00
f3
fc
f0
0d
0d
04
fc
d7
02
0f
fa
e4
f2
01
14
05
fe
f8
f1
12
0d
f1
00
e6
e9
f2
24
f4
fb
f7
05
04
ed
f4
f3
d8
ec
fc
f2
f7
0e
12
f3
ea
00
14
01
0a
00
4a
14
14
01
db
2f
f8
1f
06
c4
02
04
fd
e2
1c
f1
fb
f8
03
02
03
10
01
fd
00
fe
f2
02
f9
ee
f4
fe
17
21
1f
fd
f9
fd
0e
14
ff
ec
03
f9
f2
f3
0f
f2
ef
0d
03
f3
15
03
db
eb
f6
12
1b
12
fd
ee
f8
01
01
f0
fe
fa
ed
e8
cb
0d
0a
f9
07
07
09
00
f2
de
f7
fe
fc
24
23
fe
f8
ef
0e
1e
e7
fa
f6
eb
fd
d6
dd
e5
ef
03
01
03
0c
04
00
ee
00
ff
03
24
f7
f3
05
fc
03
f6
fd
04
ff
0e
03
1b
0e
00
f8
21
0a
0e
01
dd
13
f3
20
f3
dd
04
0c
23
f2
16
f7
0f
00
fb
ee
0d
1b
ed
cd
dc
06
ea
f5
f9
fe
0b
f8
12
06
f0
14
23
17
fe
fc
fa
00
00
03
07
09
e9
eb
f2
ec
02
f5
f2
08
fb
f0
f7
f0
18
0b
0f
02
08
10
07
0a
f3
01
00
cc
01
13
06
e9
cf
e6
05
fe
00
05
f1
01
16
03
00
08
df
13
17
ef
d3
e6
fc
e1
d7
15
07
d1
ec
34
f8
e1
cb
e4
f6
f4
f3
e2
e2
f3
06
17
21
13
0f
0f
05
11
26
14
e0
f1
e8
0a
1a
fa
ad
9d
aa
e4
bc
c6
e7
cf
e2
f0
00
1d
df
f7
21
15
12
09
37
f9
eb
e9
29
43
0b
eb
f3
ef
04
dc
eb
ea
e2
00
0d
21
22
19
21
0b
09
11
10
0f
d7
c5
d4
f5
e4
03
f5
e2
e4
fd
d9
cf
d6
d6
04
cc
e9
d7
f3
13
09
05
01
27
1b
06
00
2e
25
02
e8
f1
f8
06
10
fb
ff
f7
f7
e9
10
fd
e9
0b
e2
09
1a
f8
06
f5
fa
fd
00
03
e2
f2
ea
f9
ef
fe
10
fc
fb
01
f3
08
14
29
16
fc
f1
f7
06
19
ff
d4
e2
01
fa
09
f0
ee
05
06
fe
09
0e
fc
00
f3
22
23
0c
0f
00
fc
04
f5
08
06
f9
d7
fc
1a
22
f7
e6
f3
fc
0a
c8
ca
e5
ca
04
ed
00
11
dd
de
02
32
2d
0f
e6
04
0e
16
00
f1
00
f6
ee
02
07
00
01
ec
fa
f5
0a
f7
16
01
d4
ef
f2
07
00
e9
00
fe
0a
05
fb
00
f9
03
f7
fe
f5
fc
ff
06
03
19
1f
17
fb
e9
02
02
ee
f3
f7
de
11
04
06
0b
00
f1
f3
02
fd
f4
ec
02
0c
fe
f3
01
16
12
ea
22
22
0e
cd
c5
30
07
fd
00
fa
07
fe
09
04
0d
13
12
21
07
14
10
16
05
f3
08
f4
e6
bb
e6
f9
fc
ec
fe
17
09
03
f8
fd
0b
12
00
f4
f9
03
02
07
f2
04
ee
09
0e
fa
0e
e4
f0
22
f9
f0
f3
fe
fe
03
06
0d
08
09
0c
09
12
0e
06
02
f6
fa
fb
e7
f9
f9
ef
fe
0e
14
04
fb
06
1c
1d
13
f4
0a
1a
18
06
ed
07
ff
10
e5
f3
15
00
0e
ff
0b
02
1e
16
18
19
04
19
07
fa
f6
03
0c
03
ee
c6
e9
10
0a
dc
ef
f5
16
0a
16
15
29
0d
09
22
0d
26
06
16
19
02
f4
fd
00
04
f4
e6
11
f3
da
cf
f7
f6
f1
e2
de
0e
e7
e7
ef
04
17
16
00
03
00
e8
08
ee
ec
d9
c4
29
fd
ec
e8
f8
05
db
c9
f0
0e
c4
c0
fc
13
2b
05
03
f4
01
05
03
01
ff
f5
04
11
f0
c0
dd
01
ca
dd
d9
fa
2a
fc
fb
11
27
3d
fb
08
de
db
03
01
f6
ed
e5
ff
1a
ef
0b
e9
f4
1d
04
03
da
ef
ca
f0
db
f9
00
10
14
04
fb
06
03
01
00
e6
1b
0e
04
ec
e9
0d
f3
12
e5
1f
12
0b
04
ef
0b
1e
14
e6
0e
01
1a
1f
ff
18
00
0e
0a
14
ff
fb
fb
ee
e9
d6
eb
fd
17
01
f1
f8
19
ea
fe
ff
03
1b
0a
00
02
0b
00
ef
f5
ed
ee
ee
d3
eb
eb
fc
0d
f9
f5
ff
fe
27
31
15
00
2c
fd
12
1b
14
1a
13
eb
fd
e7
15
ec
f1
d8
e7
e8
da
f0
dd
e1
e2
f0
16
0e
05
09
02
03
f2
f6
f6
f1
0d
e7
ee
e6
f9
1f
ff
0c
11
12
15
00
f6
0f
14
fd
1c
16
fd
00
e9
01
0e
08
f6
fa
05
f2
ef
e3
d4
e6
ef
da
01
fc
0a
16
0e
0c
fd
1a
00
0f
12
f4
f7
f7
04
fb
0e
df
db
d4
d7
1c
f3
fd
f6
fd
e8
f8
f6
00
17
00
0b
04
00
13
00
09
04
0c
06
02
0c
01
18
fe
e6
f7
e6
23
05
01
19
f3
fd
00
13
28
f0
09
1e
19
1a
fe
22
0f
09
23
f4
15
01
0c
00
fa
0a
ed
1b
0a
f6
d2
eb
f7
f8
0a
fd
ed
02
0e
1e
03
f7
f7
ff
1b
0e
ee
f1
f9
17
02
ff
f0
0e
00
00
01
e5
01
1b
0b
02
f1
f0
0d
0f
fd
f3
07
02
03
ed
09
0f
05
eb
d7
0a
08
fb
ec
e5
e2
e9
04
12
15
e0
eb
16
2a
f1
f1
00
f5
04
f0
17
f0
d8
ed
ee
04
f2
e9
f9
15
f7
e8
d9
fb
1f
e3
f2
d0
e3
17
06
17
0b
fb
f5
fb
06
0f
f8
f7
f7
00
07
e9
e4
be
bc
dd
0b
05
db
d1
e7
0c
0c
e3
ec
03
03
e8
e9
fb
13
03
ec
f7
dd
04
ee
e9
f6
ed
f3
10
23
e9
e7
da
f8
08
e6
0d
1e
0a
ff
f7
fa
0e
f1
ef
02
ff
fd
0a
e8
dd
e7
28
09
f2
e5
ce
05
0f
0a
f5
e9
e0
16
1d
eb
00
00
02
13
c7
e0
11
0f
15
c8
d9
f6
1f
fb
ea
f8
12
0a
e6
1b
2f
eb
fe
e2
1c
21
fd
dd
f6
fd
05
09
01
e8
0f
0a
e7
05
0a
1b
24
0c
07
f6
07
09
15
eb
20
07
20
2e
10
fc
06
06
2b
0c
f1
ee
fa
f9
19
08
f5
16
fa
f6
0d
f1
08
01
ea
f8
e8
10
0a
0f
06
05
01
13
0e
01
e4
f0
ff
e2
0c
e5
cc
07
ec
f2
fd
06
19
00
fa
f4
1d
07
0d
ef
08
0e
12
18
ed
e5
04
00
02
02
04
08
0e
fa
f0
09
00
02
ed
ee
f5
f3
f5
f9
f2
f6
ff
00
05
ef
f8
ed
fb
02
17
ee
00
1a
02
fc
cd
fa
1a
f4
ee
eb
e5
04
0d
05
fa
16
1b
21
16
eb
ec
08
03
0b
f4
f0
fd
10
0c
f7
f5
06
09
06
fa
e8
ee
ee
f0
12
f3
f8
0e
15
06
fb
0b
08
0c
02
1b
26
0b
0c
f1
08
00
eb
f0
00
07
ea
fb
fa
f8
01
0e
0d
f3
fc
29
27
23
fc
f3
1a
05
e8
e9
03
1e
0f
e5
f8
07
0f
09
fa
ef
00
12
0c
00
f8
e8
00
0f
14
0a
da
fc
15
10
03
f8
0a
fc
fc
ef
05
ec
f6
0a
02
0d
0c
f8
fc
0b
00
f8
05
ee
fa
00
08
fd
00
e9
f7
f5
10
00
0d
0a
00
10
04
fb
09
03
04
0d
07
16
0a
0e
13
fc
f2
fa
fb
00
06
ef
0e
0a
f1
e5
0f
04
00
e8
f6
fe
21
3c
22
23
05
14
1e
00
0c
0b
06
f8
17
0b
05
15
fb
ff
10
00
f4
f4
00
e2
12
f9
06
0a
db
02
1b
22
1e
00
0f
0d
02
09
00
12
0e
12
06
15
f5
1c
01
f4
fe
04
12
08
f9
ca
0e
2d
2a
14
1d
09
18
0a
0a
24
10
0f
0f
fe
e7
03
17
0a
dc
d4
0f
1f
0d
e8
f8
02
0f
e4
d8
02
e4
00
e3
0c
f6
01
dc
e7
20
25
fc
ec
05
0e
0d
03
14
f6
00
df
20
2a
19
f7
ea
09
08
fd
f9
d6
0b
ef
07
00
1a
11
0b
eb
e8
e4
04
09
eb
ed
31
0c
25
01
0f
0c
18
26
fc
fa
12
05
08
f7
ff
ff
f1
f8
f7
fc
1c
09
f8
e2
f2
32
fa
01
ff
f9
0a
0a
1f
10
0d
15
07
1e
10
04
ff
09
05
0f
ff
32
25
0b
f8
ee
05
db
03
e9
12
09
e4
ea
ea
0b
0c
da
08
fe
13
03
fc
f5
f2
1c
0f
00
ff
df
ec
05
fd
00
09
11
14
ee
ff
fc
02
ea
04
01
ec
db
f1
1b
fa
f7
d3
f6
15
1f
f3
08
0c
c5
ea
1a
10
22
e0
f7
12
0f
ff
16
0d
0f
0f
05
0e
e8
17
18
14
2a
fc
fe
f5
01
e6
06
0f
15
09
c3
f8
20
0c
02
fc
18
ff
f8
03
21
07
09
03
00
11
12
28
1d
ff
f5
04
f7
04
f6
fc
1a
f7
e4
e9
1c
f8
06
f1
ff
ff
19
14
ef
16
2b
12
04
11
06
09
f5
da
d6
e6
ee
f5
08
f5
01
e2
00
f3
f7
df
02
07
e8
f0
f8
00
f0
ed
06
25
00
04
fe
07
ff
ed
ff
03
16
0d
f6
f7
0a
05
1a
11
08
fd
ed
ff
0d
fd
fc
e4
02
f7
f4
00
fa
06
0a
03
06
0e
fa
f4
03
16
f0
f3
ef
e7
ff
07
11
f1
fd
0f
0a
f3
0c
11
11
0e
05
f7
fa
f9
fb
f2
c9
f1
f5
ea
e5
db
09
0b
ff
d7
0a
16
0c
00
d6
ef
09
04
11
0e
03
ff
f5
03
07
f4
fc
18
03
f0
08
00
00
03
ce
05
0b
12
f2
d9
fb
f5
0a
1a
07
e7
fb
f4
0e
32
df
03
16
0e
03
03
0d
f8
e4
e3
21
19
08
ff
e6
e6
f2
13
14
0b
e6
e3
02
06
19
dd
fc
1f
ef
d9
16
09
fe
dc
c6
0a
03
fc
fb
ca
1a
0d
f4
c0
f7
f3
fa
05
0d
09
df
05
f1
0c
0b
12
01
fe
08
06
44
06
f8
08
fb
fb
09
1a
15
05
e1
ff
0a
0a
c2
e9
f0
ee
f8
f4
02
fe
fa
f7
1f
fd
f9
ea
fc
18
f3
ed
df
07
ff
0b
f6
f9
06
1c
14
0c
0a
1d
12
17
f4
03
12
07
01
eb
e8
03
17
e9
d9
ed
06
0a
ef
11
11
1f
28
0f
09
fa
0a
11
18
04
f6
0c
0e
f6
fb
ed
ef
f8
e9
1f
00
ed
f0
ee
01
fe
ee
f6
e5
04
0a
02
13
de
fc
1b
12
fd
07
0c
fe
f6
ed
fd
08
15
00
0a
fe
f2
07
0f
0d
03
fb
f0
f1
e5
f6
fb
e5
fe
eb
00
f9
fa
10
ff
d4
f2
ff
13
06
da
e4
1a
18
0a
0c
fc
ef
fe
00
47
14
fd
e1
e3
01
12
fe
d8
de
ec
ef
10
02
09
da
ef
10
0c
10
e8
ed
f1
00
fb
16
ff
13
e1
c8
0c
19
0f
d2
cc
ee
fa
fe
fd
fd
ec
00
f5
ef
02
fe
00
09
0c
02
15
04
f9
f6
01
f7
06
f2
19
16
e4
f5
e0
d5
d2
fe
fd
04
f6
e0
f6
03
f6
fb
14
fb
f5
f7
1e
16
ea
f7
01
0d
f4
10
f1
00
ff
02
13
f9
eb
f7
ff
01
02
09
1a
0f
15
0c
10
01
09
02
1b
0c
0e
09
f6
ef
16
26
2f
00
fc
06
1b
1b
01
00
1f
10
ff
01
fb
fe
0f
0a
0b
21
1b
0f
e5
ee
f1
f2
01
09
fd
08
1b
06
04
12
0e
fc
00
12
14
17
0c
09
e7
19
11
ff
ec
d9
e7
ea
c4
ec
2e
f5
ff
d3
da
18
00
f1
ee
dc
da
06
f2
00
fd
1e
21
15
20
10
0b
e0
c0
d4
e2
0a
f6
fe
ea
f7
1f
d5
fb
f2
f3
e2
fe
ff
ed
f0
fd
0d
ff
1e
09
0b
f8
f3
c2
dc
02
e3
d0
e8
ee
00
ee
f2
08
f9
ee
02
0a
06
00
07
29
1b
1c
ff
e3
07
22
46
38
ff
0b
0c
f4
09
12
c6
07
e7
f2
09
e5
f5
e8
e2
00
ea
fd
26
03
32
f2
dd
fa
21
13
0e
f9
06
36
0a
f7
f5
fb
13
f7
01
00
1c
f8
f4
12
0a
f6
df
f1
06
f3
f0
fd
16
f6
f5
0d
fa
07
fc
f1
08
08
01
fa
06
0b
f0
f0
00
fa
07
09
dc
f8
e1
ff
f8
f9
f6
ca
f8
e1
fe
07
e8
03
ea
fe
0c
fe
f6
de
01
11
08
14
01
f1
10
ef
0e
d8
03
11
ca
0a
e7
d4
01
ee
e5
f9
0c
09
0e
f8
f7
e6
1b
18
02
16
0f
f6
f0
09
ff
f1
10
0b
00
fa
00
06
0d
00
0e
0e
18
15
07
ed
e7
05
01
fb
e0
e7
12
df
f0
d8
f3
12
fb
ee
00
08
12
f1
00
04
0b
2d
01
f7
ef
eb
0f
07
df
f6
f3
f9
04
fb
e7
f8
08
11
df
fc
11
fb
f8
f3
00
12
21
19
07
02
ee
0f
02
dd
cf
e4
fe
f4
fe
00
0e
ff
ed
13
20
20
04
f4
07
08
17
01
00
00
f5
ee
0d
fb
01
fd
f0
00
0e
37
34
18
07
fd
28
0b
f1
1a
11
14
16
14
07
0a
13
05
fb
17
0b
05
f4
f6
16
0a
04
f7
f8
f9
09
ff
e7
f8
08
f9
fb
f3
f5
f6
0b
19
11
03
fe
10
08
10
01
04
02
05
f5
00
fd
0f
f7
f7
0f
f7
03
07
07
fc
03
1f
07
02
06
0e
05
01
16
0a
f0
f3
f3
fa
08
14
fc
f2
11
07
2f
16
1c
0f
04
18
13
0b
02
02
ec
e5
0a
00
e8
15
0a
08
03
09
0a
00
10
1a
05
fc
fa
f8
05
19
f9
00
f9
05
1c
fd
08
02
10
0b
20
01
e6
f6
ff
37
12
0e
05
03
1f
fd
02
03
26
fc
f5
00
ff
1a
f3
00
0b
02
01
03
f3
0d
07
01
0f
09
fb
ff
00
16
fe
07
0a
1b
03
10
00
10
3a
f5
f7
05
f5
09
04
05
16
17
13
1e
14
07
d5
12
2e
06
0a
e8
fd
ff
f6
01
fc
fd
e8
14
ea
e8
08
01
ed
0e
ec
03
1c
12
ec
fd
39
13
11
0f
fa
f1
fe
0c
0a
14
f4
01
fb
f4
e6
13
08
21
13
fa
fa
0d
f8
f9
fd
ff
01
f8
db
e4
ed
0a
f6
01
f9
f6
16
0e
fe
fc
fd
0f
26
05
eb
f4
08
f8
f3
e3
d6
fa
fa
fc
ea
f6
ff
fd
0b
0b
17
18
00
f7
f9
08
19
0f
04
3e
23
0a
f9
fb
15
fe
01
fa
f6
00
09
12
00
01
fa
00
06
fb
02
0c
1b
fc
f7
fd
fa
f6
ff
fc
ff
e9
f1
17
1b
16
20
18
1b
16
0f
09
17
fe
05
f3
e9
03
1f
1c
f1
fb
fe
10
06
d9
ec
ed
f3
0a
1f
14
0c
e3
08
21
29
11
f9
ec
02
0e
00
fd
0d
f3
f4
f2
fc
ea
f8
e3
e5
0f
19
16
15
09
11
13
26
35
15
fa
f8
fc
06
08
0b
01
fe
f3
00
01
03
ff
06
ed
00
ff
ef
01
14
0f
fa
14
05
02
11
17
f6
de
f7
1b
05
1d
29
35
f8
f5
fd
01
fd
02
ef
f1
e5
ea
fb
04
0a
f0
e4
fd
02
fe
fa
03
11
ff
0b
08
05
fd
01
01
05
fc
ee
fb
0f
02
fb
ec
fc
fa
00
fb
f0
f9
15
13
03
f3
fb
04
16
fe
07
03
15
fb
0b
fd
00
ff
23
1c
f1
f9
10
07
f8
0d
09
f7
ed
fd
20
14
0b
1e
0f
0e
fc
fa
08
01
e1
fc
12
1a
10
14
08
eb
e9
08
0c
e9
d0
e6
fa
fd
03
11
09
f4
00
07
13
f4
ed
0a
f6
f6
f9
05
10
03
09
fe
04
e1
f1
f4
ee
f3
20
30
2b
08
03
f8
f7
01
f5
eb
1d
f4
f0
dc
f3
04
f1
e3
f9
09
dd
d2
d1
ec
f6
00
00
11
10
14
13
0f
ff
11
04
0a
f0
e4
f2
0d
ff
02
0e
09
f2
ea
fa
02
f7
f8
fb
fd
dd
fe
ea
00
19
fd
0a
f2
27
03
fd
00
f7
01
eb
ed
0a
1c
d7
da
d9
04
07
11
13
09
12
f5
ef
fb
06
17
12
f1
f2
11
15
0f
01
0d
0b
f5
de
f9
fb
ea
ee
da
dc
e9
fb
f9
fa
ff
15
fd
f3
fe
08
13
ed
e1
07
eb
07
f7
0b
00
f5
1c
10
04
fd
f4
ee
07
fe
0f
0a
f5
05
02
e5
15
19
fe
f0
d6
06
00
e4
f3
e7
ec
ff
14
05
e1
f6
dd
d8
ed
f9
15
0a
04
28
1d
0a
ef
00
04
fe
05
08
ef
eb
06
e5
e7
00
f5
05
08
0b
0e
10
12
06
0c
0c
1a
0b
f0
fa
ff
eb
08
ff
18
0c
fa
fc
f3
f3
e7
03
e3
13
02
f7
fe
0d
03
ee
00
ff
fd
f7
01
eb
e9
ef
da
f9
06
0d
07
e8
e0
19
0d
0d
14
fe
00
16
0f
08
00
11
14
0d
f6
07
03
f7
fa
ed
ee
f4
fa
15
f1
e8
ef
17
f6
ee
07
00
0c
04
04
07
03
f9
0f
0a
15
01
09
db
f4
fb
0b
13
f3
de
fc
17
ed
01
f2
fa
f2
e9
f8
0d
00
08
11
18
00
04
18
07
e3
ff
11
fd
f4
00
08
1a
08
fb
f0
04
04
0c
02
02
f7
09
06
00
ec
e6
07
0d
00
f7
02
ea
f7
18
fd
12
fc
f4
0d
ff
ec
ef
05
0f
fc
ef
ea
02
14
00
db
0c
13
14
f2
f0
05
f4
f6
f5
ef
04
fa
0f
00
06
04
f5
04
fe
de
05
01
35
11
f3
12
ed
ee
eb
0a
f3
de
00
0a
0e
14
28
14
f6
07
11
e7
f6
ee
0d
f6
f1
ea
00
19
11
05
fe
fc
ed
ff
fa
e3
c8
05
fd
0c
04
00
0a
0d
15
08
e4
13
00
db
e4
03
19
0b
f6
02
18
27
21
05
f9
d1
05
01
0d
ff
f4
04
06
f4
0f
e7
08
f8
e9
f5
0e
13
20
1c
12
df
f9
06
08
ed
d4
01
11
10
06
fb
dd
fb
21
4b
f6
ed
f0
ec
16
fe
fe
e0
d4
13
20
0f
f4
17
0c
01
fa
0c
0d
f0
f0
0d
f2
ea
f2
fb
f4
fa
0b
27
0a
f9
f4
01
f9
e6
00
19
0e
ec
e5
f0
0a
3d
06
f6
07
24
fe
e7
f7
1a
10
f9
eb
fc
03
23
19
0f
0d
e9
07
09
05
e3
e6
05
f8
e0
e9
0e
f6
e8
f5
dc
1c
01
f5
f4
00
2f
28
1c
08
0e
08
04
0d
06
12
16
f7
f7
de
d7
da
d0
f8
e9
04
e8
db
fb
ea
d5
f3
20
00
07
f1
1a
1e
f5
0f
13
f4
eb
e6
f7
01
f9
08
0b
f2
04
ed
ff
01
05
f2
ef
03
ff
d7
f5
0d
15
f5
f4
00
0a
1e
1a
0a
ea
11
f5
ea
f2
03
09
f7
01
fe
ed
1d
fc
ff
1b
10
18
f6
06
21
1b
1c
20
f8
f0
fc
03
fc
fd
00
01
e2
f8
fe
f6
f5
f1
e4
ec
ef
14
0e
03
f1
06
1f
22
1e
0a
0f
fa
06
01
09
f7
de
00
f1
fe
e8
0f
09
f2
12
00
06
f9
ee
27
ed
f2
0a
fb
17
09
ea
01
f4
15
1d
1d
e6
da
09
f5
da
e9
06
17
df
da
df
00
08
fa
06
e1
ed
0d
07
01
f5
06
07
01
f7
f7
04
02
f3
06
fb
f9
fa
fc
fb
fd
fc
07
01
f9
05
01
fa
f5
f8
f6
f5
fc
fc
fc
fa
01
f5
f2
fa
07
06
fe
f6
f3
fc
f7
f4
f4
f9
09
fe
04
fb
fe
ff
fb
09
0a
00
f4
04
00
02
f9
fa
00
f8
03
f4
fa
02
f6
07
fc
fd
03
02
f7
04
fb
f6
f7
f9
09
09
05
0a
07
f7
f2
f4
05
f3
08
00
00
02
f3
fd
f8
fa
01
05
05
03
01
03
fb
fc
09
01
f9
09
00
09
fc
f3
fe
fc
f4
fc
fd
f3
f3
08
f6
f8
ff
fa
05
fd
fa
03
09
01
f7
00
01
f6
03
fd
fa
fa
05
00
f2
fc
00
f3
00
01
09
06
f7
00
fd
03
07
06
03
07
00
f5
06
03
fa
05
03
f6
ff
f9
07
f9
06
06
fe
08
04
f2
fa
fe
08
00
fd
f8
04
fc
f3
02
f8
00
f2
ff
01
fa
f9
fe
02
f6
07
f9
fa
f7
06
08
00
06
ff
f9
fb
f9
06
f7
08
f6
f4
09
01
fe
fb
f4
02
08
ff
fc
f9
ff
fd
fd
f9
00
fe
05
08
fb
fd
00
00
fb
ff
fb
f8
fe
f7
ff
f4
f9
fd
02
f8
02
00
04
f4
02
00
fa
08
fd
04
fe
09
09
0b
02
01
06
00
fe
04
f4
02
03
f3
06
f8
05
08
f4
f9
00
fd
04
fe
f4
ff
02
f4
f4
f4
fb
ff
04
f9
fb
00
fa
03
04
06
f5
01
03
fe
fc
fb
f4
f5
07
00
f3
01
f4
00
05
ff
f5
01
09
ff
fe
f6
fa
00
f5
05
f8
f8
f4
06
f5
00
01
ff
f6
ff
f8
f5
07
fe
06
00
f3
01
fb
06
f8
f5
f7
ff
f6
f3
05
f1
f6
08
07
fd
fd
fb
03
02
f6
07
02
ff
fc
fe
06
f7
02
01
00
fd
fd
f4
f8
00
f2
fd
09
07
00
f9
00
f8
fd
f7
07
fb
fc
02
fd
02
00
03
f8
05
ff
f5
f4
ff
fe
f5
00
ff
ef
f1
01
0f
10
fb
ef
e9
01
19
0d
ff
fc
05
00
12
09
02
fa
ff
08
03
ff
05
00
1b
fb
08
e8
0a
19
0a
ff
f6
07
03
fa
fa
06
f5
f5
0a
eb
f6
f5
08
02
f3
d4
ed
ff
fe
11
01
14
07
f9
11
0c
fc
17
f5
f2
fa
06
0e
f7
e6
00
f7
fe
ed
f5
f5
e3
f1
1c
35
ef
00
fb
04
1e
03
11
03
04
f4
0c
12
0a
01
eb
0c
06
fe
ee
e5
dc
b5
f4
02
45
d7
03
0f
31
3a
eb
0d
f9
00
fb
20
16
09
f6
07
1a
0e
fc
02
f9
dc
d8
e8
07
1d
cd
df
fa
0d
0a
f5
0b
17
03
05
1f
15
07
02
fd
14
f4
e8
e3
f7
0c
ff
14
13
ef
e7
f1
21
0b
0a
cf
e0
08
00
11
10
0a
f2
02
0b
35
0b
0b
00
f2
d4
ea
0d
25
1c
f9
05
ff
fc
e8
0a
02
e0
f3
ca
1d
fc
01
eb
cb
0d
fb
f9
ea
f2
0b
ff
f7
02
06
ff
fc
fd
10
f0
11
02
ff
11
e0
17
ff
0a
17
07
09
fa
fe
03
13
fe
f5
f1
ff
e9
f3
fb
ef
f5
f6
05
0a
fe
03
f5
0f
fb
0f
13
13
0b
0f
f1
0d
24
17
0e
0e
fa
11
ed
f8
02
e5
05
f8
ed
f0
eb
04
05
16
19
09
f8
1a
1b
1c
11
f1
f8
fd
f8
01
0b
14
fa
ee
fd
11
14
ff
01
24
18
0c
fc
04
fc
fc
fd
0f
11
f6
f8
03
00
df
f8
ed
eb
fa
de
f7
00
05
0f
20
f4
0e
22
18
16
fd
00
ec
0d
00
0d
fa
f5
f9
ea
f3
f7
fc
f8
f1
ff
0b
f9
f4
01
05
00
0a
17
05
f8
df
1c
1e
02
00
ff
01
01
f3
08
05
fc
03
18
13
fd
14
06
fc
f0
0c
08
0e
f4
f2
18
f7
04
e5
0c
1f
01
1e
23
34
01
0d
1d
e4
02
dc
fe
05
ed
06
ed
ff
f3
0d
0d
f5
00
f8
01
12
1b
f8
f0
f1
f3
f6
ef
f2
04
f1
fa
f0
fa
00
02
01
06
01
fa
ff
02
05
ff
00
04
fa
f6
00
f1
fa
f1
fb
f3
f4
f3
fb
f3
01
f7
ff
ff
fe
00
f9
f3
fd
fd
01
fd
f0
00
02
00
05
02
f3
fb
f3
f0
f4
04
f8
fc
01
01
04
07
02
07
f7
fe
00
0b
07
00
fa
03
f8
01
fe
f4
05
fe
fd
f9
f9
ef
f1
f6
fe
05
f2
ef
fb
ef
f7
f6
fc
f0
fd
fb
06
04
04
04
03
f8
05
f6
f6
fb
04
04
f3
f9
f8
03
01
f8
06
fb
02
fb
01
fa
07
00
01
f8
f9
f7
f0
02
02
ef
f5
06
f3
05
06
05
00
ff
f1
fb
00
03
f5
ff
fe
f9
ff
f7
f0
f8
04
fb
fb
fd
04
f4
f7
fe
f0
f4
fb
f2
fc
ef
01
02
04
fb
fa
fa
f2
f7
04
f7
f2
f5
fc
f1
f8
f7
00
fa
07
0a
f6
09
0b
06
03
02
f8
fa
fd
03
fd
04
ff
ff
f5
00
f8
f8
f0
ef
02
fb
f8
03
f7
06
ff
f8
f8
f7
fc
fe
08
f2
02
f6
02
05
02
04
fa
05
f0
ee
f8
f1
fe
06
f7
f8
04
04
05
04
f4
00
00
fe
f5
f9
fa
00
f4
02
07
f7
03
f7
00
fb
01
03
03
f7
02
05
01
ff
fc
f8
f6
01
f4
f4
04
f7
f1
ef
f9
ff
f8
f9
01
ef
fb
ef
f1
ff
f5
00
f8
f6
00
fa
fc
f6
f8
fd
fe
fb
f7
06
fa
f2
fc
f1
fd
04
fe
04
fa
05
fb
09
ff
f8
04
f4
00
f7
03
f5
03
f6
09
00
02
f7
00
ee
02
f6
05
01
ff
f7
f5
f6
f5
f7
fb
01
f9
03
ef
f8
f5
07
fc
04
ff
fb
f9
00
02
ef
ef
fb
ff
f2
f1
ef
02
f3
f9
03
00
03
03
f4
f6
00
f8
02
fa
f2
f5
02
03
f8
02
09
f6
f9
fd
03
f7
f3
fa
f1
fd
f9
f9
fc
f7
04
f3
06
f8
fd
fd
f8
07
ed
eb
09
15
f9
ea
f7
fc
fe
ee
e5
ee
e6
fd
18
f9
e7
f8
ee
1a
0a
f0
f1
f4
e9
06
ef
04
07
e7
0a
f1
06
00
0e
00
06
0d
09
0a
04
01
fa
10
08
02
fa
fd
fc
fc
fc
ff
01
f6
14
04
10
e6
cd
30
10
02
f6
f3
ff
0e
09
00
13
29
20
08
1a
05
02
13
38
36
f8
19
fd
0e
06
00
e8
06
07
f9
ee
f2
03
09
06
05
f9
0b
00
05
1e
0a
22
1c
1c
e7
26
17
19
04
e0
01
fe
f6
f4
ed
f3
05
03
ec
0c
00
fe
fd
09
11
06
21
29
16
fe
0b
fc
0c
f3
ff
0f
1b
f7
e6
d8
f7
f4
f8
f5
18
0c
fe
0d
0b
2a
2b
1d
00
c3
12
46
0b
fe
e5
fc
25
f2
ed
fc
f1
14
10
0f
e3
e8
fc
f0
fe
f8
f6
f6
07
18
07
00
06
fa
12
0b
e6
05
07
f2
03
0d
f7
0c
0f
09
34
11
17
0b
05
0c
ee
e0
08
11
0d
d0
de
ce
0b
fc
d5
f4
e8
e8
f9
ef
e9
fa
ee
f5
f4
f7
16
0d
08
ef
fc
14
22
22
f7
df
e2
03
07
d1
f6
fd
e3
f4
ec
da
f5
ed
ef
04
fd
0a
15
0c
f4
2f
18
33
14
02
00
0f
29
27
f9
e0
03
ec
f4
ce
0f
0c
f0
e4
04
15
eb
05
f3
f5
fb
08
1a
0e
10
08
f4
f3
f1
1d
fc
10
0f
f6
f5
fa
0a
fa
f5
1e
fa
14
0f
2e
f9
e5
f8
17
28
f3
e1
d2
d4
f5
cf
d9
f7
db
cb
08
05
d8
fe
e9
00
14
03
04
24
fa
f8
00
00
14
0b
fa
02
ff
d5
0f
f3
0c
f0
d8
fa
f9
01
fa
02
1c
12
12
02
0f
ef
e1
fc
0a
0f
03
e5
e4
15
e9
d7
f2
f2
0d
0e
10
e0
f7
0f
10
0e
0e
0a
ed
01
e1
ea
ed
36
33
df
e1
fc
28
37
ee
d5
fa
f7
16
f7
f7
fb
0d
f1
16
f8
e3
e0
e5
f7
f7
02
f0
05
00
ff
f6
03
f0
f5
fb
ef
f9
f0
04
f3
f8
fe
06
f6
01
fd
00
ff
fc
fd
fa
f2
01
04
f9
fd
f0
04
fc
01
f3
fc
04
fd
f5
f0
06
f5
fe
f1
fa
ef
ff
fd
ef
fb
f6
fa
03
02
f2
00
fa
f6
fd
f7
fb
f2
fa
05
fe
f5
f8
fa
06
fb
09
05
fc
07
0c
f6
ff
f7
02
08
04
fc
fa
f0
fc
05
f0
ef
06
fb
fd
f8
f0
06
f2
fc
f7
fa
0b
f7
02
00
f5
f9
0b
f7
ff
05
00
f1
f9
00
fc
04
fc
f4
05
03
ff
08
fd
01
00
08
f6
fe
00
fb
f9
fc
04
f7
f7
00
00
ff
ef
f8
f5
f0
f2
05
00
00
f6
f3
f8
f7
f9
f8
fa
fc
02
00
05
00
fe
07
fa
fd
fe
fa
f5
06
03
f5
03
03
fd
00
f2
fd
f9
f6
04
fc
f2
ff
fb
fd
05
f5
f3
00
ef
00
f0
f6
fc
fc
f6
00
f6
04
f0
08
ff
fd
03
08
f7
f4
f5
f5
f4
fc
07
f4
f7
fe
f5
01
f3
f7
09
06
0b
f2
f0
fd
0c
f4
f6
05
05
fe
f6
ef
f9
f5
0a
f8
f8
f3
fc
ff
f8
01
fb
00
00
fd
f0
00
fd
fa
f8
f8
04
00
fc
05
05
05
06
fa
f4
f2
f1
f4
01
fd
05
f5
f9
fa
ef
fb
f3
00
04
f6
fe
ef
02
fb
03
ff
ff
fa
04
f0
fa
03
fa
f7
fb
09
fa
0b
02
00
f3
fd
f5
fe
f9
f8
00
fb
f4
fd
f0
f3
f7
f1
f9
0b
fc
01
f8
04
fb
f9
fd
00
ef
08
06
ef
ef
06
f5
f0
fa
f1
00
f7
00
ef
05
00
f7
f4
f7
06
03
06
fc
f5
00
f7
f2
fb
02
fd
00
ef
00
02
fa
06
f4
f5
fa
f8
04
02
f8
06
fe
03
fa
00
fb
0a
f8
f6
fc
00
f0
f8
00
fb
02
06
f6
fb
f4
0a
f6
f7
06
00
fe
f3
08
fe
03
f7
f1
06
f7
f3
fa
fa
06
f9
f6
f7
f6
f0
f2
f8
f6
01
00
f9
f2
fd
f6
ee
ff
04
f9
09
f0
08
00
00
fc
f2
e7
fb
21
03
ea
03
fe
07
f7
f6
f5
f4
08
00
f6
fa
fc
0a
01
02
02
07
f0
04
04
f4
f7
00
ec
dd
11
11
f6
fe
fa
f8
11
0c
ff
fc
0a
0d
08
0c
21
18
15
23
21
34
ff
f6
f3
fd
fa
07
00
14
05
e6
08
f3
e6
ed
ee
e4
e8
f8
f5
25
0f
05
12
1a
18
fa
eb
00
f2
1d
14
20
00
14
ef
1a
01
f2
09
eb
ec
f9
f8
0c
05
02
16
0b
20
1b
02
e8
eb
e8
f9
0c
00
07
f4
dd
fb
fa
e9
ef
fe
f4
f9
f4
fb
13
01
03
06
18
1b
f8
14
29
46
0c
06
18
09
1c
0d
02
0b
02
10
ed
07
02
04
00
e7
f9
16
2f
fb
f0
02
0e
08
10
ed
0e
fc
fc
1e
fc
e9
fc
03
06
0c
0e
0c
16
02
25
fa
1f
36
ef
0d
fd
00
fe
fd
01
ef
f0
fc
e5
e2
eb
ef
05
e1
f6
ed
f5
fe
f7
fa
04
f5
ee
04
ff
01
09
09
fa
e1
e7
f0
0a
f4
ef
e3
dd
06
db
00
ed
e3
04
00
08
0e
03
f8
fc
0c
09
ff
1f
12
0b
f8
00
17
07
fd
0b
09
05
07
f2
f6
fc
f4
d8
f4
0f
00
f4
0a
15
ee
fe
fa
f2
e7
f5
f7
fd
f5
07
f0
03
0d
fd
06
ff
15
00
01
00
0b
12
1d
f9
28
ea
f8
f7
e5
f7
f1
d4
fb
00
ed
f2
e7
02
f0
f5
01
ef
09
f6
f8
0c
fe
03
1b
00
fb
05
e6
e2
df
f0
f5
eb
ff
e9
0d
07
fd
ee
fa
0e
00
f4
f2
fb
0f
0f
05
01
1c
f0
fb
f4
ee
fd
e8
e9
f8
ea
08
f7
ff
f6
02
00
02
fc
0b
fe
06
0d
02
19
ee
f9
f7
f4
12
11
fb
fb
e9
f5
fe
e7
e8
f6
03
ea
e1
f4
00
11
dc
d3
00
06
fb
e9
fd
ff
04
05
00
0c
00
12
03
ff
f9
0c
fd
01
00
ef
e8
f8
fa
07
05
0c
01
06
ee
01
01
11
fd
fe
01
05
fc
f8
f7
f5
ef
ff
fe
e3
fb
03
09
f6
e8
fd
01
04
f1
05
04
08
01
1a
17
06
ee
fb
f0
fd
0e
fa
1b
03
f3
f9
06
e9
eb
de
fa
fc
fe
17
20
f4
10
12
11
12
30
fe
fd
0e
16
35
0f
01
f9
09
2a
14
fc
f1
fd
d5
0b
ef
00
fa
e4
d9
f2
04
21
3c
05
09
03
1b
43
03
ee
df
12
27
03
07
06
fa
df
f7
f4
04
fd
d4
f7
13
18
29
1d
fd
08
03
2a
22
06
ff
00
01
08
04
07
04
f3
e0
02
00
05
f2
e7
fc
01
01
e5
f2
dd
f5
0e
15
f8
ee
e8
0e
08
01
00
e3
f5
ee
f4
00
12
fe
e7
f4
13
07
16
0e
fc
f4
09
f5
e8
00
0e
01
fa
f8
12
00
02
f7
e1
f7
12
10
08
02
2c
03
08
04
fd
fe
08
10
09
ee
0d
04
fa
ea
02
1b
02
ef
e9
ff
0b
00
ef
dd
d5
09
01
07
f3
f1
0b
ef
fd
fc
f8
0e
15
00
01
09
2a
f8
fd
18
0f
2c
0c
0f
ea
d8
de
de
f3
fc
06
f6
09
13
07
f3
00
ed
00
f9
10
1b
0f
f7
e0
0a
0c
f7
eb
e1
e6
0b
fd
10
09
0a
12
05
07
00
eb
0d
00
fe
ed
04
21
07
0e
ed
ef
19
13
1b
f8
00
0f
ec
f8
f0
02
04
de
f1
07
05
f6
0c
10
21
28
1a
f0
f0
16
32
13
11
01
f7
e8
de
f7
16
fc
fd
f3
ec
f5
0d
08
16
05
19
09
16
22
0a
f4
f2
19
27
04
f6
08
09
fc
0a
fe
fe
02
06
03
14
02
e2
f9
20
0b
f8
eb
f3
f7
08
24
fc
0f
13
01
01
f2
f9
1d
ff
f7
de
ce
06
0b
f8
c8
d9
09
10
ed
d3
dc
07
00
dd
e2
04
ee
f5
db
f4
17
f4
f8
f3
f2
05
08
f1
f6
03
f0
fb
00
f7
fe
f0
f6
f0
f6
f6
f3
f1
00
f1
00
06
fb
05
f2
f4
f3
fa
07
00
00
f2
fc
03
06
05
f8
f6
f6
f7
f9
05
00
02
f6
fc
00
01
ff
fa
05
f2
f7
06
fb
f5
fa
f7
07
fd
00
fb
f1
f7
f0
fb
f1
f9
f7
fe
05
f4
f5
00
f3
04
f7
00
f9
fc
f8
f2
05
04
05
09
f4
04
f6
01
f6
f7
f9
f1
01
fa
ff
00
07
f7
fe
fd
f0
02
03
f8
0a
fd
03
f9
f9
f0
00
f4
f7
04
fc
f2
f3
00
03
fd
fe
06
02
ff
f0
fe
f9
01
fa
04
f3
f1
fb
04
ff
02
fc
f9
f1
00
07
fb
f2
f7
ff
0b
01
f7
f7
05
00
07
00
fb
00
02
00
f5
fb
fc
fc
00
00
f2
06
06
f4
02
02
fa
fd
02
00
fc
fc
fc
08
00
f5
05
02
fd
f7
03
01
fc
06
fb
00
f6
f9
f7
02
0b
0b
f1
fa
fb
05
fd
ff
f8
f5
fc
04
0b
00
03
fe
fb
f5
07
f8
00
f5
f6
f1
f6
f3
fc
00
f8
fe
04
f9
fe
fa
f9
09
f5
05
fc
05
f8
06
05
f5
fc
ff
f2
01
f2
00
fa
03
f3
f0
00
f9
fd
08
00
f7
f6
06
05
f9
fe
f5
02
f8
06
f7
f5
f9
00
f4
fd
01
03
fe
f0
f3
00
f4
02
fb
fe
f6
0a
06
f0
f1
01
f8
f2
f6
06
03
fa
f2
03
f7
00
ff
0a
07
f9
f5
fd
ff
f4
f8
f5
07
07
fa
fb
fa
f2
f6
01
f2
06
fe
f8
04
06
f3
00
f8
fe
f6
f6
fb
f7
fc
f8
fd
f8
ff
f9
fd
02
ff
f9
f9
fb
fa
ff
fc
f5
f6
f5
fc
f8
ff
f7
f4
00
fd
fd
01
03
fa
f3
f1
07
fb
06
f0
fc
01
fc
f8
05
fd
f7
fd
00
00
01
f4
00
f1
fc
f3
f4
06
05
f8
07
fa
f8
f6
f4
f3
06
fb
04
ff
05
02
f5
fa
f2
f8
02
f4
fa
ff
e4
02
08
f5
13
19
10
fd
00
0a
01
0b
0c
02
f6
0b
f4
08
10
1f
14
02
fb
fb
07
01
11
06
f8
19
0a
f7
16
0c
15
f8
fc
0d
fc
08
00
f0
e3
ed
0f
1a
0a
ff
ef
09
07
02
f5
09
f9
f6
28
23
fd
ec
13
12
ff
e2
fe
fd
e8
e8
10
f7
03
01
06
0c
f4
f3
f7
fc
e4
17
14
ee
f0
00
20
2a
0e
02
f5
08
14
12
f8
ea
19
eb
d5
e6
29
b6
e1
ff
1f
ff
cf
eb
f4
e6
df
0d
22
0a
fc
fc
14
0b
ff
07
04
e6
fa
05
00
12
cd
05
03
06
f9
0c
0d
04
06
06
20
1b
1f
05
ea
14
05
02
e7
f1
20
03
ca
d8
0b
b1
e9
0a
19
02
c1
e0
db
05
fa
ed
fb
d6
0f
14
01
fe
fb
03
f4
f5
1a
10
0c
ec
07
0b
ff
cb
dc
00
f4
f0
0b
fa
18
08
f5
00
ce
0c
f3
d9
db
e1
da
c8
eb
11
0a
ff
03
f5
f4
f8
18
fd
f9
f4
ef
09
f9
0e
24
16
ee
f6
0e
1b
13
cb
d5
ee
08
18
db
03
f0
f8
fc
20
17
e5
f5
e4
1a
0a
ea
f7
08
11
ea
ee
14
1d
07
ee
e5
fd
25
ed
e6
e3
f8
05
de
f5
ec
d5
fc
00
18
08
06
0b
03
19
1a
f7
03
07
19
0c
f8
fe
04
08
f9
0c
fb
fd
06
0a
f9
eb
04
fd
10
fb
dd
f1
ed
ea
ef
f7
b5
d6
f1
00
18
e0
e6
11
fd
0f
2f
2e
12
e4
e7
06
03
0b
f1
f2
f7
fa
e5
f9
00
01
ff
04
05
09
f8
e8
00
13
18
02
14
0b
05
fb
16
18
00
ff
f3
00
0e
09
03
e4
f2
ed
fc
11
00
f8
01
0c
fe
08
0f
1d
0c
de
00
00
07
f3
e0
0c
f5
f6
f1
00
04
e4
0e
fa
fd
e9
fd
fe
f4
02
1a
fe
00
00
ef
0c
06
f7
f5
e8
07
05
04
08
08
17
07
0a
f9
f5
08
fd
07
fb
f4
fb
02
fd
02
f8
09
f4
03
f6
04
fe
00
f4
01
01
fe
f7
06
f3
f4
04
00
fa
f8
03
fb
fb
06
02
fd
01
f5
03
f5
fe
f6
f6
01
f4
f5
05
07
03
fc
f9
fa
f8
07
07
f4
f5
00
f9
fe
02
fe
06
01
07
f9
fd
fb
00
ff
fc
09
fe
fe
01
f7
fd
f9
00
fd
02
09
04
ff
f4
00
fc
00
09
01
fc
07
00
fe
ff
f7
fb
f4
f6
f5
00
fa
f4
0a
fa
f6
0c
00
08
08
fe
02
f9
07
f4
fc
03
fb
fd
0a
07
f5
09
f8
fd
f8
05
04
fe
03
07
00
00
04
fa
03
09
fb
f7
f8
ff
f7
ff
06
f5
05
03
fa
05
ff
fa
01
f7
07
fa
09
f7
f6
09
09
fb
06
ff
07
05
f7
0a
ff
fa
00
f8
06
08
fe
00
f2
fb
08
07
03
fc
f6
f4
fd
00
f9
f6
01
06
03
f9
04
f9
f5
fd
00
03
f7
fa
02
00
00
f9
fa
fb
00
f8
00
fb
00
04
07
fc
03
f3
08
05
f9
03
fd
00
08
0a
f6
fa
f3
01
f4
f5
fa
fa
f6
05
ff
00
f4
f6
02
fd
fa
02
f9
fa
f5
fd
08
fc
00
fe
fb
09
fa
f7
f9
f3
08
01
ff
01
fc
04
fe
f8
f5
f7
fb
02
f3
f9
07
f8
fe
00
09
fa
f4
fd
fd
00
f5
00
fd
ff
fa
ff
fd
0a
04
fb
f5
f7
02
f9
f7
02
05
09
00
00
fe
05
fa
00
fb
07
fd
f9
fa
f7
f5
f3
02
07
07
04
ff
08
ff
fe
03
fd
fa
fe
fd
05
fc
f7
fa
02
09
f3
0a
09
fe
fd
07
f5
00
01
f6
06
05
08
f4
fd
fe
05
ff
0a
fa
fb
00
06
07
f3
09
09
f9
f3
fd
04
fd
0a
f7
02
09
fb
f9
03
09
00
02
04
f6
03
f5
fd
03
02
03
f5
fa
09
f4
f9
00
f9
f5
08
05
f3
f6
06
09
f4
01
f8
ff
08
14
fb
f8
ee
fd
f9
f4
f1
01
f6
00
fc
fb
f8
fe
0a
08
0f
10
11
ff
0c
04
f0
fa
f5
0d
00
e1
f1
f4
06
fe
0b
01
0b
fd
00
1d
2a
0a
00
0d
0d
fc
ff
18
08
fe
ed
ec
e4
f3
1d
0b
fd
0c
0c
35
16
14
1f
30
25
04
f4
0b
22
ec
e5
00
ef
ed
09
ec
f2
f5
de
20
fd
05
f6
f6
ff
09
f9
0e
06
f7
02
0c
00
35
ff
f4
f7
04
15
23
20
e1
dd
be
3d
0b
f9
f8
e6
2d
fc
ec
f8
04
fc
02
0b
1f
29
eb
fc
05
13
2b
fc
fb
fa
e5
f1
1f
10
ea
db
eb
10
09
fb
31
30
06
18
1f
29
3e
fe
f6
fd
f3
13
15
00
03
0c
20
37
1e
fa
e3
03
32
00
00
f6
eb
e5
00
0b
fa
fd
e3
11
f6
e3
19
e9
f9
e4
dc
ef
18
08
f9
17
51
1d
1f
1f
12
1e
fe
06
0d
13
13
f6
e9
00
ef
04
fb
13
20
fe
12
f5
ee
06
03
ec
e9
e4
ee
e6
f2
f5
06
fb
ec
f5
22
1b
13
f9
e7
0d
31
17
fc
f5
ee
ef
f7
d5
db
dc
f1
00
fc
ee
fd
08
18
fe
09
10
01
e7
02
fe
29
08
0e
31
19
0b
e1
f7
09
f5
1b
04
f8
dd
f5
15
02
0c
03
0f
07
f3
20
29
26
fa
ed
f1
ee
eb
fe
0a
14
03
fe
16
0b
2b
29
14
08
f1
08
02
04
ea
fe
ec
f3
f9
30
17
fe
ed
eb
0b
17
fb
e9
f9
f2
fc
1d
19
15
ea
f3
19
1e
0d
f9
00
e9
f1
f7
06
f4
f6
f0
f7
13
f6
02
e3
ec
22
19
1f
1b
12
fb
fb
13
29
1f
f1
f4
f1
00
08
f9
f1
f2
fe
f9
e8
0a
04
1a
f4
f4
f6
f9
20
fa
01
e1
fb
f6
01
18
14
f2
e4
e9
01
19
24
2a
40
f7
fd
fd
1c
07
ec
00
f9
e3
f1
01
08
01
02
05
07
fa
0c
10
0e
f7
fe
f7
f3
f7
f8
fd
f8
00
fd
fa
f4
03
f6
08
fc
fa
f7
fd
06
f5
fa
02
f2
02
fd
04
f7
f9
f9
05
00
f9
fa
f9
05
06
f5
f6
f4
fc
00
f6
07
03
fe
fd
fc
00
02
04
fd
09
00
09
00
f3
f3
03
f8
ef
f9
02
0a
f7
f3
f6
fb
f1
f9
f9
f3
fb
04
0b
f1
f3
02
f4
05
06
02
f7
fe
fc
01
fd
0a
03
fa
05
01
06
f4
03
fc
00
04
f5
f4
fe
f2
f3
00
fc
f7
ff
f3
ff
01
01
fd
04
fe
fb
00
02
f5
03
fc
f9
06
08
09
f4
fa
f8
07
f5
f7
06
fc
fb
f9
07
f5
06
ff
fe
00
f1
05
fb
07
f2
fa
03
08
f3
07
f5
fb
04
f8
fe
f2
fd
fa
f6
f6
0b
00
03
fd
fb
f3
00
06
f6
00
00
f9
08
02
fc
05
06
f7
f8
fb
03
f7
f6
fc
09
f7
03
03
f6
f7
f3
fc
f7
fb
0f
fd
00
f9
f4
fe
fc
f9
06
05
f7
f3
fa
fb
01
f4
00
03
07
fb
07
00
fe
f3
04
08
f5
04
07
f7
f4
02
f4
fc
00
ff
00
f6
07
f8
f5
f2
00
07
06
f7
00
f3
f1
f5
0a
fd
f3
01
f5
0a
f9
00
ef
00
f4
01
09
f7
08
fe
fe
07
03
fa
00
f6
f1
00
f7
06
03
00
00
00
f8
ff
f5
f2
fb
ff
fc
fb
f1
ff
04
01
f9
07
03
09
04
00
f3
04
03
f8
f5
fb
f6
06
fc
f3
00
f6
fc
fc
01
f4
f6
f4
fc
07
fb
fd
0a
fb
ff
f9
f2
fd
f8
06
f7
06
fc
07
f9
fb
f6
f2
00
00
02
09
07
04
fc
fc
02
00
fc
07
00
f7
f6
05
f5
04
03
ff
00
08
f3
02
f8
f3
f6
03
00
08
06
f1
00
fe
07
f8
02
02
f8
f0
02
05
f5
fd
f8
fc
fd
f1
f1
fb
04
03
f5
01
04
f9
f4
fc
00
0d
f3
f8
fe
03
f9
fa
ff
f5
f8
ff
01
00
f6
ea
ff
13
f8
ee
f9
05
1a
10
00
f3
07
ff
fb
f8
f0
fc
ff
0a
fe
03
fd
2d
0c
0e
f3
02
1a
11
07
f2
f1
f8
fd
06
f7
db
f3
ff
f8
eb
04
e9
ec
e7
f8
fe
01
08
10
0b
fe
fc
f1
0c
14
01
e8
f3
04
f5
f9
e9
f5
e5
ee
fc
ef
ec
00
19
19
ed
10
28
1a
2b
eb
fc
03
02
2d
0b
fd
fc
00
fa
10
09
eb
f0
ee
f3
08
fa
f9
f8
ce
eb
09
14
49
b4
fe
0a
26
31
dc
f7
f6
04
0a
ee
f5
f5
ed
d2
fb
00
fe
00
fc
e8
05
17
06
12
e0
f4
ff
10
25
ef
ff
0e
fc
00
03
fb
fc
fc
ec
05
0a
00
11
ff
fc
18
34
00
f5
eb
2a
26
13
fc
ce
15
02
0e
f4
f0
f6
f5
ec
04
ea
dd
ff
e1
03
fe
07
09
0f
00
f9
f0
e9
09
f1
ff
ff
06
fc
ec
fe
e8
f7
fe
11
02
f8
00
12
15
f0
db
d1
08
fd
f5
d3
f9
fd
14
0e
ea
f1
16
22
07
09
18
f9
fc
09
05
0c
ce
f0
f1
dd
e0
fc
0c
f1
dc
03
0c
34
1d
fe
ed
11
29
06
0b
0f
1d
f2
f9
24
1b
e1
c9
16
01
fc
fb
fc
1a
fb
13
04
0c
f5
f5
00
fc
14
13
0a
da
f6
fe
f5
fc
eb
f4
e6
ec
05
f9
06
f8
00
0b
06
02
2a
ee
14
fb
fa
1a
e8
00
03
fe
0d
f9
0a
0c
05
12
eb
eb
e9
f5
04
12
0c
09
0d
13
04
19
05
16
08
f3
eb
04
08
07
fa
11
07
fb
e2
ee
0d
f3
eb
f8
f9
16
19
0e
15
f9
1c
01
15
0c
d4
e8
f6
06
10
ea
f2
f6
08
05
00
f2
e8
f9
04
16
f9
f0
fb
1e
23
07
f7
f2
04
f5
09
fc
01
0b
f6
ff
18
f9
f4
1f
f2
f1
e6
c1
0a
f9
f0
c6
c0
16
0b
f2
ef
01
00
08
ed
eb
f7
f8
00
f8
f9
eb
f3
ed
fc
f1
f2
f6
f9
26
f9
f4
ff
05
1b
fc
f6
fe
ed
00
01
fe
04
eb
f5
e8
e0
01
f8
fb
00
ee
0c
08
f8
02
f1
f9
ed
fe
02
f5
ff
06
01
f9
e9
09
04
0c
f1
fc
fb
fb
10
06
09
f6
f4
f5
00
01
cf
d5
00
06
ea
dd
f9
f9
d7
df
0e
01
ca
fd
37
ea
e0
dd
f9
13
07
0d
f6
ed
02
f5
1d
1e
15
e9
05
1a
0b
1b
fd
db
f7
05
f9
f0
fd
d1
c7
dc
fe
e3
ff
0b
13
0f
e5
11
1c
df
e8
fc
09
0b
04
0d
ee
f0
f1
01
1e
db
e6
0e
fd
11
f0
09
09
f0
0e
ff
16
22
0a
e8
f4
0c
0d
f0
01
e4
ec
ed
f0
db
0a
fc
e5
ad
0a
c1
c3
08
0d
08
f7
0b
ef
0c
1d
f5
02
06
32
1b
f8
ed
18
2e
f6
f8
fa
11
0e
f8
f1
00
f7
f1
c0
00
fa
e4
fb
e1
1a
15
00
f0
f2
02
ec
f5
e9
ff
fa
eb
df
0f
16
00
0d
ee
fb
03
07
10
19
03
fe
fd
fc
16
04
04
de
fd
16
f9
02
00
d8
e5
00
0e
0a
2e
14
0f
fd
f8
15
0f
eb
f7
09
ff
04
fc
f0
f4
f2
fa
eb
f8
fb
f2
e7
e2
f6
f7
cc
d2
ef
0b
1b
11
26
ec
f7
fe
1c
2b
11
ea
ff
16
0b
01
fb
f8
0b
0a
08
ff
fa
fe
02
fd
dc
f7
04
04
f3
e3
fb
f0
eb
e7
f3
f2
f7
f8
f4
0b
ee
d4
01
0e
0d
ef
f8
12
0a
eb
fd
08
02
01
f2
01
f0
ec
dd
d3
ff
fc
08
07
de
e4
e6
ff
17
ff
ee
e5
14
0e
fd
e2
ed
0b
07
f3
14
0d
02
cd
cd
09
07
ee
e8
e8
fe
fd
0e
0f
fb
03
11
06
fc
05
01
fd
fa
d2
eb
fd
fa
d8
dd
f5
f6
f1
14
07
ee
e7
e0
d8
e6
de
05
00
03
e7
ea
00
e2
13
df
00
08
fc
0e
fb
0a
18
03
0d
ef
ff
0a
fd
f5
01
fb
28
11
f8
f9
f3
2a
0b
f3
05
fe
06
f3
de
f1
11
fd
f4
de
f9
02
47
2e
02
ec
d7
24
09
d2
d3
e2
0f
d5
bf
e5
fc
fb
db
e7
e4
f4
f3
de
f7
ee
fb
15
1f
0b
f1
fb
ed
e1
02
ef
fa
e0
f8
00
d9
f5
f0
09
03
17
f6
0a
01
01
f9
1f
fe
11
27
19
02
e1
11
04
07
e6
25
12
09
fe
d7
ff
00
f8
e2
e2
0a
01
07
03
ff
bd
0a
39
2d
44
d5
05
0f
18
f8
05
06
0f
fb
e5
05
09
00
e8
ec
f8
f3
f3
03
f1
ff
17
21
03
0d
fe
05
15
0c
fa
0a
13
0c
f2
fd
0b
05
02
f6
da
02
ff
02
00
0d
d1
a6
01
eb
07
c1
fa
1e
f7
0b
01
fd
fb
f3
f3
19
06
f9
ed
00
ec
f0
f3
ff
dc
1a
14
fc
e8
e8
1d
ee
cb
d1
bc
1c
02
f3
fe
0b
ff
f5
10
fe
06
f2
e9
0e
11
09
22
15
fc
f0
ea
1e
10
ff
06
f3
18
da
11
14
1b
e2
c2
10
17
3a
fd
cb
fd
2d
4a
fb
16
16
fe
cf
22
15
11
13
2c
11
fa
04
fd
04
f0
f4
dd
04
06
0e
fc
f5
0d
4a
00
26
01
f4
e7
fc
0e
f5
c9
d8
0c
0e
0c
15
17
0b
0f
f9
fe
f2
11
00
eb
f5
e6
0e
f5
05
00
0b
f5
dc
fd
01
f5
ef
01
04
0a
e5
f2
ee
03
18
ee
ea
fd
04
18
11
e2
0a
1e
16
f3
34
4f
11
0e
13
35
37
ee
00
f7
f2
f8
d2
e6
fd
ec
fc
fe
f7
2b
05
fc
ff
fe
fd
02
22
29
13
20
0d
2e
10
02
f1
03
00
01
dd
ff
00
ff
00
f3
10
0b
12
02
f9
e6
2d
25
eb
06
0a
1b
05
e6
f9
04
e4
f7
d6
17
22
fe
ef
e7
26
0f
25
06
b5
d3
98
22
e4
cf
cc
d2
00
c1
f0
06
04
fa
e1
f6
02
f0
ed
d7
fc
0a
0a
0a
fa
0d
13
0a
f5
f8
03
09
13
ee
ed
11
14
fc
fa
ee
01
f5
f8
02
fc
03
fc
00
fb
00
f3
07
f3
f7
fc
fd
10
00
ef
0d
07
0a
05
f9
f8
fa
03
11
06
fa
01
fe
0c
08
0b
ef
f0
e6
0c
05
06
f6
f6
00
fb
04
0e
0e
fa
fe
04
0f
11
eb
0d
00
f7
e0
fe
07
0e
ed
c6
07
03
f5
f2
d3
fe
01
fa
02
01
f5
06
fc
13
1e
ec
05
03
0f
17
34
4a
14
e3
ce
2c
f8
f1
cf
db
1d
fc
0c
01
e7
01
00
02
0b
0a
f2
f2
f3
00
0a
0e
07
ee
f3
db
14
06
f9
e6
e9
07
02
fe
04
f5
f5
ff
0d
09
0d
ed
f6
0c
04
09
13
14
d5
df
17
20
f1
d0
fa
00
2f
ed
f6
f6
fd
0b
fb
0e
19
05
f6
fa
f4
0a
0e
04
08
e4
e4
d6
fa
00
0c
f6
00
ed
03
ff
fe
1a
00
0b
fd
08
f9
f6
04
01
01
fa
fe
fc
07
0d
05
fb
08
09
fc
12
00
1a
06
ff
f0
05
05
02
f8
ed
0b
04
04
00
ee
01
04
ff
14
fd
0b
08
03
04
e8
00
1d
12
01
e5
f7
06
f8
f6
f2
f3
09
fd
f9
f7
f3
06
f9
28
ee
09
13
fd
1f
10
f9
01
00
ff
f4
ef
0c
07
00
08
e7
06
07
0b
12
09
08
08
00
eb
ff
fb
00
07
fd
00
03
fe
fe
0d
fe
01
03
01
fa
fe
01
06
0c
f2
ed
00
19
05
04
08
0a
08
14
ff
d1
00
e2
15
05
fe
07
fb
00
05
05
f7
07
02
09
03
08
07
0b
06
10
fa
18
ff
fb
f3
ee
f0
ff
f3
f6
fc
06
00
fd
02
ee
06
0c
0c
f5
0b
13
0c
06
08
f8
03
f7
02
f3
f9
17
17
f7
f5
04
0b
14
f1
08
08
0a
fb
fb
fe
ee
ea
f1
07
f3
fd
16
22
13
f6
02
f9
00
05
01
0b
00
02
03
10
05
06
01
fc
10
00
ff
e3
f3
18
0a
00
e3
ff
1a
0c
fc
00
f3
fc
fb
16
ff
00
fd
05
1b
1c
fd
14
03
16
04
18
08
06
0a
05
22
0b
fd
02
11
07
f9
0d
17
fc
02
fd
0e
f8
ff
f6
f7
fd
eb
01
0b
04
ff
13
26
26
00
fd
17
21
19
14
0a
02
05
07
f0
ea
ec
f1
f1
fe
ec
de
f0
0b
fe
e5
f3
f6
24
1a
05
f3
00
31
12
f8
ea
f8
11
f7
f5
f5
11
f0
e3
d5
c7
00
32
ce
cc
ea
04
0f
0a
ef
e5
fd
16
01
f9
ed
ea
01
e5
ee
e6
ff
0e
e8
d2
de
de
05
f5
ed
fd
0a
08
03
08
f3
1f
28
fc
ee
f4
03
15
05
fd
00
05
f9
f8
03
43
37
00
e9
ff
0a
f5
f3
f0
00
e8
08
f8
ed
fb
00
ea
0e
db
d1
e5
fc
07
e7
ec
04
03
1d
0a
f5
fa
13
2b
fe
01
f1
f9
eb
06
1c
07
fd
f2
11
02
f9
fd
e2
0e
fd
dc
f9
01
05
fc
e4
dc
f0
08
fe
e8
f3
03
0f
ff
fb
ff
f9
0b
1d
03
10
05
ed
e7
dd
f5
01
06
00
e4
d7
f4
0f
04
ef
f1
fd
14
ff
f7
fa
12
17
05
06
08
fc
1e
f4
0f
fb
1b
13
ca
f4
d8
f1
06
15
01
f2
0a
0f
00
00
f9
0c
0e
05
07
f4
07
f8
f9
e5
f8
03
0c
f8
fc
08
2b
10
0e
0b
ff
0e
15
0b
03
fb
0d
fa
fe
ee
f8
fd
16
f9
f1
da
00
14
0d
e7
f7
05
05
0f
23
ef
00
e4
ff
0d
14
05
e7
fa
14
24
07
04
0c
fa
ee
00
04
ec
ef
f9
0c
02
00
1b
16
fc
09
06
0d
14
18
f6
f1
f5
0a
15
08
fd
f1
fa
11
03
14
02
04
1a
13
0c
09
f7
02
fe
08
03
07
f9
04
0e
0f
03
02
1a
2d
1b
29
15
1e
14
f8
f3
0b
10
0a
0d
ee
00
14
12
00
de
eb
08
1c
0b
e7
f4
f6
f6
fb
01
f7
f8
f0
13
1a
0b
07
09
09
00
0d
fe
f6
0b
04
00
f3
e9
fe
ff
ed
00
ec
f3
11
01
f4
ff
fd
0b
01
02
07
10
10
00
ec
f9
03
0c
fc
08
0a
11
05
dc
0a
06
10
08
12
0a
05
11
14
07
fa
f0
1c
10
0c
ee
07
04
f5
ed
04
ff
a8
a3
e6
0d
f5
f6
f8
f8
0f
06
07
0a
f4
fa
02
12
00
fb
05
10
1f
19
16
e8
dc
f7
f3
06
3a
31
08
ec
df
f8
16
06
03
10
fe
09
02
ee
ee
06
07
f8
00
0d
f4
dc
ea
04
05
fe
f6
10
0e
02
f4
14
14
ff
f4
09
0c
0e
09
f7
01
0c
14
10
f6
cc
d0
d9
f0
d2
17
01
d2
e2
db
0b
fc
ed
f7
f2
0e
00
e6
08
07
10
fd
da
18
16
04
ef
06
15
0e
04
fb
14
25
18
00
07
16
fb
f5
07
f3
04
03
fa
f1
ff
ff
fd
01
fd
e0
d6
c8
ba
ea
f3
ee
00
fc
f0
00
01
00
f7
0b
01
fa
f7
08
e9
f8
00
06
ff
dd
0e
1e
15
f9
ff
fc
f9
f8
f7
06
fd
09
11
fa
08
00
f1
ed
e5
f6
fa
f5
ff
ef
ba
ec
fb
0f
f4
0b
f5
db
d6
e1
0c
f4
02
06
f8
fa
f0
07
05
07
07
17
1c
0c
f3
0b
1d
23
14
f0
04
0a
17
04
16
04
01
11
0b
fa
06
fa
08
fb
00
e8
f9
fa
01
f6
f9
d4
e2
e9
ee
ec
f4
02
14
00
f8
fe
0d
f9
04
06
00
ed
f3
f5
f6
e5
d3
e1
e4
b8
ec
fb
ef
f6
ee
f5
0f
00
00
05
03
07
0d
12
fa
03
09
15
11
03
09
f1
e1
f5
04
e0
d7
c1
db
07
03
00
0c
fc
f9
e8
f4
07
0e
fc
04
fe
ea
ed
fd
f1
ce
f0
ec
d1
db
f0
fb
fc
de
dd
ea
f1
df
fc
fc
00
00
e2
ec
f0
09
0d
dd
ea
06
0a
16
f3
11
1e
15
0a
ef
05
ff
e8
ee
f8
fe
00
f8
ea
fb
fc
fe
0d
f9
13
07
1b
15
f5
01
06
00
00
12
03
1d
1b
0c
08
21
02
03
15
14
1a
0f
0a
08
14
04
04
f7
04
0d
01
0a
00
fc
00
ec
e0
f1
06
fa
ff
fe
0e
0e
10
15
f1
e0
1b
2a
20
e9
0b
1b
02
f0
0b
f9
06
f3
e9
fa
04
f9
05
fd
df
d2
e2
f7
17
ef
e5
ff
fa
f9
0c
fb
00
fd
0e
00
05
0d
0d
f4
fa
cb
d8
e6
0e
a1
c6
ee
06
29
a7
d3
de
ea
fd
f3
e0
09
00
f7
fc
f4
12
05
f8
f3
e8
f5
00
f7
b1
ca
ec
f9
da
d0
fd
02
0b
00
02
fc
17
05
07
14
0f
fd
fb
e7
11
13
21
ff
ea
ed
13
2a
04
f2
a1
fd
e8
e7
f5
c4
00
ed
ee
06
e3
dc
01
ef
28
e3
e9
0b
13
f9
ed
04
f5
09
f1
ed
f0
f8
0d
f5
0b
11
04
fd
ff
19
00
fe
0b
ea
ec
c4
c3
14
14
f6
cf
d7
06
fe
16
fe
f0
09
fb
14
1a
08
13
f5
0c
12
02
0d
01
e0
d5
fa
0c
0a
dd
e8
d9
ef
04
ff
16
f9
f8
fb
04
1c
ea
0b
00
05
00
0b
02
ee
37
09
17
de
15
17
fb
fc
e9
00
17
e3
f5
e5
03
f7
ff
00
f8
ed
07
17
23
09
ff
eb
eb
f8
00
fd
13
fb
f7
01
10
ff
fb
f8
19
22
01
00
01
fa
07
09
f9
0d
10
ea
ea
d8
db
f9
00
d2
e5
f0
f8
0f
f1
00
11
f3
17
16
12
f7
0c
ff
01
07
03
03
ee
f3
07
e7
eb
f7
fe
ee
f6
fd
0a
e1
d6
04
26
11
e2
f1
06
09
ff
04
f4
04
f9
e7
fb
ee
f1
03
0e
00
ee
01
14
23
08
08
fc
06
02
0a
13
f3
fc
01
ff
12
f6
f4
fc
15
20
1a
1e
09
08
1c
07
10
00
22
00
fd
07
13
08
0d
fd
00
fb
02
0b
05
01
f0
00
f3
f9
00
04
f8
f0
f4
02
10
0e
03
08
f4
04
16
12
04
07
0c
24
0c
00
f7
0c
0f
fc
13
0a
0b
06
04
11
0c
f8
15
08
02
06
0d
16
06
0c
07
14
0e
0d
f1
f7
04
ed
0b
00
04
e7
04
0d
0c
18
04
0a
05
27
27
0a
f2
10
0f
f8
ed
f7
1f
00
06
fb
ee
f8
f8
03
f4
f9
0f
02
f4
fc
f4
e8
ee
00
f0
06
10
19
fc
08
0d
04
19
17
00
00
eb
d9
f9
0c
eb
eb
eb
01
f4
d4
f1
eb
fb
d0
f9
0f
21
fd
05
05
0a
29
0c
20
e0
f4
f8
ea
e5
e8
07
f9
f3
e0
cd
e3
fd
f7
f7
10
18
24
00
0a
14
0c
01
11
0d
18
2f
16
09
ea
e2
00
0e
00
e6
dd
fd
f8
0c
f9
9f
e4
ea
f1
15
ee
1d
30
fd
07
fc
02
03
00
d5
07
0d
06
11
dc
0b
00
10
25
0e
f6
0c
13
01
0b
04
0a
08
fb
f9
f9
d3
fe
01
17
f1
f0
ee
f0
ec
f6
e6
f1
03
ff
03
1c
1b
1d
0f
08
00
06
05
fb
f5
e7
f6
11
00
c2
e1
fb
ff
fa
f0
fc
11
f3
09
0e
1f
13
10
1e
0a
08
07
1c
fc
1d
02
06
f7
1c
0b
e3
ef
fc
fe
f3
fa
ff
e7
fe
ef
06
f7
f9
04
18
19
15
13
19
f7
fa
08
f5
f1
09
05
13
19
1b
08
15
16
03
1a
ef
fb
06
0b
f9
fa
01
00
fd
01
dd
dc
eb
04
24
cd
ea
0e
00
0e
01
02
11
fb
0c
11
01
01
05
02
1e
10
fe
01
f9
05
f6
f6
00
fd
0b
08
0a
09
05
0b
10
08
0c
f8
f9
03
09
02
fc
0b
f9
f1
fc
ed
fa
ec
f7
05
01
ea
09
fd
10
1d
fb
0e
f5
ef
17
08
10
fd
ed
04
0e
fe
f3
f6
0c
00
fc
1d
37
00
00
04
07
0d
10
17
fc
fb
fd
10
11
02
f1
e7
0e
00
01
e9
fd
ff
e2
fa
00
08
14
19
1e
ff
fc
fe
fb
11
09
03
ec
f5
f4
02
06
f4
fc
18
08
0e
f4
f8
18
2a
13
0c
fe
05
12
e7
dd
01
fe
f9
e8
ef
e4
f1
01
fc
ef
f9
00
07
fa
ff
e2
ef
07
14
ff
f4
0a
f3
d9
e8
fe
f8
d8
cf
e3
02
fe
04
01
02
29
0b
1d
0e
18
d8
fb
fc
1e
32
f1
07
14
0f
26
0c
00
fb
e6
f1
fb
f0
ed
fc
ee
0c
09
00
fc
fe
a4
be
08
29
3c
f2
13
1d
22
21
18
19
10
0f
10
0a
f8
f3
f2
ff
e8
f5
ee
ec
d5
c9
d6
01
1f
32
f3
f2
0d
0b
25
00
f6
e2
ef
03
08
02
f0
f0
d7
09
16
fd
0b
04
e3
d6
21
03
19
e0
f2
00
12
27
fd
fd
2d
17
01
27
f8
03
09
f9
12
fe
f4
02
e0
ef
fd
14
03
17
10
1b
fa
ef
ec
10
0e
f1
ea
ee
03
01
08
f4
0e
19
0a
18
f8
20
14
27
12
00
fd
08
14
1a
19
00
01
0c
f4
03
fb
f0
f3
ec
f4
07
fe
e1
e9
00
08
f7
1c
15
01
08
08
11
0d
10
35
04
02
f8
f6
0c
fd
f0
13
02
09
18
10
f2
ef
03
ea
18
00
16
d6
f1
13
17
01
19
ef
06
05
1e
23
ed
00
f9
fd
e5
f7
05
f4
f3
e6
f1
06
09
00
02
03
ff
f9
f8
ff
f9
09
07
07
f5
19
20
fb
01
ff
0d
26
17
fb
11
dd
ef
f3
f3
fb
19
1a
fc
f7
fe
14
12
14
fb
f8
fe
02
22
fc
e7
fc
00
12
1e
f6
de
ec
ec
f4
ef
ee
f3
fb
f0
f5
04
1c
f1
f4
fa
1b
06
0a
fd
f7
1a
14
11
15
10
ef
fa
fc
12
f3
02
10
0b
03
e0
10
fe
f7
fa
04
f7
00
0b
05
19
00
f6
05
03
f4
06
15
13
ee
bb
f0
0e
fd
dd
e6
eb
10
06
ef
07
d8
0a
09
fb
f2
e9
fe
05
fd
fb
f4
ef
f9
fa
ff
f8
fd
f1
fd
01
f9
ff
04
02
fa
00
f2
f3
f8
f4
fa
f4
e8
ff
f3
f8
05
fa
02
02
00
01
f2
00
fc
f7
f1
f7
f3
ef
f2
f2
f5
f7
f8
f0
ff
ef
f0
fb
f3
04
00
03
01
00
ff
04
00
fc
06
f2
04
03
f5
04
fe
03
f0
ee
05
f7
fc
f8
f5
fc
00
f2
06
fb
ec
f2
f4
03
fa
07
01
ff
fe
fd
fd
00
f3
04
f9
00
fd
fc
f0
fb
f5
ed
fa
f9
f2
f0
fd
fb
f8
0c
00
00
05
00
06
fc
07
fa
fa
00
fe
01
fa
fe
00
f3
f6
f8
fb
00
f8
f2
f4
03
02
01
f7
00
01
09
07
fe
01
14
06
02
fa
01
f1
f5
02
01
f2
f8
07
f7
0c
fc
03
09
00
f9
ef
06
04
00
08
11
09
05
f8
0a
06
f7
f2
01
f3
f4
05
0d
f7
01
f8
f1
03
f6
f1
f8
f9
fc
fb
05
00
f9
ec
fe
f0
02
02
01
fe
fb
fb
fd
00
ff
f5
f0
fa
fc
f3
03
f7
01
e9
fb
f9
07
fb
00
00
f5
f7
01
f3
f1
fc
ee
f3
03
f7
ed
00
f3
e9
f7
06
09
ff
f1
fb
fa
00
00
0a
f0
f1
f1
ef
f7
02
fe
fb
f2
fa
02
f1
06
02
05
fe
06
ea
f6
fd
04
fd
03
f2
fc
05
ef
f4
08
0b
f2
05
02
f8
f4
03
ea
f1
fc
ee
fc
ec
05
0a
fa
f3
f9
fa
00
f2
04
f5
f0
f9
f7
00
ff
00
f5
fe
f3
ff
fd
ee
f8
03
fb
ff
f5
00
05
00
fa
01
f4
fb
f9
01
ef
fa
f8
f6
fa
f8
01
f7
fb
fd
f7
ed
e8
f8
05
ec
f1
09
f4
ef
f2
00
0a
fc
03
fd
00
04
03
f1
00
02
f1
f7
03
01
05
fa
f4
01
07
fd
f9
ee
f9
04
f9
fe
05
f9
ed
f5
fe
f3
fb
10
ff
fc
fe
fb
06
f3
f3
00
07
02
ee
08
fa
f9
00
fb
01
f4
01
00
fa
01
fd
19
fd
f9
ea
07
07
f9
f9
dc
f4
0a
12
f3
03
ff
09
16
01
00
0f
01
0b
18
ee
f8
0c
fb
f7
e6
e7
f9
fc
ef
f5
05
0a
07
fd
17
11
06
f3
ff
0b
04
07
0b
0a
f6
00
e5
e3
d9
e9
fb
0c
2b
13
1b
0c
19
09
ff
1d
07
f1
05
1f
07
17
1c
14
1f
0b
07
eb
f3
d8
15
f0
fc
f9
e2
f5
08
0f
f5
f1
d9
ee
f6
fe
17
05
01
17
24
15
03
03
f2
f9
f8
2f
07
de
ed
cf
0d
fb
f5
fe
fb
f7
0f
1b
0c
11
00
24
13
23
16
0a
04
f4
e8
e2
07
fd
e0
dc
d5
04
03
fe
09
00
e5
f9
05
f2
18
fd
0f
20
0a
26
fc
fc
0b
43
08
07
0d
db
05
01
0d
eb
f8
00
06
f7
04
ff
08
e8
e5
31
32
f4
e6
fa
00
e9
e3
c3
0a
0c
07
13
fd
07
15
ff
0a
19
fa
22
14
ff
02
f5
0d
27
ed
f2
18
14
05
0a
00
05
11
e2
f3
e3
ef
0d
04
f9
e9
01
fa
1d
00
fd
11
fb
0b
22
15
22
13
10
0a
f4
fb
ff
fc
fd
e8
d8
fa
17
f3
e3
f0
ed
22
0c
1a
1d
03
f2
15
15
1a
e3
0a
0e
25
f7
e9
00
ee
ec
f8
0e
fa
ea
f2
f6
07
fe
01
0f
f9
01
e9
0d
26
06
00
f6
ee
f0
fa
f7
f9
01
f3
fd
08
10
0c
05
08
0c
0b
fa
f5
00
04
1e
f7
02
fa
0b
0a
fa
f8
c0
ea
13
0b
f9
df
d5
09
fe
11
0f
f0
fd
1f
06
0f
11
fe
09
1b
ec
f7
05
f4
ea
db
fb
00
fb
04
03
fb
fd
f8
08
1a
0a
e5
09
1a
05
12
04
18
11
f8
04
fd
f8
f0
e4
10
0b
f8
06
df
ee
09
f0
00
06
e2
1d
01
04
20
0d
03
06
03
12
fd
17
1a
0b
ef
fe
fd
08
02
f2
0c
0f
e1
ea
f3
08
0c
05
ee
09
fe
ef
01
16
fd
0b
f7
00
09
f9
02
fd
eb
09
0f
f3
fb
ec
eb
f4
02
0a
11
13
0b
18
1e
1d
1f
1c
20
1d
e9
e2
11
04
07
e6
f8
07
06
f4
ee
f6
20
00
15
11
12
09
fc
0b
19
0a
f6
05
06
f8
f1
11
09
f6
fc
f5
2c
1a
12
0b
02
02
0d
ff
e0
09
e8
f4
2a
13
2b
02
07
18
19
23
f7
0a
0b
2f
0b
15
f6
f2
01
17
f0
f6
d9
e0
00
00
f3
f3
00
06
e9
00
05
25
3f
06
19
1a
2a
00
1d
09
f6
20
1a
ef
dd
e0
df
00
f4
f5
fe
ee
f3
f0
fb
18
0d
0e
02
f9
08
00
03
08
07
ed
f2
06
f1
04
ec
e1
0d
11
fd
f4
09
16
1d
19
25
00
23
ff
08
03
f4
f9
07
01
13
0a
ec
01
df
ea
f0
ff
d9
08
d8
df
ea
0b
06
0c
fb
dc
11
15
fe
f2
fe
21
15
0d
ff
10
ff
09
ff
07
0b
ff
00
fa
f8
2f
10
11
12
00
13
03
0f
0f
02
f8
f9
f2
cf
f7
ff
ff
e8
ee
0c
19
2c
15
ff
f0
27
f3
17
0b
f9
18
ec
09
17
06
01
f4
ea
fe
fd
ff
f1
ed
1b
1e
2d
0e
08
f9
15
21
21
15
1b
36
40
f8
04
07
1c
2b
f4
02
ed
f7
1e
0e
d8
e0
00
e7
fc
e0
e0
ed
0d
00
04
ef
ef
f2
fd
04
f2
f4
0a
0a
19
04
11
13
13
08
f7
f9
07
07
fe
fc
ec
2a
d5
f2
ff
02
05
f2
17
0d
01
08
03
1e
35
13
fc
c9
e3
1f
18
16
f6
fb
1b
1f
19
f2
06
e7
f1
f9
ec
00
f4
0f
0b
24
32
2a
07
fd
fb
f7
07
1d
10
dd
e8
fa
1c
2b
f8
fe
f7
15
0d
06
11
06
0c
f4
14
0b
f1
03
19
f6
f4
fb
0d
1c
1c
20
13
ee
07
0e
00
ff
fe
f0
f3
f9
f9
05
0e
eb
f3
ea
fa
f8
04
15
00
ee
d5
11
00
06
ff
05
f7
ff
11
19
18
01
00
f8
12
14
ec
f4
f8
0d
12
f5
fe
f8
f8
01
13
14
fc
fd
ed
d9
ef
ff
22
0f
e8
f6
12
1b
16
f3
0d
1e
0c
f8
f7
00
05
0c
f2
00
06
07
08
f6
e7
f9
08
18
25
f7
0f
08
f2
f3
21
13
df
f6
de
07
f7
00
f8
de
23
0d
0c
f0
ba
e2
fd
0e
fa
05
f3
fb
02
f5
11
f0
ee
f3
02
f0
ff
ee
fe
08
e8
0c
fe
02
f3
f3
fa
21
1c
14
f4
14
07
00
f9
04
f0
fd
ee
09
11
07
07
f9
f8
df
06
f7
fb
fc
fc
fc
0b
e4
04
02
00
fa
17
11
0d
0a
f3
fa
ea
d1
0f
f8
de
db
e7
fb
00
f8
ed
e6
10
19
17
21
05
45
18
ed
01
03
f3
f2
f8
fc
0d
0c
f8
11
f1
09
16
f4
05
1c
0a
f5
fa
10
22
13
ec
fb
1a
23
1e
f9
00
07
f2
00
f7
de
f7
e0
01
07
12
fb
00
f2
ff
fe
0b
06
12
00
e3
10
ff
0c
0d
12
0a
0d
f8
04
17
ff
01
04
05
0a
f6
f7
ee
11
ff
03
f9
fb
f1
eb
fd
f6
04
00
07
fd
0e
1a
fc
00
e4
fb
e9
ef
00
eb
e6
e4
d8
f5
ff
f0
d9
f9
15
10
2b
14
e9
0f
ed
24
06
f3
f5
f3
fc
fc
03
f3
ff
f8
fb
f5
ff
1e
1d
02
fd
0a
0f
12
12
05
0b
ef
ec
f6
f7
02
ee
f4
f8
0f
12
f2
fa
e6
1c
11
05
f6
fb
e8
ea
ed
0e
fc
eb
c6
ce
08
ff
29
05
e6
dd
ee
1c
00
09
d6
e3
ee
10
07
0e
11
04
0b
fe
10
f9
06
fb
f6
ef
0b
0e
f5
e8
f2
e5
20
0e
06
db
bf
14
00
0c
05
14
04
e5
00
f3
05
f7
f4
f8
fb
fb
fd
0e
16
04
e9
09
10
fa
fe
ee
df
e8
1b
1b
1f
fb
06
15
0a
00
08
2c
06
14
00
f0
08
02
1e
12
ef
0f
04
0d
d2
e6
fb
0e
00
06
f4
f0
19
0d
06
f9
fc
0f
05
fa
ed
ef
08
1b
fc
03
0d
00
02
fa
06
f9
0e
06
f4
01
ec
fd
0b
0a
e4
f6
07
1e
03
0b
16
0c
ee
f1
10
0b
f2
ef
fe
18
14
0a
f4
e3
f1
f3
fd
20
09
e7
09
21
07
ee
19
0b
da
e7
07
f5
0a
04
1d
25
ec
17
fd
f2
dd
f6
04
ed
e4
dd
fd
0c
e5
fc
12
00
13
07
fb
ef
09
fd
19
0c
01
e7
25
15
02
e6
03
ff
f0
e9
c9
04
f5
e9
f9
00
f7
01
03
0e
09
08
0d
fd
fd
f3
f9
14
03
0b
f9
1c
1f
ed
fa
f3
ff
f7
05
08
ff
00
03
12
ef
e8
03
18
12
04
0c
ee
f4
e0
2d
15
d9
05
f6
10
f2
14
e3
cd
07
20
ee
ef
ff
1a
0b
e2
f7
0e
01
e5
13
2b
f3
ec
cb
f7
fc
0b
0a
fb
00
f8
16
13
23
00
0d
06
e8
dd
fb
0d
0e
e8
e7
01
06
11
02
f8
10
2c
f7
ed
e9
fc
09
17
fb
00
e3
ff
0e
07
f6
fd
0c
0c
02
01
00
f2
f7
00
03
0e
18
0a
ee
ef
12
13
05
f0
06
0a
0b
06
07
06
0e
04
01
00
0a
d8
d9
df
01
0c
f2
dc
01
fd
0a
e9
13
10
fa
df
fd
0b
07
f6
0a
f3
f2
e9
ec
0d
0d
13
05
f3
05
e8
03
ff
01
e7
fb
02
06
e9
ee
f5
07
09
de
f4
0f
00
0a
ff
fd
d8
e9
f3
0e
0e
fb
00
26
ff
f1
0c
18
0b
07
ee
f1
e0
ee
1d
12
1e
02
04
00
0b
00
03
fb
0b
03
e3
fa
06
12
f9
06
21
02
f4
eb
fd
fc
e3
ec
02
0a
06
f9
02
0e
f2
10
02
04
f6
11
16
09
e3
08
14
08
03
eb
06
00
e8
1b
06
f2
16
11
1d
0f
f5
0c
e6
f8
e2
03
ee
ef
16
0f
1a
f7
fb
28
d2
dc
02
10
00
db
ed
fa
fc
fa
f7
00
02
ff
f2
f6
fe
f5
0a
03
fe
fb
f9
f4
f3
04
00
f3
f7
fb
f7
03
01
f5
f8
00
01
f8
f4
01
fb
07
02
02
04
f9
05
04
fd
fb
f7
f5
f4
f7
04
04
09
f7
00
08
06
05
fc
04
f6
f4
fd
fa
f9
06
08
02
02
08
08
f7
00
fc
fe
03
f7
f6
03
00
fa
03
fb
08
f8
fc
f9
09
fa
02
f5
fb
f7
08
08
fb
fd
0a
0a
f4
f9
fb
06
00
fc
00
f2
03
f2
01
fe
fd
04
06
f4
03
04
fa
f3
01
fd
fb
04
01
f6
07
06
f9
fc
fd
f5
fb
00
fc
09
f5
01
04
07
02
03
09
fe
f8
f9
01
f7
0c
02
01
fa
f7
f8
f5
08
f3
08
fe
fa
f6
fc
02
06
00
0a
fc
fc
02
f7
06
02
fd
08
00
05
02
08
08
09
f3
f7
f7
fd
06
f8
f4
00
03
f5
f7
08
09
01
0e
f4
f5
08
fb
0a
00
06
06
05
08
04
fd
05
f8
05
00
09
f8
03
01
f3
fb
09
00
00
04
02
f5
fb
07
f8
02
f3
09
fd
00
f4
f7
fb
07
fb
fa
00
fb
f3
04
04
fe
07
f9
fc
f4
09
06
09
05
00
09
08
09
fe
03
07
00
f6
fa
f4
0a
00
05
f6
f3
f3
fe
02
f2
00
f3
f7
fe
f5
ff
fa
f5
f4
fa
f3
07
08
ff
03
fd
09
fc
02
02
00
f7
f7
00
04
f6
00
04
ff
f8
04
fa
f9
f2
05
07
02
05
04
fd
f3
07
05
0b
f6
f9
fb
f9
05
f4
f6
f5
f6
fe
f4
01
09
fb
f6
f7
f5
08
fa
00
07
fb
f6
fc
08
f8
f5
04
00
fc
f7
07
06
fa
fd
06
ff
05
00
00
09
01
09
f4
f4
fe
f3
fe
fa
fc
04
f3
02
03
f9
03
fa
f4
fe
fe
f9
f9
00
ff
00
0b
09
04
fa
06
f5
05
03
fa
fd
f5
06
f6
f7
fa
03
00
05
f4
02
f9
fa
f4
fa
08
03
0b
fa
06
ec
12
04
05
0d
f7
00
06
f0
0c
09
ff
00
fb
ec
ee
f3
fe
0c
f2
0b
13
00
fb
0e
02
04
f9
eb
ef
f1
0e
f6
f6
ec
02
f8
ec
f9
08
1c
1f
16
f6
f9
15
0e
fa
f0
f8
00
00
fb
07
fb
fc
fb
f5
00
f8
2a
2b
1a
03
fe
2e
06
fc
f3
02
f5
fa
15
0b
19
05
12
0d
08
f6
f7
f7
10
12
0d
0f
09
e2
ff
1e
06
f7
f5
ff
20
0e
04
00
03
02
0e
0c
15
1a
01
0a
f3
12
05
d3
2a
fd
ef
19
0a
ef
f7
0b
0c
34
e1
03
00
08
00
fa
ff
10
00
17
19
15
0c
16
26
1f
f8
df
f8
11
ec
06
05
06
19
01
0a
07
f2
04
06
0c
f4
de
fd
0e
ee
f5
fd
fb
33
e1
04
0e
03
f2
d9
f7
06
13
b9
00
ef
f2
03
f9
1c
04
04
f7
05
0c
07
f0
07
1d
10
1e
07
2b
14
11
02
0f
02
fa
ea
f1
e8
25
0a
25
24
f9
09
0f
18
0a
fa
00
f2
f5
d3
f3
09
01
e2
ed
f4
0c
1a
11
08
fa
13
00
13
13
02
22
0d
14
06
fb
0a
fa
f5
ee
e3
f9
f7
f9
13
e7
0b
17
07
e6
0f
0d
0d
f1
fc
22
03
ed
fe
fd
1e
2b
e3
06
f5
f7
fb
0f
ef
e9
ff
f9
05
ff
e0
03
1a
06
fa
07
fd
0b
04
fb
0e
0c
f9
13
00
05
ff
e8
1f
00
0f
f1
ff
08
fc
f1
fc
1d
dc
04
03
00
0b
09
1f
28
05
05
00
21
18
f3
de
d6
f6
14
1a
00
00
05
10
1a
0e
f8
f8
03
f4
0c
fa
06
10
01
08
2e
31
1e
03
e0
08
0e
09
00
ff
e8
ed
f7
06
14
f2
05
06
1a
0e
0e
1b
f7
05
e9
14
0e
06
f4
f6
0b
01
08
f9
0c
20
08
fd
00
f0
00
f7
e8
e2
fc
ef
04
01
0b
2c
f8
00
03
f1
ff
18
02
f0
d4
dc
1a
ed
dd
ef
02
f2
f8
14
07
05
e7
f6
0a
04
12
f9
f0
ec
01
00
1c
fe
0c
f1
04
1c
10
f3
fe
05
01
f6
ec
e7
04
11
fa
06
09
f9
04
fd
0a
f8
0a
06
00
0a
15
18
0b
f3
03
21
12
06
0d
f1
f0
f5
08
07
fc
fe
fd
f4
00
fb
08
00
f6
05
09
07
04
ee
23
24
12
12
08
14
fb
e4
cb
13
ff
fb
04
dd
f2
0a
0e
09
03
f1
00
f6
05
00
10
fb
17
22
f8
1e
f1
dd
cb
c8
1d
fb
04
ef
e1
fc
19
1c
19
fc
f2
09
14
ef
f7
09
21
21
0e
05
15
1b
fd
d6
cb
0a
fd
fe
f0
d4
fb
04
0c
ec
ea
f9
0d
07
f6
fa
1a
0a
07
06
ed
2c
16
ca
cb
08
06
fc
df
e0
ea
f0
fc
ff
ee
07
ef
08
f3
f0
f8
13
26
08
ff
07
0a
17
f9
f2
d6
0d
1b
02
ee
df
f0
ed
05
05
11
f2
0c
08
0e
03
fc
0e
f7
03
0c
04
14
05
f5
16
07
06
02
0a
00
ef
10
fc
fb
00
0c
15
f1
fc
fe
16
07
d9
0e
0b
ff
10
16
fa
01
03
19
04
18
f8
ef
09
11
0a
11
fc
00
12
14
22
15
05
fa
00
01
13
1b
04
11
23
e7
ed
f1
f0
f7
ee
fc
00
07
f7
e6
df
13
1a
f8
f8
f2
03
e9
14
00
00
0a
08
ea
09
ed
f3
f6
fc
ee
04
f2
14
09
ff
01
f1
f3
f7
0c
06
02
09
08
e0
fb
1b
1d
06
e1
ec
06
07
14
1c
08
13
01
19
32
05
21
03
05
12
06
06
ff
fd
f1
ff
00
03
00
dd
f6
fe
fe
02
02
fa
09
0c
f1
10
0e
2d
29
e8
01
14
20
0b
ea
ed
03
f9
05
05
f3
0c
fe
11
f3
00
f4
00
f9
0c
08
0e
07
ef
02
0b
20
05
07
0f
fb
f7
f2
00
1a
fa
fd
fe
13
21
ea
ed
df
00
0a
ee
f1
fa
13
0e
05
f0
e6
fe
1e
0a
fe
f7
07
f2
f6
fe
05
ff
08
03
06
fa
fb
f3
fd
fa
f4
f5
f5
f4
fb
fa
04
03
03
05
05
03
01
f7
01
ff
fc
08
02
f4
f4
04
fa
fa
fe
01
04
08
fc
f5
00
f7
f6
08
05
05
f2
ff
f5
03
00
00
f7
0a
05
04
04
f9
fa
f6
08
00
f9
f6
fa
f5
f9
fc
07
f5
00
f1
09
00
f5
05
f8
00
05
0b
f7
09
f8
fc
07
06
f5
08
fa
05
fa
05
08
02
f9
08
01
07
01
00
00
f0
f4
f8
08
07
fc
0a
f9
08
01
00
0a
02
fc
0b
00
07
ff
f1
f4
fa
07
0a
fb
05
05
00
09
09
f7
fd
f9
f8
f7
02
fa
f8
f2
f3
f6
fc
03
00
08
ff
06
05
0a
f7
f2
01
08
07
f8
05
00
f5
09
f4
05
0a
f4
f4
ff
07
fd
03
ff
f5
f9
06
f8
01
f2
02
07
fd
fa
ff
f6
fb
f7
08
f6
03
0a
fd
fc
02
05
05
fb
06
00
00
02
f8
00
07
fa
f8
02
fa
03
fb
06
06
01
f4
02
04
01
f1
f5
07
01
06
fb
f5
f0
f8
fd
f4
08
fc
fa
fa
fa
f7
06
f8
06
f6
09
fc
f8
fd
07
00
fb
08
f0
f1
fa
fb
f5
04
f8
f7
02
fb
02
00
f5
fb
fb
0b
f6
f3
f8
08
02
f7
fe
ff
07
f9
f7
f3
f9
fb
fc
01
0a
f7
fc
0d
f3
fb
f8
f4
fa
f2
fb
08
05
fe
05
04
fd
fe
f3
05
fa
f3
f1
04
fe
08
03
fc
fe
05
09
ff
08
f3
07
f9
f2
fd
f3
ff
02
fd
f5
f1
05
f6
00
fd
06
ff
f6
04
fe
fd
00
00
f8
fb
f6
f1
f6
fa
08
fb
fd
fa
fe
01
00
fd
05
fc
07
fb
fd
02
04
fc
fb
04
09
fc
fb
02
00
f2
f6
f7
f6
ff
f8
09
f5
fc
00
fe
f7
00
f3
fa
f2
f8
fe
03
01
00
09
0a
01
05
06
fb
f4
f5
f5
05
f7
f5
ff
f4
08
f5
fa
01
f9
00
10
fb
f5
17
0a
0f
fc
e8
f2
00
f5
07
f9
f9
08
00
ec
ec
08
08
f2
ff
fc
fc
04
ff
01
f8
f4
00
00
09
06
ed
04
09
fb
fa
13
16
03
e1
e9
18
ff
09
0c
0d
ef
e3
e9
03
ef
cd
e7
07
16
fe
fe
20
fc
f3
f1
16
f6
ce
d1
e2
00
02
f1
fd
00
01
05
01
02
08
fe
0e
fe
f2
f5
02
f6
09
11
00
fd
f1
e1
e0
e9
e5
e7
ec
f8
14
ea
f2
08
1f
0c
df
e2
14
f7
f6
f9
fb
fb
0c
0a
e3
d2
cf
fa
f3
00
0c
03
05
17
ec
fd
04
