e6
1b
1b
10
eb
f0
0c
19
f6
20
fb
04
f1
f7
06
d2
06
e8
fb
d6
11
fd
d4
dc
01
10
f4
13
1d
05
f8
0b
09
dc
11
f9
05
16
11
12
f7
12
f0
00
12
e5
ed
ef
00
f2
09
ef
be
05
1b
12
24
f5
00
02
fc
1c
fc
fb
f3
25
1f
fd
f2
f4
1a
fd
14
fc
f8
ea
00
f2
d2
f0
1a
17
f5
e5
e3
05
00
f2
f9
fe
f8
13
f4
d9
05
ec
ff
01
06
f0
e0
eb
02
f8
f1
e8
fd
fe
20
fb
f8
f7
16
0c
ee
d3
e7
00
18
dc
12
e4
0d
fb
29
ff
fd
dc
0b
1a
e7
f7
1b
e8
fd
ed
1b
15
ff
fd
0b
04
08
f9
fe
0c
04
24
ee
02
fb
fc
1d
0a
0d
0f
07
f6
0f
fd
f5
f0
17
fa
06
e7
10
fc
de
fb
07
21
1e
f6
f1
ed
1e
fc
0d
ea
f3
e7
f6
00
fb
dd
e7
ef
19
13
24
0f
07
eb
01
0e
e1
0b
fe
17
00
05
fc
14
da
00
15
14
f0
12
fd
f5
f3
0f
ed
0f
f5
05
0e
e3
0c
fd
02
0b
f3
23
15
e3
08
ea
d7
11
05
0e
0e
fa
18
0b
0c
08
e8
07
f8
01
e8
e3
03
e8
eb
f3
09
ee
f9
00
01
f1
0e
f5
02
10
0a
f3
10
eb
11
fe
01
04
ea
f5
e8
fe
f4
fe
04
fe
ee
02
00
e9
15
e6
0f
11
02
fb
07
ee
ea
fc
eb
f0
07
ff
06
0a
00
ef
f2
e7
0d
f4
07
e9
eb
06
0e
06
09
ff
12
ef
e8
09
02
f5
e4
f0
16
11
03
f9
fa
fa
07
0b
f8
ed
05
eb
04
06
11
ef
08
f6
00
08
f6
e6
0a
ed
0f
05
e5
09
ed
02
0b
00
06
fc
e4
0d
ed
f5
f1
00
0a
0a
12
1c
e6
04
f9
00
fb
28
05
03
18
f9
fc
21
0c
16
ef
d4
ef
fa
e5
07
ea
23
f9
e8
e7
f5
0c
11
0a
fe
f8
f6
0a
f4
18
17
e5
f9
fe
02
f9
0b
e9
15
22
20
fd
02
01
e9
02
06
14
05
03
ec
16
1d
08
0f
fb
d8
14
32
21
3f
04
12
08
04
16
30
01
ff
1c
1b
f8
fe
1d
f2
fb
0d
21
e8
0b
e2
19
ff
f6
ed
1e
e9
0f
fc
0b
04
e5
f0
26
07
01
f5
05
38
e4
21
f7
fa
f8
0b
fb
f0
22
0e
f8
09
17
09
14
f9
22
f8
3b
09
09
01
16
0a
1e
09
07
14
0c
fe
0f
14
ee
f6
00
09
17
ef
12
02
1a
19
f2
f9
0f
0a
14
15
03
ff
e8
10
f3
21
12
fe
07
c8
25
1b
ed
f4
08
dc
0b
07
07
09
f9
01
05
03
f2
d9
fd
fb
04
08
f2
06
f6
0e
1f
0a
1d
1f
fd
e7
f8
ee
e5
f9
02
f2
ed
1a
f4
0b
0a
16
0e
26
1d
e7
0b
1f
15
f6
f6
29
19
26
0b
14
ff
14
0b
12
ea
bc
fd
12
f3
df
1a
26
1e
01
ea
10
f4
09
20
0a
ef
04
f5
fe
0f
0b
fc
f1
ef
0a
13
f5
d9
17
f4
d6
18
13
fb
eb
11
fb
fb
e8
f9
e2
f3
e7
e6
19
14
ea
f8
14
f2
fb
e7
eb
f6
20
0a
11
02
f7
1c
ee
2a
da
02
20
0c
03
f0
11
18
0b
0a
fa
0b
e3
ea
02
f7
00
00
f4
09
fe
ef
1d
ef
35
01
fc
f3
02
00
07
ee
13
e0
f8
12
02
fe
18
19
00
07
09
e8
2f
f1
17
eb
23
f2
10
1e
ff
0e
02
06
19
07
00
00
06
2a
d2
00
0f
e4
f3
1b
fe
fe
09
fa
fe
16
0e
fa
f8
2a
f0
18
ed
0e
ec
25
19
1c
0b
f8
f0
fa
eb
00
1f
f5
fa
fd
dc
04
ca
1b
0f
1d
fc
05
17
17
28
e9
eb
ff
21
e7
26
05
01
01
0c
1c
16
01
08
f3
cf
fb
07
00
f0
f4
09
f8
00
e5
f6
fe
25
14
14
f6
fc
0b
1d
20
10
0f
e9
fe
f4
eb
06
ec
e4
2a
ed
01
f4
0f
1d
f6
17
06
28
29
f3
00
00
18
e7
f5
03
0e
0c
f3
f7
fb
15
ed
d9
05
e1
26
07
ee
20
da
17
11
f8
27
20
f8
18
25
fa
0b
0d
db
12
ef
15
02
0d
12
f8
34
15
06
1b
ea
19
f7
06
08
10
d8
05
ff
f3
09
07
09
01
1b
ef
09
21
1a
13
f9
d4
04
17
fa
f6
04
12
0f
32
fa
03
ef
1d
17
df
f0
1b
eb
08
10
08
05
f9
fc
0f
fa
37
13
01
fe
1e
10
20
ff
02
0c
1b
15
f6
f9
0b
0f
eb
1e
f0
15
00
f6
13
23
03
e8
06
07
f6
14
02
06
f0
0d
f8
ef
05
e0
e0
fa
fb
fd
de
12
bf
f1
15
16
2f
f1
f8
16
12
20
04
d3
f9
02
fd
20
17
07
00
ee
ff
f5
d9
0f
e5
df
ff
0d
28
f0
2b
22
da
00
fa
22
fe
de
f0
06
02
00
13
f0
f8
12
fd
00
01
00
f6
f0
fc
e9
20
ef
03
00
d2
37
d7
ff
08
0f
19
ea
e7
11
0f
2b
fa
ef
eb
f4
0b
f9
25
08
ca
03
d8
41
29
08
ef
27
00
1b
22
fd
00
05
fd
fb
f0
ee
25
f0
ff
00
ea
21
15
10
0c
ff
e8
f1
00
00
0d
e4
0b
15
ee
05
00
12
10
15
14
05
ef
1d
ea
dc
f2
f8
fa
22
ef
14
ff
ff
f9
00
04
f7
13
00
f2
07
17
00
06
01
f9
f7
18
0f
0b
f9
24
0a
17
f5
07
2a
13
03
0d
11
ff
02
08
09
0d
e1
08
0d
1e
0d
13
e5
06
f1
ec
04
ec
df
2d
ee
01
fd
e0
fd
17
00
0c
00
0d
f3
10
f7
00
ed
c0
0d
00
f6
fc
dc
00
f6
06
f7
d5
da
0a
fc
ef
f3
1d
ed
0b
f8
e6
04
0e
00
fd
f1
f0
f6
ed
fe
06
31
fa
ff
f3
1b
e9
08
fa
04
16
ed
18
0c
f0
fc
f9
da
08
07
00
f2
0e
03
27
ed
f2
00
e2
f5
f2
0e
f7
09
0e
f9
fd
00
06
09
fe
f8
e7
f8
06
e5
e7
f5
f6
0c
ef
f1
ea
01
f7
0a
e3
fc
12
0e
02
fb
ed
08
f1
f5
02
f5
fb
08
00
fa
f4
f3
0a
fe
05
ee
00
05
ff
ef
0c
f4
00
0d
ee
f7
f8
0c
fd
ee
fb
02
e9
09
0d
03
00
ea
eb
f1
ef
f1
f4
fa
0e
04
fd
e8
fb
f7
ec
07
02
e8
f5
00
f5
f6
f2
e6
0b
0a
f9
02
04
01
f9
0a
ed
f0
eb
05
f0
e7
07
ef
07
f4
e7
06
15
ec
eb
e6
09
ea
eb
ed
fc
e9
04
ea
06
ee
0b
03
09
f4
fe
ef
ef
fe
e0
f9
ed
f6
f2
e0
fa
ed
e4
10
02
e4
ec
ff
fb
ea
00
06
fd
f2
0d
e6
ef
e2
e4
11
f0
0e
16
1a
ed
f8
e7
03
f5
df
f6
fb
f8
fc
00
ee
ef
09
f9
0f
f2
f5
e9
0c
0d
f0
e5
01
f9
f6
00
e8
e4
fc
13
e6
de
f0
04
e9
e2
ef
f4
05
09
e6
0a
e1
03
07
0f
07
0b
10
00
12
f6
f6
02
e2
e9
05
05
f7
ff
0f
f0
eb
01
0b
0d
f3
f3
ed
03
df
ec
eb
00
fb
f6
f2
f1
00
02
12
14
16
e8
2d
fc
18
f2
f7
1c
10
04
17
fb
f6
14
07
20
00
e5
d1
0f
1a
fe
ea
0e
0c
1a
13
03
19
07
1f
f0
f9
f0
f8
ff
d5
37
09
22
f8
dc
01
23
00
f1
f1
09
26
f7
0d
fd
f3
0f
ed
06
f3
eb
d3
e4
24
f8
e4
e8
1b
00
f7
1b
ff
09
08
f6
2b
19
fa
02
1b
e6
e0
f1
f1
f1
ff
fc
0e
0e
f4
04
04
f4
e0
0c
d8
f6
12
f4
fb
17
0f
16
03
2f
de
03
f3
15
e1
f8
ef
f6
18
ed
0a
cf
02
f1
f2
12
0f
0b
03
10
e7
17
02
01
ef
13
0e
1e
08
23
02
f8
24
16
e9
23
14
1f
12
ff
ec
f1
21
d8
00
09
1b
ed
2c
d4
09
f9
f3
2b
ca
fe
00
eb
00
f6
28
00
18
0a
f4
07
2f
fc
22
f0
f6
cc
07
15
ef
f9
c4
d2
11
02
0d
f5
e3
f8
f3
07
09
1a
0f
f4
f0
03
f6
fb
d8
26
14
16
09
10
0a
0d
df
04
fb
f1
07
ef
12
ec
ff
ef
0b
eb
f4
40
1d
ea
fa
03
23
ec
04
01
00
17
fe
fe
f5
0f
f0
09
02
12
ec
10
ea
f4
eb
10
e7
0d
f0
07
09
00
11
0e
07
08
ff
13
f3
de
f3
10
14
ee
08
06
0c
02
f5
ed
f8
00
0c
f6
0c
f6
f0
24
f0
29
cd
d9
12
eb
13
fe
03
11
ef
ee
00
02
f3
00
f6
fe
02
ff
ea
0c
15
12
ec
fc
04
14
19
2a
07
02
e0
e7
0a
28
fd
03
02
e4
08
f5
02
fd
f5
01
f6
09
ff
0d
13
0c
f9
02
00
ee
06
09
0b
e5
fa
f1
04
f9
e1
f3
ec
fa
21
01
0b
f7
e9
08
24
04
16
0c
25
1a
02
fd
0b
f9
ff
20
f5
f8
09
18
19
12
ed
00
03
1e
18
e5
fb
f3
10
f6
f8
12
f5
f5
01
fa
fa
fc
f1
06
f6
06
08
00
f7
00
0d
02
f5
07
da
04
e7
1e
06
12
1f
ee
10
f6
f4
01
ce
00
07
25
14
d9
0b
fe
ef
18
d9
f9
f5
06
d6
fc
0e
1c
f8
e7
27
25
01
fa
0d
0b
ec
0a
11
ef
ef
0f
e8
fe
08
17
27
02
f4
cf
30
03
1e
2a
11
ff
11
fb
20
fb
f1
fe
d5
00
0a
01
e7
ea
e4
15
03
00
03
0f
fc
09
f2
f2
0e
e9
04
f0
00
ee
02
0c
ed
01
f2
08
f6
fa
fd
00
f1
0b
e9
fe
fc
08
ee
fa
f2
f8
04
eb
fe
14
0e
0a
f9
f1
e4
ef
f2
0e
0d
f9
f6
f3
02
e9
00
05
ef
ff
10
f1
e6
ed
05
12
f7
0f
05
07
0b
08
f0
f3
f5
f2
0a
fb
0e
f5
01
0c
f4
f0
ea
fe
e6
00
e7
f2
f9
ea
e6
f7
f3
f8
f3
f0
f5
e6
0d
e7
02
fc
e8
02
04
fb
f7
ea
15
e8
e2
0b
fc
ee
f7
e7
fa
f3
0d
ff
e9
fe
08
08
fd
f0
f1
f1
fb
eb
03
fa
ff
f2
02
fb
09
f9
0d
f8
21
03
01
eb
0a
01
21
06
10
ef
ff
12
0d
19
f2
f3
f9
15
ed
f2
ea
14
12
0f
ee
fc
fc
f9
14
c7
ee
16
11
03
fb
0a
f5
01
0c
0f
ec
f8
0f
12
e4
f4
01
da
00
09
fc
fc
c3
df
03
fe
09
e2
fd
dc
f8
ea
c9
22
ef
f0
f9
e3
14
1a
e5
03
10
22
0d
06
f5
26
11
14
12
1a
0d
1c
fc
fd
e9
16
12
22
e2
34
1b
0b
00
e8
08
13
fc
10
fb
13
ef
09
12
0b
e4
07
f2
08
f9
e3
f9
08
f1
11
0b
f3
0d
e3
f8
e0
e5
1c
ec
0d
d1
12
f2
e7
fc
20
06
f3
d9
ef
fc
fb
ed
02
08
02
08
df
10
fe
05
df
11
fd
06
17
e9
fb
f8
08
06
ff
f8
f0
e8
f8
f6
09
10
0a
fa
ce
0f
f9
ec
0e
03
eb
0e
03
fa
00
f9
f4
14
05
f4
f1
07
eb
e5
14
f4
f1
04
f7
f7
02
0d
10
0e
00
ec
f5
f0
03
da
f5
f8
fc
00
dc
00
0d
dd
ee
e4
ed
07
fc
dc
fa
e8
f6
f8
f1
0a
f6
eb
f7
0b
1b
e9
ed
ea
16
fc
1f
f3
14
06
07
01
0a
08
1c
06
f3
28
d4
f9
fc
e7
08
f8
1e
ed
f7
04
f1
f0
e6
f5
10
0e
2b
19
16
fa
0b
fe
0a
f2
f3
de
f5
e7
26
12
20
0e
10
17
e9
14
01
ba
f7
de
30
fb
26
fa
01
e8
23
0e
f1
f4
0e
e4
12
02
f5
0c
fb
12
1d
06
02
1f
18
f4
00
30
cd
f1
17
14
0d
ef
ea
1d
38
f2
e8
11
e3
e0
21
f6
02
00
05
29
d4
e6
fa
e8
19
ff
04
fc
05
01
e1
13
18
03
12
18
ee
fe
ea
2a
04
fa
fd
13
00
ee
ef
1f
f3
ec
0f
14
d9
14
dc
f8
e3
06
11
f9
18
00
00
10
ec
e3
fd
12
0a
ed
14
fd
ef
f8
fb
03
1f
06
05
e1
e1
fd
f4
e9
e0
0b
2e
15
0a
ea
f7
fe
ff
f6
f9
0c
0b
10
f6
f5
ee
eb
c4
1b
13
1f
e4
e9
f3
07
17
08
00
22
0d
17
f2
11
fe
0e
de
00
16
f5
fc
ec
e6
fc
13
07
00
23
e9
e4
06
da
00
fa
f4
00
c1
19
eb
b7
1e
cc
db
18
f1
04
e8
f1
0e
0b
00
e2
f1
06
02
0b
02
09
f3
08
0a
e5
0c
fa
00
16
f4
fb
eb
f4
08
e3
f1
0a
fd
0d
f6
ea
04
ee
f3
0e
fc
eb
e9
ee
e5
f9
e7
f1
e6
fc
00
f1
10
fb
08
e3
00
ff
f6
ed
0b
f6
09
00
11
09
fd
fc
02
11
07
f0
eb
0e
e3
ee
f6
f9
eb
fd
04
e8
fb
fa
09
06
f0
06
09
e9
e8
ee
0d
f8
07
f0
f2
0a
13
00
e0
14
f3
eb
ed
f6
fa
09
ff
f8
f1
f1
00
0b
0a
ed
07
e6
00
e8
f2
ef
01
f1
ef
ee
f1
ef
09
0a
1e
14
14
08
f4
09
f0
f6
09
19
03
ed
00
0f
e7
08
fb
f9
0a
0e
05
ea
10
fd
d8
dc
f4
fc
f0
1c
ee
f6
13
ee
09
0e
14
eb
36
14
0d
ec
10
31
0f
08
16
f0
ef
01
00
02
f7
20
f9
fa
f4
19
fe
0c
22
f4
fd
e7
e7
0e
36
fd
22
02
de
05
2a
fd
12
27
d9
14
ed
1e
18
ec
25
e2
1d
fb
20
21
fd
f4
0c
ee
18
ea
f8
fb
1b
f5
f1
0d
10
ed
f3
ee
ee
1f
2f
0d
f0
e6
f1
01
fe
1c
08
fc
03
17
23
1a
0f
f2
f6
f5
0f
04
07
f9
18
29
f4
10
00
ff
02
11
fa
16
fb
e5
f8
f5
15
03
ee
e8
dd
10
f8
e8
ec
00
f7
eb
ef
f4
00
fa
ff
ec
17
f9
1d
16
d8
21
fe
f4
1a
f6
03
1a
fd
16
f2
e4
01
0a
27
ef
47
06
ed
f2
1a
24
fb
fd
24
06
21
27
eb
ec
fd
12
e4
0b
00
f5
fc
fb
1c
0b
ea
eb
05
17
05
17
00
ff
03
ed
fa
0a
05
db
0f
ef
12
10
01
1c
fe
f0
1f
ff
15
ea
eb
07
f3
15
00
1d
10
20
1c
fb
fd
fd
02
f2
06
19
15
fe
0e
02
07
ff
f0
03
1f
06
29
19
0a
11
f1
2e
0a
17
16
09
11
12
05
19
17
f5
f6
0a
02
1c
f9
f1
04
12
0c
ec
0e
e3
22
f4
f5
fc
00
20
06
f1
0f
ea
f3
14
fb
00
1b
02
d7
09
21
16
0d
d5
06
fd
05
dd
ca
ef
23
f2
f5
0e
0e
09
0d
27
e2
0b
00
f2
10
fa
fd
02
16
05
17
15
04
0f
e9
0a
0f
07
f9
10
f8
ed
fd
0c
ee
07
07
fb
fb
16
f1
0b
fe
ff
ff
e8
ff
14
fc
1a
e3
1f
03
10
07
0e
d1
04
15
fd
fe
fb
fb
04
f7
12
d2
f3
f1
f1
f4
1b
db
0f
00
3a
1b
02
0e
0b
19
ff
30
eb
0b
0e
f1
da
00
05
27
f1
d1
d9
df
1d
07
09
f8
15
23
09
f8
18
00
dc
0f
e8
00
f9
03
0f
fb
0b
ff
07
0f
0d
fe
0a
fa
f5
ff
f0
de
10
00
0b
06
11
d4
16
3b
ff
07
15
09
1a
f2
13
ef
ec
10
0a
fa
0f
12
03
0a
0e
26
eb
05
f9
2e
10
06
df
fa
14
2e
0b
0a
16
f1
0b
15
17
19
f6
1f
02
f2
e4
f9
0a
f3
00
00
04
ea
10
12
05
11
1b
07
17
df
0f
00
f5
0e
00
19
00
fc
ee
f1
fc
01
14
fe
10
20
08
0b
1c
1b
f7
ff
f7
ed
4c
dc
e7
0c
19
2d
05
e5
f6
ff
08
13
02
0d
e1
02
02
25
fb
15
e6
eb
32
e4
f0
ec
0d
26
1a
0d
19
0f
09
03
e8
f0
e8
04
0b
f5
f1
f4
fb
f3
ef
0c
00
e0
f0
03
ff
1e
f1
1b
23
fc
08
0c
09
29
11
02
03
eb
0c
13
fd
fa
ff
05
df
f3
f2
13
eb
f8
fc
1b
12
f8
10
f1
12
e3
1c
fd
f2
0d
fe
24
ee
f6
11
db
26
e2
08
f0
e7
d4
06
f6
f3
e3
10
f9
ef
eb
00
33
0c
fd
f9
00
ed
2d
fb
26
f1
fd
22
e1
1e
0e
04
1c
f2
05
12
f7
26
16
fe
f6
00
f6
15
27
f1
e0
06
f4
2d
02
01
11
11
22
18
ee
11
0e
02
d7
0e
01
ee
25
0a
27
19
00
f8
0e
0e
fa
09
0c
f6
22
fe
00
f1
03
eb
00
db
05
ee
03
1f
d0
0f
04
04
ff
d8
fe
12
00
0b
e7
00
1d
08
1d
08
ee
e3
07
f4
e3
ff
f0
f9
ec
f1
fc
eb
fe
12
ec
04
09
ed
04
f8
0e
fa
e2
13
f6
fd
f0
e3
f4
ef
05
eb
e8
0a
fc
03
06
e4
fe
ec
08
fd
f8
e7
f0
ea
f3
ec
fd
0a
f8
fd
12
02
14
fc
11
06
fb
ea
fc
0e
fc
14
fb
0a
f0
fd
ed
03
01
02
ec
fe
f6
08
f5
eb
14
02
01
fb
12
fd
eb
08
06
e1
10
06
fc
ea
ec
ea
ee
fd
f2
0c
f6
f5
07
02
ee
eb
ff
fc
ea
f6
e9
f7
e9
f6
08
f8
f3
f7
f4
0c
ed
1d
e2
fd
0b
f9
11
ff
02
11
16
de
f1
21
08
02
31
1c
00
12
03
1d
f6
10
22
fe
1a
0b
e7
11
05
17
fd
f2
e4
0b
25
17
0c
f3
df
f6
11
09
f6
c9
13
ee
13
08
01
15
16
18
f8
fc
ff
df
f3
dc
02
0c
d3
f9
1e
fc
fd
d6
e3
18
ec
db
dc
f3
f7
05
db
f8
39
f4
f4
f8
fc
fe
f8
15
dc
f0
fc
f9
f6
18
0a
02
25
03
f8
f5
e9
fa
0d
07
0c
eb
14
29
cc
f3
f4
ce
20
1c
ea
20
f5
f1
12
16
09
09
ef
05
09
fd
00
2a
f4
09
e6
21
e6
20
09
ea
1e
f0
fa
10
f7
09
0e
fc
1d
0a
d1
f0
e1
25
23
0d
0a
f5
13
1e
37
ee
03
fc
f7
e0
25
12
08
01
d0
28
0f
16
ff
fe
f9
e2
f8
12
f8
ef
01
02
04
ef
eb
ec
1b
03
02
03
06
11
2a
01
1d
34
1e
1e
e1
f1
f1
cb
0e
f5
0c
06
f7
01
23
17
05
f5
14
0d
10
fa
29
12
ef
fb
04
14
27
d9
0f
ec
18
00
14
f4
1b
07
fd
14
e3
04
25
08
eb
02
1d
fe
24
09
16
f0
0f
08
06
12
15
f1
1c
f2
e9
1f
05
e5
18
f4
1e
fd
0f
f9
04
cc
17
f8
04
ff
fb
d3
0d
ef
ff
0e
24
df
e0
05
16
14
f1
f8
e8
13
eb
0a
0e
c7
1b
19
e8
1f
39
d8
ed
e0
0f
15
15
18
03
f2
0a
f4
f6
fd
da
0e
25
ee
1b
e2
f7
e9
06
1c
0a
fa
bc
e7
24
d2
f1
da
04
09
bd
2c
e3
d9
b9
e3
f4
ff
27
24
c0
0e
e0
06
fc
14
2c
0f
00
ed
1d
12
4d
e8
03
24
f3
24
15
00
ef
f0
01
fc
24
0b
e8
0b
04
0c
00
f2
07
f8
18
18
f0
06
f4
14
1e
0e
0e
fd
ff
fe
17
ee
0a
01
ec
ef
f8
23
08
0c
f1
02
33
ff
11
14
04
f3
02
02
03
0d
f4
00
ea
fc
0d
f9
fc
1d
04
e2
03
ff
17
04
0e
32
00
f2
04
04
07
0e
d4
06
20
30
12
18
d7
0f
fc
f6
09
05
f0
d3
2c
fa
fb
f2
e7
f6
0e
ee
f5
07
f8
f8
f6
00
22
fa
d1
0d
e5
0a
17
00
ff
f8
f2
f2
20
00
32
f3
04
f1
05
13
0d
07
00
fe
0e
f1
05
0d
e9
0d
03
18
fd
03
02
f7
14
08
f8
11
15
fb
f9
eb
0e
16
24
01
fb
07
13
e9
07
10
28
dc
1a
11
f1
d8
fc
1b
fd
12
1c
09
f9
16
05
fe
ee
fd
fd
fe
11
e2
fa
0f
03
0c
f8
0d
f6
df
f6
0b
fb
e8
ec
f7
00
02
07
f1
de
e7
c9
25
e5
e2
f7
14
e6
0b
f4
ff
0b
fb
17
19
1f
f2
eb
fd
e7
01
1d
fb
f7
0f
d8
00
10
e4
f3
ff
16
e5
06
f6
f0
0b
1b
1d
f2
01
0c
0b
0c
e8
0b
01
ef
d8
fc
e0
00
f9
f5
06
ec
04
08
f6
f5
06
00
05
f7
ec
ea
f2
08
07
f7
ff
f6
08
f7
e7
fe
f7
fa
f2
ea
03
f3
06
ff
04
01
fb
0e
0e
f7
ee
ef
00
fe
0a
eb
f2
15
ee
08
05
eb
f9
f9
06
e8
fb
f4
fd
08
ed
0f
10
03
03
ff
12
fe
f3
ff
13
e9
f2
02
f4
e5
f4
fa
07
e9
11
f7
f9
0c
0a
f5
e9
05
ef
00
fa
06
0e
0e
00
0e
01
fb
0d
0e
f0
04
f4
04
f4
f9
09
01
ea
f3
08
02
f7
0d
eb
fd
f2
00
0c
0e
f1
f9
f1
f7
11
08
ea
ee
f3
fc
04
2a
f8
f3
f7
16
1f
1c
f5
2d
17
fa
03
e4
ec
ed
db
1c
04
0e
0e
fe
10
ef
f8
14
fa
e8
0e
1e
fe
00
f4
ea
07
1e
14
22
ef
dd
f6
2b
27
17
f6
0c
00
f9
19
fb
dd
08
fd
26
ef
10
09
de
04
28
17
f5
ff
fe
e4
28
22
f5
00
fd
0e
07
13
ed
00
14
10
08
2c
d9
fa
08
f4
e8
0d
05
f3
2f
f6
f9
fd
e2
15
13
00
ed
f9
09
39
f6
d9
ec
00
14
16
f2
1b
ee
fb
ec
27
f8
00
ff
0e
eb
f2
08
0d
fe
ed
0d
f0
e9
0b
06
00
00
f2
e6
0c
0f
05
02
f2
03
e5
0f
fd
0a
05
04
0a
0f
f7
ef
f8
fb
03
ff
ff
ea
ec
ed
0c
f8
12
f5
0a
ed
07
e6
0f
f9
ec
f0
fe
0c
0a
0a
f5
08
f1
f0
f1
f0
0b
fd
0d
00
09
f9
ee
e9
ec
f6
0b
fa
03
09
0f
01
f3
f5
04
03
0e
ed
e7
e5
fc
e4
08
06
04
ea
fc
00
f6
08
f5
0c
0c
00
ea
f4
ec
f6
e4
04
e7
fc
00
ee
02
ed
09
0e
fb
f6
fa
ee
fc
ed
14
17
e5
17
d8
1e
05
18
f8
ee
00
15
0f
0a
ef
19
08
34
f7
12
e7
f6
15
3a
f8
0e
03
06
f1
ef
05
f9
f6
c5
0a
f2
03
e4
1f
e9
05
0c
15
13
e7
1f
f7
1f
0c
2f
fc
e3
00
0a
13
06
2c
00
14
fd
fd
bb
f1
ef
14
fd
d8
1c
04
f1
ca
11
ee
09
f5
ff
28
00
fe
14
05
0e
08
f7
15
00
00
e6
fb
0b
ee
e3
fb
e6
f5
da
ed
fb
07
01
33
03
fd
1c
f6
39
fa
e9
20
14
17
ef
03
f7
0f
17
10
fa
e7
03
f8
ea
06
f6
04
04
06
0f
01
00
0d
0b
09
0a
14
1a
ef
03
fa
29
ef
f0
fa
ff
01
fe
04
f2
15
f0
f1
05
28
d0
ff
eb
0d
e9
28
0c
06
e6
00
2d
fb
e6
fe
0b
f3
15
0b
fd
19
fc
0e
06
20
e6
2b
eb
0f
e6
f4
0b
05
e6
f0
e1
f8
05
ee
0b
20
ed
fc
0d
12
f9
1f
0f
fb
0f
13
e5
0c
06
02
f3
18
16
02
e9
f2
01
f3
f9
e3
00
0d
d6
10
15
03
00
ed
41
01
04
0c
15
ed
e1
f9
00
20
e7
20
0a
ec
0c
10
ed
19
e8
fc
00
07
10
04
f4
cc
0c
fb
1e
f3
1a
21
dd
23
13
1d
f2
ef
12
06
19
1f
f0
fc
0d
0b
ff
03
2f
eb
f9
14
13
f6
f4
f6
fe
f6
de
0b
b6
ee
28
0d
0a
f4
fc
23
fb
f9
09
e1
f9
fd
07
09
15
f6
ef
fb
f0
11
07
06
04
f1
ec
05
18
fa
05
0a
0c
23
fe
00
05
ec
09
d8
d6
13
10
f4
f1
1d
df
d8
11
02
1f
00
e7
e1
e3
21
10
ef
03
08
3a
f6
01
ee
f2
ff
01
15
f4
1e
f9
34
10
f1
13
06
1f
07
10
07
0f
08
06
10
16
0e
04
fa
12
f5
ea
0a
e9
1a
d0
fc
fe
00
fb
f4
07
e5
f2
f7
0a
15
02
0a
2a
0d
31
10
05
e8
00
08
23
f0
eb
f3
01
ef
fc
14
26
0b
00
1e
f5
1b
03
cf
00
f8
04
0d
00
00
f4
00
ff
1e
ed
09
00
d8
0d
00
f9
f2
f8
f1
1c
0e
f7
04
14
f3
29
0d
e9
18
f8
f6
f6
e4
1b
f7
08
02
0e
2d
0e
f0
1a
e9
11
ec
02
09
d1
fa
07
0b
01
f6
1f
03
08
e4
00
04
fb
f9
0f
eb
02
01
f3
f4
12
09
f4
13
ff
1f
03
f8
fd
fe
0b
f3
1c
08
17
0e
07
fc
0a
0b
04
f6
ea
0b
e8
19
04
09
eb
07
00
0c
fb
0e
24
08
f4
10
06
1a
36
0b
0b
ff
fb
0f
f7
d3
f1
00
14
0f
1b
11
e0
f4
02
f2
17
11
e3
03
00
0d
fb
02
f2
02
17
0d
f4
13
f3
e4
04
1d
fa
ec
cc
1e
26
f9
09
0f
00
fd
f3
19
e9
03
17
e1
24
27
f6
01
f8
0a
1e
04
e3
14
19
23
ff
e4
eb
f9
ef
16
21
de
e9
fb
e4
13
20
fb
07
05
0b
fa
19
12
da
29
fa
21
1a
ed
2c
07
fd
f6
04
00
f8
ed
03
f4
0c
0e
23
18
07
11
31
21
f2
f1
eb
0e
27
15
03
0c
dc
ed
0c
fb
29
00
04
0d
d4
e7
1a
e9
00
e6
09
2c
ff
f5
ff
f4
0b
11
01
ef
f3
28
00
1b
e2
15
06
f9
06
ed
ff
17
f5
20
07
08
1d
0c
f2
21
00
e5
fb
19
19
f2
ef
0a
ee
09
ec
fc
10
e0
f3
03
14
f9
fa
17
d3
ff
fc
1a
1b
13
0a
fe
03
11
0e
d6
16
1e
e5
17
ee
01
fd
0d
17
07
fe
06
f1
d1
01
f2
09
07
1f
1b
d2
22
ff
0a
0d
0c
f7
00
29
20
02
00
0c
25
ec
f2
19
fa
03
07
16
fd
e8
f5
17
00
dc
fd
e6
fa
fe
20
12
03
1b
0a
09
ed
0b
ca
04
03
21
ed
e9
fd
f3
06
1a
f1
0e
01
ee
0f
fd
dd
13
12
ee
fa
29
14
ed
1a
f3
ff
f3
df
e9
1a
fb
f9
0f
fc
16
0d
fa
f5
fb
21
ee
0d
08
17
f9
12
21
03
f0
e9
fe
e4
0d
1c
1c
18
00
f4
18
f8
f3
01
13
e0
08
f0
00
fc
ed
00
ed
03
f2
fb
f7
04
ff
14
08
f7
e5
08
03
06
fb
e7
03
ef
ec
f4
e3
01
0a
e6
fa
e7
f6
0b
e1
ee
ed
02
15
08
0a
ed
04
09
1f
f0
00
0d
01
fd
03
fb
14
f7
f4
f3
ee
00
e6
09
f9
f9
fa
00
ef
fa
fd
0c
fe
00
05
00
10
14
03
fa
ef
fd
01
f6
fd
08
e4
f2
01
ec
05
f0
0b
16
e9
06
e8
10
02
e6
ee
0a
ef
0d
f7
f4
ff
e6
07
05
f7
fa
21
f4
02
e3
0d
0a
09
e2
e1
ed
e5
09
ec
f9
ef
20
ec
07
db
0f
24
e5
ec
0e
eb
03
d2
fc
e8
05
0c
0d
11
23
e0
0c
dc
07
0c
ef
02
18
04
04
10
07
0a
fb
0c
e5
2b
f4
1f
05
0e
f6
e7
3e
fe
fc
03
0a
0e
05
00
1a
10
d2
11
06
f2
f4
12
ff
05
f6
15
19
fd
e9
26
fb
2a
ff
15
0c
04
f6
e5
fb
0f
09
df
0b
23
f5
13
17
19
1d
ee
f1
0c
ff
1e
02
f1
18
f7
fc
19
fa
1c
07
f4
0e
0c
fe
f8
ea
f9
fe
1a
06
0b
25
fe
1f
18
0f
20
f1
0d
18
f4
ec
16
0f
16
ea
f7
00
12
fc
ef
14
f5
09
df
f8
15
11
ff
f0
e7
04
02
00
fe
2a
ec
e9
22
f4
f5
00
e0
e8
00
09
05
11
06
ef
0e
01
f0
00
0a
06
ee
fb
e1
de
12
1a
03
f3
0a
ea
ef
13
17
f7
04
00
f5
f4
23
03
07
09
0f
1a
14
fd
02
e8
11
f4
15
ed
02
f2
08
f1
fa
00
ec
f2
0c
00
eb
ea
ef
f6
09
e9
fd
04
04
20
13
11
07
08
01
0a
ea
ed
06
14
f0
30
08
ed
fa
0d
ec
e0
01
e4
fe
f3
00
0a
ff
f9
fa
f8
de
fa
0b
0e
ff
f6
e3
e7
06
ee
f5
f3
fa
0f
0f
03
f6
fe
08
e0
06
e9
ed
03
ed
00
07
e6
f2
02
ef
0a
f4
f1
fb
09
e3
f9
fe
ee
f2
ee
08
09
09
00
11
05
13
09
00
f4
eb
f1
ec
10
e3
fd
0d
f5
ea
ed
f1
fe
f5
ee
f5
ea
06
ed
eb
ec
03
f1
ec
f8
f6
fa
e8
e7
ff
ed
09
f4
e8
09
f7
f2
f1
04
e1
f2
0b
0c
f3
f0
f9
f1
f1
00
e9
e5
01
f9
13
fb
04
e0
ea
f0
ef
0b
f6
f9
f1
e8
0a
03
f1
ea
0a
fd
e9
e3
0a
01
07
e6
f6
0a
ef
e8
ff
09
f8
04
ff
0c
05
fa
07
f8
fa
fb
ed
ff
f9
00
f4
f5
ed
fc
04
ff
05
f8
eb
f8
08
fb
10
f7
0b
f5
ff
ec
11
e7
06
f2
fc
f9
13
f8
fa
f8
0b
ff
f7
fb
0f
00
11
f9
f7
fd
00
f8
09
06
f5
f4
fa
fd
fd
e6
ed
f3
f4
e9
f9
f9
fa
02
f4
f1
02
f7
f2
02
f1
e9
e8
07
0d
f4
fc
0a
f7
07
e7
0f
f8
eb
f9
09
06
fa
f6
04
fc
d8
18
f3
02
da
ef
0a
0d
f1
ee
e3
f1
e1
f8
13
fd
e7
0e
eb
06
de
ef
fa
f5
fe
02
f7
f6
db
14
e8
ef
ea
e8
0f
fc
f5
dd
09
08
f9
f6
eb
1e
ef
00
e7
00
f2
08
e2
00
f3
12
e2
14
fb
ee
ee
11
eb
ef
0e
fc
11
f6
0a
fc
d3
04
00
0b
f9
e0
f9
e6
f3
ec
ef
f2
06
f1
07
05
e2
e0
da
f4
df
fd
f9
11
03
e2
14
04
f0
e1
04
0d
e8
e4
03
00
e6
f7
f4
07
01
f5
07
fc
e2
14
dc
e8
0d
f3
ea
d7
10
ee
2d
f8
07
00
04
f5
16
f9
f9
ee
01
f1
fd
05
0b
0f
0e
2c
2b
fa
1c
05
f9
ff
0c
20
03
e6
04
ff
19
f2
06
01
ef
fa
1d
21
f4
fd
03
ee
0c
31
fd
f1
ef
fe
0f
04
0b
13
18
19
34
f8
19
f6
ee
d8
ec
03
f4
f0
ea
fb
f3
fb
15
e8
ed
08
ff
1b
08
04
05
10
14
f9
f9
fd
e2
27
23
1d
fe
00
10
ff
fc
fa
10
fa
e4
1a
0c
fc
18
0b
12
22
ea
34
0c
0e
16
fa
30
21
18
06
09
0b
f6
fb
ed
0b
06
e5
14
06
e9
23
0f
fb
ec
07
de
f3
05
f0
06
0c
07
08
13
09
2c
03
04
18
0d
30
ff
f3
07
ee
15
e4
05
f2
f1
ec
00
0d
15
f8
02
ed
0d
02
dd
18
d2
20
00
f7
25
0d
01
fb
13
11
06
ed
09
10
0d
d9
f2
22
fe
e8
e7
f8
14
f8
dc
cf
f7
1e
01
1b
12
18
fa
00
1c
0d
fe
f7
e3
04
19
25
f3
f1
f1
e6
01
00
13
ed
c7
09
2d
e9
04
04
08
11
10
fd
0c
18
f7
0a
22
d9
0e
14
16
fb
03
e6
13
00
14
05
ee
f8
26
f6
11
db
08
00
17
02
f5
18
00
0c
15
e6
0e
d1
03
16
00
0a
00
f0
d8
0b
f0
f7
ea
01
01
23
ee
15
0f
00
ff
fc
02
fb
ec
07
0f
f8
2f
f9
ed
2c
00
14
07
0e
1a
fe
ee
f5
ee
05
10
3a
11
fe
e8
0f
20
02
fa
fe
fe
32
0a
e7
20
23
f0
fd
fd
f8
ec
06
f4
05
28
ea
fb
03
f3
f6
03
1b
05
03
fc
13
1d
20
e4
0b
e8
1a
00
e8
06
f3
12
fb
04
fc
e9
ff
f5
ec
eb
12
ef
fe
ee
21
f4
e1
02
eb
e7
11
f8
05
00
09
c7
0e
1d
dd
05
f5
01
07
07
ef
00
0f
e8
2f
09
21
f0
f2
fb
08
dd
d4
17
00
01
00
0a
f0
21
05
ee
f3
0b
ec
02
dc
fc
1a
de
ef
02
09
1d
03
e1
0a
ff
01
22
ff
0e
d0
15
0b
02
f6
0b
ed
11
f0
ec
d1
dd
fe
f7
14
10
e4
13
05
f1
15
11
ef
e1
ed
21
f7
e1
00
0b
d0
d4
0c
16
1a
ce
e4
15
d8
fc
f6
f6
15
f9
eb
09
d2
d5
ed
ed
d1
e8
08
ea
e2
22
e9
d2
fd
11
0f
dc
f3
f7
1a
f2
26
10
f6
32
f5
17
ed
fc
eb
ea
16
f5
ec
e1
0d
08
03
f7
e0
d5
e2
0b
13
09
0b
e9
04
0a
08
13
14
f3
0d
f8
15
fe
15
f6
2f
00
1c
fd
f1
09
ea
f4
ef
0a
ee
ef
ec
12
0e
03
17
ef
17
08
1c
e4
1d
fe
21
f1
ef
09
12
13
f4
2c
fb
ed
ff
1e
0d
f6
ff
16
11
ef
ef
0d
00
00
fc
24
f3
f1
dd
15
03
06
19
0c
00
02
06
13
cd
18
23
eb
16
13
08
01
ed
fd
12
ed
e2
22
02
14
fd
02
ed
f7
19
11
19
fe
19
f0
0c
07
0d
02
e8
0a
39
11
f4
22
02
ea
e3
ea
17
e0
d7
0a
09
0e
cf
15
e3
0f
0e
e6
f3
17
1a
fa
ee
ef
1a
28
0e
fc
05
fc
0c
1a
e2
03
12
15
03
f0
ff
fd
10
03
f0
01
33
f6
00
05
f3
04
11
df
fc
eb
16
0f
12
1e
02
ed
01
16
06
0d
f4
e0
0c
f8
01
fa
19
0a
02
e8
17
fa
01
f3
05
3d
ff
01
f2
f1
f3
f6
dc
19
14
16
1b
ff
d7
fc
f4
10
0c
0b
e3
f0
fc
f4
01
17
f0
18
ee
ff
0b
00
06
1a
1b
00
e9
02
e4
0c
1a
10
f9
13
00
ff
ec
12
04
e7
ee
0f
fa
ca
e8
1d
07
fe
ec
0c
cf
0e
00
11
14
0c
3c
1a
07
00
e3
e2
01
22
dc
f3
e9
02
09
eb
f7
25
fa
f7
f1
f4
38
fd
e3
0b
c7
f9
0c
0a
18
1e
e8
0f
1b
f5
d2
f4
08
e4
1d
0d
e6
e7
27
ed
e8
09
02
eb
fa
d2
04
01
16
fc
0f
3d
f5
ea
09
f7
14
04
f8
0a
1b
09
0f
eb
e3
e2
fa
ee
08
16
05
0f
0c
08
fd
1a
ef
18
0b
0c
f4
10
19
fa
07
fa
ea
0e
ef
12
f7
fc
23
04
14
2d
f1
07
f7
23
08
19
08
03
fa
ff
f9
0d
f1
17
09
15
fc
12
00
01
23
db
0d
f5
f2
07
ae
22
30
04
11
ef
04
1e
1a
17
f6
0f
fe
fc
2c
f4
ed
cb
e9
f3
1c
f7
e5
e1
f8
ee
11
f9
f6
0e
0a
13
f2
f6
1a
02
17
fb
12
17
0b
02
05
1f
11
05
01
04
15
13
f1
0b
1b
ec
03
03
07
09
09
d8
17
f5
f2
08
fb
ff
1f
04
f4
24
fd
15
f2
fc
ec
f4
e3
02
0c
1c
e9
f2
f3
ff
1e
1a
2e
11
c4
f6
f4
ef
1b
0c
09
fb
04
1a
00
f6
f1
02
02
09
07
0e
02
0e
01
d2
0c
f5
02
0d
06
f1
f9
2a
18
11
12
dd
f7
24
13
fa
f7
04
f9
0a
1f
f1
09
f8
e7
02
03
29
fc
06
fb
02
e5
0f
1d
fc
0d
07
2c
26
fd
fc
00
fc
1f
01
d3
f7
0f
0a
0c
ff
de
14
1c
00
00
12
02
db
f0
1b
19
0b
14
ff
56
06
eb
ef
e9
f7
f4
f9
15
1a
db
0f
20
e8
0e
1d
07
eb
12
df
08
0f
03
fb
22
fd
eb
eb
0d
f3
f6
07
07
0f
de
1c
fc
fc
f5
09
f4
e7
df
e4
ef
06
d4
f2
0e
0d
13
f6
e3
02
ff
f2
28
12
fe
1c
f5
09
f3
06
2a
1a
f3
09
ff
27
fa
c4
f5
05
29
08
f0
f9
08
f3
1e
f3
fb
d3
18
cd
1e
01
23
f1
eb
10
23
de
10
fa
ec
0a
f6
fe
19
00
e6
f0
f7
0e
1b
ff
13
13
07
0c
05
21
23
1d
0d
13
07
1b
03
eb
05
12
f6
1f
ec
ff
e4
1a
fc
1b
f8
fb
06
e9
ea
e6
f2
f4
05
f7
e4
f9
f6
0d
07
f6
dd
14
f4
eb
fd
f4
02
fa
f6
05
fe
08
f1
0d
18
eb
04
ea
fa
ee
f7
ea
fc
ec
e4
eb
f6
06
e8
11
11
0d
07
f6
fb
f9
12
04
f5
f7
13
03
02
13
03
fe
09
04
07
01
06
06
f5
0c
0f
09
ec
f1
f8
f2
0a
05
f8
09
05
ff
ec
00
e2
03
01
f9
f0
e9
fc
e9
06
08
f0
0d
fc
f6
f7
01
f7
05
ec
ec
ec
08
e6
09
0b
ef
e7
e8
04
04
e4
e7
f8
02
f6
eb
f3
00
e8
17
04
f7
03
ef
ec
06
27
e6
1f
f3
00
fe
c5
01
f1
eb
20
02
00
18
0b
0d
f1
f3
02
0d
1c
1c
ee
ee
01
fa
fd
f4
d3
ee
06
06
e8
f0
14
08
0b
0c
fd
d6
e5
ef
c7
1e
ea
ef
0a
f2
18
08
f9
f3
f5
f7
fe
05
1b
06
15
eb
ed
10
f8
08
fa
2c
e8
03
f0
0b
eb
15
01
f9
d8
09
e6
f7
22
ee
06
ec
0b
0b
0e
da
d9
f7
13
07
e1
3f
0d
f7
07
ea
db
f3
fd
11
0d
fb
04
0f
de
21
05
df
f6
f5
cf
11
24
0b
06
fe
04
1b
f2
e9
00
f7
18
eb
0b
f4
f7
fa
d9
09
14
fd
f8
1a
13
2a
e2
07
fa
da
11
f7
0f
ef
09
f1
fd
0c
06
f3
f7
29
08
0b
0d
12
13
1d
1a
27
f9
fc
3f
00
ee
03
03
1f
f1
fc
01
03
dc
ea
e3
f6
15
e6
e5
f9
ec
06
22
e9
0d
15
0e
fe
0a
e0
ef
e6
fd
00
00
00
e9
e1
2c
ff
03
f3
00
fb
12
fd
f9
f3
13
02
05
10
14
ec
f8
ff
25
fb
3e
1d
eb
17
f5
f3
0e
fe
07
00
fe
03
15
e2
0f
18
e5
0f
0b
1c
15
00
f3
10
0b
d3
ff
27
22
f2
01
23
e1
17
db
18
f3
fa
f6
0b
20
22
05
0e
16
ed
f6
04
22
10
f7
18
f9
02
e5
ef
1a
fc
e1
ed
cf
f1
1c
fc
e7
00
0f
1f
00
e5
f2
f7
e9
e4
1f
0f
f7
fa
f4
fa
07
fa
c7
12
e9
20
07
f8
f6
fe
0e
ee
1e
03
05
f7
fa
ef
0f
0d
de
07
29
04
0a
0d
ec
0b
1a
f8
14
16
f9
ce
f2
db
18
02
f5
1c
c9
fa
f7
da
fb
04
f2
25
fc
e4
03
01
1c
f7
f3
ea
02
0e
ee
fa
e6
f9
e5
0c
ed
ed
15
0d
ee
0e
0a
ea
0b
10
14
fa
0a
e9
05
12
ec
f5
fc
0f
f7
13
fb
ec
09
fa
f3
08
f4
f1
ea
fd
f0
fe
fc
f8
f6
f9
04
f7
10
0b
fb
11
f8
fa
f6
f5
0f
f3
08
f3
f9
f9
ea
f8
09
02
ee
f8
00
01
ea
0f
f3
f0
ec
e7
eb
fd
fb
11
f1
f0
13
08
f1
fa
00
01
06
08
03
f1
fb
0b
0c
01
0f
fb
05
fe
fa
15
ff
ec
f0
fc
f7
0e
ff
f1
ff
ed
06
f1
f6
f6
03
fb
f1
02
f9
e0
0a
ec
ee
0a
f9
f1
08
fa
e8
e7
0e
0e
f4
01
0f
e8
da
fb
fa
18
fe
15
19
fb
fe
fe
09
f3
03
12
e9
fb
f9
f8
dd
04
06
13
0c
ee
23
00
f5
04
d4
0e
2f
0d
cf
08
f6
02
f9
21
13
fb
e7
f4
1c
08
0b
07
f4
1b
f2
00
00
0b
24
15
f5
e8
fd
fa
0b
e2
ef
ff
15
08
d3
0e
0b
ed
ee
10
0d
0e
25
05
01
f5
08
05
06
0a
14
09
e6
f0
f9
fa
f1
0a
fe
25
fb
f6
06
01
0a
00
f9
0a
ff
ea
03
f7
08
18
03
01
1a
ec
09
f6
10
fa
ee
13
ea
17
fd
f9
15
e0
37
e8
0e
37
1a
0b
ec
25
05
09
09
f8
2f
ff
f8
02
0d
16
05
1f
df
f6
00
ec
26
cc
05
15
e3
ec
1c
f3
16
00
01
ea
14
2d
0a
12
ee
0a
d6
0c
0c
f8
28
c9
01
f5
0d
22
0d
09
11
0c
09
11
23
19
f9
f1
e2
f5
f3
13
0d
ef
e5
fa
10
ff
31
1e
dc
04
f5
2d
04
1d
15
1a
f9
13
05
e6
49
20
f0
00
fe
1a
fb
f1
05
fa
00
23
00
f4
1b
fa
da
ef
08
00
f2
ee
0a
f4
ec
0f
f2
11
ee
17
1d
11
03
e8
12
09
12
ff
fa
ea
e8
12
07
0a
ee
2b
17
e9
ef
0d
14
0e
00
19
db
0c
fc
0b
f6
e0
19
1f
fe
e6
eb
f3
08
f1
0f
f6
0e
03
f1
12
08
10
c7
01
f7
0c
f9
da
ff
04
02
00
cd
cc
1d
f0
01
ee
06
17
0d
fe
08
0f
02
0e
fd
f6
e9
12
10
fc
0c
19
f8
0b
ef
14
05
fd
0d
14
f6
ff
f1
f1
3b
01
ef
f2
f9
0e
17
0d
f6
1b
0b
f3
ff
0d
ee
0d
fa
0d
0f
ff
fa
00
d7
11
fb
ec
f7
0c
17
eb
e2
15
f4
14
1c
22
06
09
e1
0a
19
26
12
13
e9
36
11
0c
10
09
21
e2
00
e6
22
ff
f5
0e
ce
42
f9
28
f3
25
1a
04
ff
07
04
26
03
00
09
fb
da
f1
f7
09
08
f9
f3
39
0f
01
08
10
0f
e7
09
f3
e9
d4
f5
f3
12
df
f5
15
0e
f0
1b
1c
17
16
10
11
09
0b
e6
f2
0a
04
03
00
ef
18
13
f7
2e
eb
ea
04
ef
ff
e0
1d
0e
12
ee
1b
21
fa
20
01
f1
fc
0a
05
ec
ed
15
ff
07
03
00
08
13
04
f6
05
16
11
31
fc
14
ef
16
02
12
ef
17
04
12
15
17
e0
fd
1c
d2
09
01
05
f8
1b
d1
07
d0
fd
08
e0
02
ca
10
18
e3
06
06
05
f6
ed
10
1d
f5
03
0e
08
ed
0b
f9
f7
f0
01
c8
06
f5
f1
03
02
01
0a
03
0b
00
0c
f0
09
0b
01
e3
03
e9
f6
00
e6
fd
01
f7
fb
1c
e6
f6
cb
fa
16
fd
06
fc
0f
17
12
16
ed
0c
17
1a
01
de
03
f4
fd
e9
f4
f2
06
01
0e
0b
e5
11
f4
fa
f9
06
e8
f1
e6
fc
d6
fc
f2
f9
f1
00
16
0a
ec
07
0d
1b
f2
fe
0f
cd
de
13
36
19
ba
ef
15
fa
0a
0e
dc
23
09
03
f4
d6
e3
fe
10
01
01
23
ed
e6
eb
10
20
f2
cd
07
00
1a
05
ee
ec
f3
ed
29
d4
3a
ed
f8
c4
fe
f4
1b
f4
f3
1f
17
e6
13
00
dc
0b
0e
00
01
0f
e6
e6
eb
ed
13
1d
09
09
de
20
04
0e
01
16
0a
f9
14
14
20
d4
e9
f3
d9
2d
1e
f4
02
fd
0c
1b
19
01
18
0c
17
10
02
01
ea
12
06
fd
0e
ec
e6
07
0d
07
fa
09
0d
fb
e4
f4
ef
19
e2
09
19
d5
14
ee
15
f0
e3
0f
14
ed
1d
e4
d4
11
0f
09
00
fa
18
11
e9
02
e2
06
16
02
db
fa
f4
1a
13
eb
0c
fc
e0
ff
f9
02
0d
0c
00
01
e2
02
1f
ff
19
1b
04
f5
07
e6
00
d8
f2
e7
0d
fd
14
e7
1c
ee
f1
f9
13
f3
1c
e1
13
02
08
fb
06
32
1c
fe
f8
f5
2a
00
f6
f7
e2
11
f6
e2
18
f5
13
04
0b
f1
ee
f7
fa
f2
fa
08
f4
e9
08
02
0b
ed
05
ec
14
f9
fe
ed
08
00
ef
ff
0e
e8
f9
f5
e6
15
f2
e7
0c
01
0e
e4
03
06
08
0a
f9
10
05
07
f3
e9
ee
fb
ff
0c
f9
f8
08
ff
ed
e8
f1
e8
13
11
0f
fd
0b
0e
f3
ff
04
05
f4
ff
ef
0c
f3
09
e6
0b
f5
fb
f3
0d
0f
ee
03
fa
ed
e9
f6
ee
f9
08
07
f0
ec
04
ed
0c
f2
08
ed
f9
f3
f7
05
f0
00
f4
f4
0d
0b
0d
0f
10
f0
e4
f4
f0
0c
e8
f1
ed
eb
e8
11
e9
02
f3
fe
f4
f4
fb
1a
05
d5
1c
e9
ff
11
05
15
ec
0d
1e
f6
11
1e
06
0b
10
ec
f4
e3
31
09
18
09
17
ff
26
1e
04
e6
02
1a
1b
f8
f5
e9
04
08
2b
12
fc
fb
17
c8
0d
21
02
f1
17
ef
19
f8
ed
e1
fa
11
0d
fa
04
fc
11
0f
16
08
38
06
19
ea
10
21
ff
f6
00
ef
19
fe
05
10
17
26
05
f9
25
04
0d
e7
fd
de
fd
1a
f7
0f
03
e1
07
04
00
f2
04
cd
10
25
0b
08
e9
f4
15
06
2a
25
d9
fe
1a
02
00
f6
e9
ff
eb
f5
f1
fa
04
05
f2
f8
01
0d
0f
0e
ff
06
e7
02
06
02
e7
00
f9
ed
05
0c
fd
05
fe
f0
e6
fa
f2
f2
09
f4
e8
15
09
ee
ef
00
08
0b
f2
e8
00
ec
07
00
eb
f7
ea
ec
e5
0e
0e
0f
07
08
fb
fe
0a
02
0d
fa
10
fd
f0
f0
f5
ec
13
f8
fa
fe
f8
f4
f9
00
02
f1
e8
e8
fc
e9
01
f4
ec
0c
ec
0e
ef
f4
01
fb
ef
e8
f5
e5
eb
03
00
14
06
f7
e7
eb
ec
00
ed
12
f9
14
0a
0f
fa
f0
1e
de
04
0b
03
14
ed
19
14
13
f9
0b
09
02
fc
22
f3
ef
25
06
18
f0
ff
23
f8
24
f5
fb
0c
08
d5
f0
fb
f2
0a
19
1b
f3
0e
ef
03
0f
00
ff
b6
02
e9
1f
fc
f6
02
06
24
0b
f3
f7
d4
e7
f8
16
f2
fe
00
25
ee
f7
d1
f0
06
f3
e5
d6
0b
1d
0d
1e
12
08
1c
fb
23
08
09
f4
e7
fc
0c
03
0f
fa
01
e4
fb
2d
f4
fa
ef
f4
ea
08
f5
19
00
f1
ff
00
08
fc
d0
2e
fa
da
ee
f4
f3
f8
22
f7
f5
09
15
11
fe
ee
07
01
11
fa
0c
00
f6
08
12
00
06
06
13
26
18
d1
0d
e8
21
0e
18
29
e7
01
0f
09
dd
e1
13
ef
fe
11
0b
e9
0d
e4
04
15
f9
fb
e4
f8
e1
0b
16
04
fb
20
fc
05
e1
f0
fc
14
00
fb
f3
fc
f3
28
f2
06
db
b3
f4
f8
fb
0c
0e
da
01
00
00
06
eb
17
0f
13
05
0b
2c
e4
02
11
ea
f9
ee
07
14
14
ff
e8
10
f4
ea
11
ee
0f
fe
06
03
c4
01
e5
df
fa
ff
11
00
12
d1
0c
01
0d
0e
fc
03
09
e6
f9
f0
00
fa
05
e8
dd
fc
04
fc
0c
fc
00
e8
01
fa
05
ef
f3
f4
f3
00
e5
02
09
fb
00
f1
01
f7
ff
fc
11
ef
01
01
ec
02
ee
f6
df
15
f1
f8
08
e9
0e
fb
f0
e5
fd
f4
0d
f8
f6
f7
e6
05
00
f2
02
fe
f9
fb
e5
fc
09
0f
00
e5
e6
0d
01
e2
09
fb
04
f7
07
14
0d
e0
fd
0a
e5
ff
f2
06
f4
07
f4
ef
0b
f6
f0
f0
10
f6
00
fa
fd
eb
fa
e1
f9
f2
ee
f8
f7
fd
e9
0f
03
ef
e7
ed
fd
18
f7
0a
14
eb
02
15
ff
00
e0
c9
ff
13
04
fa
1a
02
d8
fc
1e
0d
13
ed
24
f1
24
26
0f
01
f8
f2
23
1f
0b
15
e0
15
f1
0b
eb
17
ea
16
ee
07
cf
14
0a
02
05
f1
07
25
e7
14
fd
fd
03
26
fb
0c
ee
fe
f1
19
0e
18
02
fd
f2
29
ef
01
19
fd
22
e3
1a
20
f9
05
09
f3
11
e6
f6
21
f3
14
0c
0b
f0
c5
0a
fa
12
cc
e3
f3
e6
24
fa
0b
18
14
41
04
cd
f9
f2
ec
f2
f8
02
0c
eb
1e
19
e0
0a
1d
f2
11
15
f5
f2
fb
de
f3
14
d1
02
fa
22
f5
09
13
d3
fa
dc
21
04
fe
e1
f2
f3
fd
24
0f
03
0d
ff
f8
23
13
d5
d8
0c
f8
f0
0b
f5
f2
d9
53
db
1f
02
21
f4
db
fd
1b
07
27
fa
fb
0a
f2
f2
f0
0c
ec
f2
ef
e8
31
19
16
e5
1a
15
f7
10
0c
11
d5
ff
15
f5
ec
fc
0e
07
e9
f7
1a
f2
11
12
02
dc
d1
f9
00
fa
ed
fd
33
ce
06
15
f7
37
06
f9
10
f0
02
fe
f5
09
19
02
ff
cd
00
f2
de
04
01
fc
ea
08
28
de
f1
00
e7
08
26
f7
fd
06
09
f1
00
04
f8
00
e6
00
2d
07
11
e6
f2
e3
e6
14
ea
e9
0c
f9
15
16
00
ed
f8
20
00
01
fd
2b
13
ff
41
e6
f2
27
ff
17
26
f6
0b
07
13
10
10
0c
0b
04
f7
06
0b
03
fe
fa
f1
21
eb
0c
21
1b
16
18
12
04
0b
00
f3
ef
08
0f
15
25
e2
17
0b
ea
f3
03
11
0f
0e
ff
21
fd
13
29
f5
0b
0c
ed
08
3f
1b
25
26
10
e9
f1
da
f5
16
fd
08
04
f4
1d
04
f8
e5
fd
07
f0
08
19
fa
e0
12
0d
ea
fb
f4
21
08
eb
f8
00
fa
f5
f1
01
01
fa
e9
1c
10
f3
12
2c
e4
fc
10
16
09
17
fb
ea
f6
fe
e9
fc
0b
13
15
ee
21
10
e8
f5
d9
0c
18
05
31
fc
ed
15
00
00
fa
de
f9
1b
35
00
fc
f0
06
05
ff
13
11
d1
ec
12
e2
f3
14
0a
f3
0b
1b
0b
ee
e8
09
11
04
1e
2a
f5
05
d5
17
15
f4
ff
1c
00
11
16
f1
ea
e5
11
00
f8
2b
07
08
f7
ea
18
07
f9
0d
fd
13
11
22
07
e5
13
ff
00
12
03
d8
00
05
11
02
0d
14
f0
1b
ff
1c
08
d7
e7
02
2a
26
1d
17
fc
29
1b
ee
00
fd
02
01
fc
07
05
fc
11
ee
ec
1a
c8
ea
21
27
0a
00
e0
fc
f2
f2
09
ee
e7
f3
17
03
ff
08
de
12
16
2d
04
f2
dd
1b
ec
e9
f7
ee
e5
03
22
ff
ec
08
0b
fb
f1
e3
fb
24
0e
10
07
fc
00
e1
06
03
e5
f0
00
1b
ed
1a
f6
f9
23
f8
02
da
fb
d8
fc
30
14
23
ef
14
e1
1c
00
f4
f5
f1
e6
00
00
24
fe
fb
15
fe
1f
12
10
e8
fd
08
da
08
e3
1d
f6
13
f8
00
f0
05
e8
d9
f4
06
ee
ea
da
f1
1a
0e
24
19
f8
f7
fa
fe
14
0c
0d
e5
ff
2b
07
e6
13
16
f5
1f
fb
12
00
cf
fd
20
24
0c
05
0a
13
10
fa
e9
04
03
2b
f1
05
f3
1d
17
13
11
17
18
00
02
f1
0d
1a
f8
0c
18
ec
f3
f2
ee
00
f0
fe
06
14
0e
10
06
18
15
21
0c
0d
f1
26
1d
ff
e5
f0
f4
14
f0
f7
08
f1
1f
fe
02
1b
