30
ed
f0
21
13
fd
d6
fd
d9
10
fb
f2
14
e9
f8
15
ed
0a
eb
07
de
12
c8
f3
10
b2
02
de
01
06
16
36
12
1e
fb
12
fd
1e
d9
d1
05
0c
25
f8
e8
c9
0c
fa
05
f1
f7
c0
04
db
13
f2
d6
ca
08
f6
fd
13
0d
e8
f9
0b
16
04
d9
0a
f9
0c
fb
df
f5
cf
03
f7
ec
de
fe
29
fc
d2
e9
26
0d
17
d5
00
ef
c5
f1
ee
0f
e2
0a
19
e2
d3
ea
22
fa
d6
f1
fe
05
f8
fc
14
cf
cf
0f
ee
1b
10
ff
01
fc
e0
13
1c
2d
0f
e0
f4
e3
d1
06
14
be
0c
f9
02
20
0b
0b
17
d4
f8
f8
10
33
dd
0e
de
10
e8
ef
bc
2a
11
eb
02
eb
c4
e9
e4
02
19
ce
f1
3b
cb
1f
de
dc
1c
06
e7
09
16
e4
db
14
17
1b
09
fb
e1
18
05
f2
f4
f7
dd
fb
f1
e7
e1
22
04
1b
cf
04
01
03
fb
ce
c5
f1
10
f9
ec
f7
1a
14
dd
ce
2a
21
de
23
f7
e5
13
01
02
0f
23
d2
d0
16
20
14
1e
ce
e4
12
16
f6
d0
f2
eb
ff
03
f2
17
cc
fd
e7
1b
09
00
e3
f7
dc
37
03
f9
f7
e7
e9
0c
14
e3
ef
df
df
f0
06
04
04
f3
03
0a
00
02
f0
07
e7
1b
0f
ff
dc
f9
05
f4
18
0c
13
25
e3
e3
ee
2e
eb
21
0e
04
0b
16
0a
f2
03
fb
f3
e1
de
1a
f2
fb
00
20
fa
13
dd
0e
00
f7
01
f5
ed
cd
f3
26
12
f0
d8
f1
f0
25
b4
06
f0
ed
0e
1a
19
ed
1d
f9
bc
de
10
e7
12
1d
0c
ce
27
30
0c
d8
06
e7
fa
07
ec
e7
f1
dd
10
08
fc
ec
fc
07
22
fc
e3
0e
12
28
08
c7
27
f0
ce
14
fa
b5
00
03
e7
f7
1c
16
e9
ea
16
1c
05
0b
16
f9
16
d2
24
05
ea
0a
0f
fe
e0
fc
03
cb
28
f4
e6
0b
e1
d8
29
e5
ed
27
13
00
10
d6
f3
00
df
11
21
e3
eb
0b
07
da
15
15
e3
09
da
df
11
11
f7
e9
c7
e4
01
1a
f0
0f
b4
1e
ce
10
12
fd
12
1a
03
01
08
12
ed
e1
ef
eb
10
0f
03
09
e1
1e
20
11
d0
21
fc
13
e5
f1
f1
f0
02
1c
f7
fc
fb
19
fe
d8
15
26
f1
16
13
fa
eb
f6
da
01
19
eb
0a
14
f1
bd
0e
0e
e6
e8
07
f8
e1
fb
1c
0f
0a
00
16
1a
d4
21
c7
03
d1
fb
0b
11
db
0b
19
11
ef
d0
db
14
d4
f0
df
20
f6
d8
fb
09
03
03
ec
ff
de
cc
03
21
fb
09
fe
c9
0a
df
cd
e8
f9
14
fd
ed
07
1d
cc
d0
12
e0
02
14
21
ea
e2
2b
0b
dd
1d
de
0d
21
20
ec
cc
00
00
20
0b
d7
0b
e3
05
01
ed
c1
28
fd
d4
0a
e4
0e
eb
f3
23
0a
13
f7
c2
0b
f3
fa
e6
21
0d
e7
f5
20
c2
c0
0c
0d
e7
c3
15
21
d0
ca
ef
14
19
ff
0f
f4
f2
c6
ea
df
e8
f8
fe
04
13
12
e7
0d
cd
e8
f9
ef
19
12
d9
06
de
fb
f2
2a
e5
df
f9
07
f5
0c
fa
e7
14
0b
26
ee
1f
f5
0c
10
00
ff
f2
fe
f0
de
cb
08
05
ea
d9
f2
f0
17
08
eb
1b
0c
df
01
14
00
1c
e0
00
0d
fd
07
be
29
17
00
14
1e
03
1a
e6
14
ed
08
10
ad
e0
00
f4
00
eb
c7
dd
08
1e
e7
fe
fc
eb
1f
fb
0d
11
ed
d9
eb
25
d2
0a
fa
e0
07
1e
f5
0f
f0
e8
1a
fa
de
e3
04
ea
ea
c6
e7
07
f0
04
21
09
ec
d9
97
14
f7
dc
18
05
f7
eb
14
06
08
14
21
1f
cb
ef
c2
da
d7
0e
d9
f8
f5
c8
fe
f8
ed
03
13
d6
18
09
1f
07
e8
22
03
19
e6
10
0c
f8
ed
fb
1f
09
01
21
06
f7
12
0f
f9
fd
d7
f2
de
10
1f
e4
d0
bb
de
24
e5
f8
dc
dc
10
0e
01
d1
e0
23
e4
e2
ea
eb
1a
fd
e2
d2
f3
1f
23
ed
09
21
e1
