-- begin_signature
-- layer1_weight_rom(CHANNEL_ID
-- 2)
-- end_signature
WIDTH=8;
DEPTH=32;

ADDRESS_RADIX=UNS;
DATA_RADIX=BIN;

CONTENT BEGIN
	31 :	XXXXXXXX;
	30 :	XXXXXXXX;
	29 :	XXXXXXXX;
	28 :	XXXXXXXX;
	27 :	XXXXXXXX;
	26 :	XXXXXXXX;
	25 :	XXXXXXXX;
	24 :	00101000;
	23 :	00011001;
	22 :	11010110;
	21 :	11010100;
	20 :	11111010;
	19 :	00010011;
	18 :	01000110;
	17 :	01001001;
	16 :	00011100;
	15 :	11010011;
	14 :	11110010;
	13 :	01001001;
	12 :	00010001;
	11 :	00000101;
	10 :	11001010;
	9 :	11100100;
	8 :	00001011;
	7 :	00110010;
	6 :	00110001;
	5 :	00100110;
	4 :	11001011;
	3 :	11010011;
	2 :	00100010;
	1 :	00110100;
	0 :	00010100;
END;
