-- begin_signature
-- fc_weight_rom(NUM_WORDS
-- 840
-- WEIGHT_FILE
-- "top/weights_generator/fc_weights/out_weights_flattened.hex")
-- end_signature
WIDTH=8;
DEPTH=840;

ADDRESS_RADIX=UNS;
DATA_RADIX=BIN;

CONTENT BEGIN
	839 :	11100001;
	838 :	00100001;
	837 :	00001001;
	836 :	11101101;
	835 :	00100011;
	834 :	00011111;
	833 :	11110011;
	832 :	11010010;
	831 :	11100010;
	830 :	11111101;
	829 :	00011010;
	828 :	11101011;
	827 :	11101010;
	826 :	11100010;
	825 :	11100100;
	824 :	00100011;
	823 :	11100000;
	822 :	11010001;
	821 :	00000001;
	820 :	00001110;
	819 :	00010000;
	818 :	11011100;
	817 :	11011100;
	816 :	11111000;
	815 :	11100101;
	814 :	00100100;
	813 :	11011110;
	812 :	10111011;
	811 :	11010000;
	810 :	11100100;
	809 :	00011111;
	808 :	00010000;
	807 :	11011110;
	806 :	11110010;
	805 :	11010111;
	804 :	11111101;
	803 :	11111001;
	802 :	00001111;
	801 :	00010010;
	800 :	11110111;
	799 :	00000110;
	798 :	00100001;
	797 :	00000001;
	796 :	00001001;
	795 :	00011111;
	794 :	11111011;
	793 :	11101101;
	792 :	11111000;
	791 :	00001100;
	790 :	00010000;
	789 :	11100110;
	788 :	00011001;
	787 :	00000011;
	786 :	00100010;
	785 :	11101000;
	784 :	00000111;
	783 :	00011111;
	782 :	00001001;
	781 :	00011000;
	780 :	11010110;
	779 :	00010011;
	778 :	00000011;
	777 :	11101101;
	776 :	11111000;
	775 :	11111110;
	774 :	11001000;
	773 :	11110101;
	772 :	11111000;
	771 :	11011001;
	770 :	00001110;
	769 :	11010111;
	768 :	11011010;
	767 :	11000010;
	766 :	11101111;
	765 :	11001011;
	764 :	00011111;
	763 :	00100001;
	762 :	00010100;
	761 :	00001000;
	760 :	00000110;
	759 :	00010100;
	758 :	11101011;
	757 :	11110111;
	756 :	00000101;
	755 :	00011000;
	754 :	11011100;
	753 :	11110111;
	752 :	00010100;
	751 :	10010111;
	750 :	11011001;
	749 :	11101100;
	748 :	00001001;
	747 :	00100001;
	746 :	00000100;
	745 :	11110000;
	744 :	00000111;
	743 :	11100111;
	742 :	11000110;
	741 :	11101010;
	740 :	11101010;
	739 :	00000100;
	738 :	11100011;
	737 :	11011110;
	736 :	11111010;
	735 :	00011010;
	734 :	11101000;
	733 :	11110000;
	732 :	00001111;
	731 :	11110101;
	730 :	00011110;
	729 :	00000111;
	728 :	11100000;
	727 :	11111010;
	726 :	00001010;
	725 :	11010010;
	724 :	00100101;
	723 :	11101011;
	722 :	11011001;
	721 :	11101101;
	720 :	00010001;
	719 :	00001101;
	718 :	11111011;
	717 :	00011111;
	716 :	11101011;
	715 :	11111100;
	714 :	11111110;
	713 :	11100111;
	712 :	00011110;
	711 :	00001000;
	710 :	11011101;
	709 :	11000111;
	708 :	11101011;
	707 :	00000000;
	706 :	11110100;
	705 :	00000000;
	704 :	11100000;
	703 :	10101101;
	702 :	00010000;
	701 :	00001000;
	700 :	11101101;
	699 :	00010100;
	698 :	11100110;
	697 :	00011010;
	696 :	00000011;
	695 :	00011110;
	694 :	00010100;
	693 :	00000000;
	692 :	00010111;
	691 :	00101001;
	690 :	10111110;
	689 :	00000111;
	688 :	11111101;
	687 :	00001101;
	686 :	00000000;
	685 :	11100000;
	684 :	00011100;
	683 :	00000000;
	682 :	00010100;
	681 :	00000001;
	680 :	11011111;
	679 :	00001100;
	678 :	00011011;
	677 :	11101011;
	676 :	00001000;
	675 :	00010111;
	674 :	11110000;
	673 :	11110010;
	672 :	11011001;
	671 :	11101010;
	670 :	00000101;
	669 :	00001000;
	668 :	11001011;
	667 :	11011110;
	666 :	11110000;
	665 :	11111110;
	664 :	11110010;
	663 :	11111111;
	662 :	00000000;
	661 :	00010000;
	660 :	00001100;
	659 :	11110101;
	658 :	00011111;
	657 :	11101110;
	656 :	00100110;
	655 :	00001011;
	654 :	00010100;
	653 :	11100111;
	652 :	11111010;
	651 :	00001100;
	650 :	11110101;
	649 :	00000111;
	648 :	11111001;
	647 :	11011111;
	646 :	11100101;
	645 :	00101010;
	644 :	11110010;
	643 :	11111011;
	642 :	11011110;
	641 :	00000110;
	640 :	11011001;
	639 :	00010010;
	638 :	00011001;
	637 :	11101111;
	636 :	11111001;
	635 :	11101000;
	634 :	11001101;
	633 :	00001101;
	632 :	11100111;
	631 :	00010010;
	630 :	00010011;
	629 :	00000100;
	628 :	11111110;
	627 :	11111000;
	626 :	11101000;
	625 :	11011111;
	624 :	11101010;
	623 :	11000110;
	622 :	11110010;
	621 :	11110100;
	620 :	00001111;
	619 :	11111111;
	618 :	00011001;
	617 :	00010100;
	616 :	11101111;
	615 :	11001010;
	614 :	11010000;
	613 :	00100001;
	612 :	00010101;
	611 :	11000011;
	610 :	11100111;
	609 :	00001101;
	608 :	00001100;
	607 :	11000000;
	606 :	11000010;
	605 :	00100000;
	604 :	11110101;
	603 :	11100111;
	602 :	00001101;
	601 :	00100001;
	600 :	11100110;
	599 :	11111010;
	598 :	11110011;
	597 :	00001011;
	596 :	11000010;
	595 :	11110111;
	594 :	00010011;
	593 :	00001010;
	592 :	00100011;
	591 :	11110011;
	590 :	11101011;
	589 :	00001110;
	588 :	11100100;
	587 :	00001010;
	586 :	11010100;
	585 :	11111101;
	584 :	00101000;
	583 :	11000001;
	582 :	11101101;
	581 :	00000001;
	580 :	00000101;
	579 :	11100011;
	578 :	00001011;
	577 :	11010111;
	576 :	00001011;
	575 :	00100000;
	574 :	00000000;
	573 :	00000000;
	572 :	11001100;
	571 :	11101100;
	570 :	00100000;
	569 :	00100001;
	568 :	00001101;
	567 :	11011110;
	566 :	00011101;
	565 :	11011101;
	564 :	00001011;
	563 :	00101011;
	562 :	11100010;
	561 :	11101010;
	560 :	00100001;
	559 :	00010100;
	558 :	00000010;
	557 :	11100000;
	556 :	00010010;
	555 :	11010000;
	554 :	11001100;
	553 :	00011101;
	552 :	00000111;
	551 :	11101101;
	550 :	11111101;
	549 :	00010100;
	548 :	11111001;
	547 :	11101000;
	546 :	11001101;
	545 :	11011111;
	544 :	00001010;
	543 :	11001001;
	542 :	11111110;
	541 :	00001001;
	540 :	11111011;
	539 :	00100001;
	538 :	00000011;
	537 :	11001100;
	536 :	11011110;
	535 :	11111111;
	534 :	11101100;
	533 :	00000011;
	532 :	00000011;
	531 :	00001001;
	530 :	11111011;
	529 :	11011000;
	528 :	11110110;
	527 :	00100000;
	526 :	11011111;
	525 :	11110000;
	524 :	11010100;
	523 :	00010100;
	522 :	11011011;
	521 :	11010000;
	520 :	11101111;
	519 :	00010001;
	518 :	00011001;
	517 :	00001011;
	516 :	11011011;
	515 :	00010001;
	514 :	00001011;
	513 :	11111011;
	512 :	11010001;
	511 :	00000011;
	510 :	11000111;
	509 :	00100001;
	508 :	11010100;
	507 :	00011010;
	506 :	00010110;
	505 :	00000000;
	504 :	00001010;
	503 :	00001111;
	502 :	00011100;
	501 :	11111011;
	500 :	11100001;
	499 :	11111000;
	498 :	00000111;
	497 :	11101000;
	496 :	11100110;
	495 :	00001110;
	494 :	00001110;
	493 :	10111101;
	492 :	11110001;
	491 :	00010100;
	490 :	00001010;
	489 :	11101011;
	488 :	00011001;
	487 :	00000001;
	486 :	11011010;
	485 :	11110110;
	484 :	11101011;
	483 :	11111010;
	482 :	00010011;
	481 :	00010110;
	480 :	11110001;
	479 :	00100110;
	478 :	00010101;
	477 :	11011000;
	476 :	11111110;
	475 :	00011001;
	474 :	11111011;
	473 :	11111100;
	472 :	11110111;
	471 :	00011100;
	470 :	00000010;
	469 :	11110000;
	468 :	11110001;
	467 :	11110001;
	466 :	11100101;
	465 :	00010011;
	464 :	11111100;
	463 :	00100001;
	462 :	11010000;
	461 :	00010001;
	460 :	00100000;
	459 :	00011110;
	458 :	11100001;
	457 :	00001001;
	456 :	00000011;
	455 :	00001111;
	454 :	00010000;
	453 :	11101011;
	452 :	11101111;
	451 :	11100001;
	450 :	11101101;
	449 :	00010010;
	448 :	00001000;
	447 :	00000001;
	446 :	00000011;
	445 :	00011010;
	444 :	00010010;
	443 :	11111101;
	442 :	00010010;
	441 :	00010000;
	440 :	11001110;
	439 :	00011110;
	438 :	10110100;
	437 :	00001111;
	436 :	11110000;
	435 :	00011010;
	434 :	00000001;
	433 :	11100100;
	432 :	11000111;
	431 :	11101001;
	430 :	11110111;
	429 :	00010001;
	428 :	00010001;
	427 :	11011111;
	426 :	11011010;
	425 :	00001001;
	424 :	11100011;
	423 :	00010101;
	422 :	00010101;
	421 :	11011010;
	420 :	00000111;
	419 :	00001011;
	418 :	11101011;
	417 :	11100011;
	416 :	00100001;
	415 :	00010001;
	414 :	11011111;
	413 :	00000000;
	412 :	11110011;
	411 :	11010110;
	410 :	00010000;
	409 :	00000000;
	408 :	00010011;
	407 :	00100111;
	406 :	11101101;
	405 :	11100101;
	404 :	00101001;
	403 :	11011000;
	402 :	11100001;
	401 :	00001011;
	400 :	11100110;
	399 :	11110100;
	398 :	00101000;
	397 :	11001011;
	396 :	00000011;
	395 :	11111100;
	394 :	11100000;
	393 :	11111110;
	392 :	00001111;
	391 :	00001010;
	390 :	11101010;
	389 :	00000101;
	388 :	00100100;
	387 :	11010010;
	386 :	00010110;
	385 :	11111001;
	384 :	00010110;
	383 :	00001011;
	382 :	00000101;
	381 :	00011100;
	380 :	00010110;
	379 :	11101010;
	378 :	11101001;
	377 :	00010110;
	376 :	00011100;
	375 :	11110111;
	374 :	11100111;
	373 :	00000011;
	372 :	00000000;
	371 :	10110101;
	370 :	11111010;
	369 :	00010100;
	368 :	11001110;
	367 :	11110000;
	366 :	00100111;
	365 :	11000111;
	364 :	00001000;
	363 :	00101000;
	362 :	00010010;
	361 :	00001110;
	360 :	11100011;
	359 :	11111100;
	358 :	00100010;
	357 :	00000111;
	356 :	11111100;
	355 :	11101100;
	354 :	11111100;
	353 :	00001000;
	352 :	00010000;
	351 :	11011101;
	350 :	11110001;
	349 :	11100111;
	348 :	11101100;
	347 :	00000111;
	346 :	11111010;
	345 :	11100111;
	344 :	00000110;
	343 :	11011000;
	342 :	00001100;
	341 :	00110000;
	340 :	00100111;
	339 :	11001110;
	338 :	00001100;
	337 :	00011101;
	336 :	00010010;
	335 :	11100111;
	334 :	00010000;
	333 :	11011110;
	332 :	10111100;
	331 :	11111001;
	330 :	00011101;
	329 :	11101101;
	328 :	00011001;
	327 :	00011010;
	326 :	00001110;
	325 :	11101101;
	324 :	11110000;
	323 :	00000110;
	322 :	10110100;
	321 :	00100101;
	320 :	11110000;
	319 :	11110001;
	318 :	11011000;
	317 :	11110000;
	316 :	00010010;
	315 :	00100110;
	314 :	11110011;
	313 :	11001101;
	312 :	11101101;
	311 :	11110101;
	310 :	00000001;
	309 :	11110111;
	308 :	00000000;
	307 :	00001110;
	306 :	11011101;
	305 :	00010011;
	304 :	11111010;
	303 :	00100000;
	302 :	00000000;
	301 :	11111011;
	300 :	11110010;
	299 :	00011010;
	298 :	11011110;
	297 :	11100001;
	296 :	11110011;
	295 :	11111011;
	294 :	00000011;
	293 :	11110010;
	292 :	00001010;
	291 :	00010110;
	290 :	00001011;
	289 :	00000100;
	288 :	00001110;
	287 :	00100001;
	286 :	11101011;
	285 :	00101110;
	284 :	11101110;
	283 :	11100011;
	282 :	11100011;
	281 :	00100101;
	280 :	00010011;
	279 :	00001100;
	278 :	00011000;
	277 :	11110100;
	276 :	00000101;
	275 :	11111001;
	274 :	11011100;
	273 :	11111111;
	272 :	00001111;
	271 :	00011011;
	270 :	11100111;
	269 :	00000111;
	268 :	11110000;
	267 :	00000010;
	266 :	00000000;
	265 :	00001010;
	264 :	00000011;
	263 :	11110011;
	262 :	00000100;
	261 :	00000100;
	260 :	00000110;
	259 :	11110000;
	258 :	11011111;
	257 :	11011111;
	256 :	11101111;
	255 :	11100011;
	254 :	00010100;
	253 :	00001100;
	252 :	11101001;
	251 :	11100111;
	250 :	11110111;
	249 :	11111001;
	248 :	00000011;
	247 :	00110111;
	246 :	11011100;
	245 :	11110111;
	244 :	11100011;
	243 :	00000000;
	242 :	00001001;
	241 :	00011011;
	240 :	11100111;
	239 :	11111101;
	238 :	11001100;
	237 :	00010111;
	236 :	11110010;
	235 :	00000011;
	234 :	11111111;
	233 :	11101011;
	232 :	11110010;
	231 :	11010000;
	230 :	11110110;
	229 :	00010110;
	228 :	00010010;
	227 :	11100100;
	226 :	11001110;
	225 :	00011110;
	224 :	00010100;
	223 :	00100000;
	222 :	00010110;
	221 :	11010000;
	220 :	11010010;
	219 :	00100011;
	218 :	00001111;
	217 :	00000010;
	216 :	00000001;
	215 :	00010011;
	214 :	11100101;
	213 :	11110111;
	212 :	00100011;
	211 :	11011110;
	210 :	00100001;
	209 :	00101010;
	208 :	11001110;
	207 :	11011101;
	206 :	00010100;
	205 :	00011010;
	204 :	11110111;
	203 :	11101100;
	202 :	11111001;
	201 :	00010000;
	200 :	11110001;
	199 :	11000101;
	198 :	11001110;
	197 :	11111011;
	196 :	00000011;
	195 :	00000001;
	194 :	00000100;
	193 :	11001111;
	192 :	00011011;
	191 :	00000100;
	190 :	00100010;
	189 :	11100001;
	188 :	11100111;
	187 :	11110001;
	186 :	11111011;
	185 :	11011101;
	184 :	11110111;
	183 :	11110100;
	182 :	11110010;
	181 :	00000101;
	180 :	00011000;
	179 :	11100001;
	178 :	11111011;
	177 :	00001001;
	176 :	00011011;
	175 :	00010111;
	174 :	00010100;
	173 :	11011011;
	172 :	11100100;
	171 :	00010110;
	170 :	00001001;
	169 :	11100111;
	168 :	00000110;
	167 :	00011100;
	166 :	11011100;
	165 :	11011110;
	164 :	00011111;
	163 :	11001011;
	162 :	00111011;
	161 :	11110001;
	160 :	11001110;
	159 :	00011001;
	158 :	00000010;
	157 :	11100100;
	156 :	11101001;
	155 :	11000100;
	154 :	11101011;
	153 :	00000010;
	152 :	11101011;
	151 :	00010001;
	150 :	00101010;
	149 :	10111100;
	148 :	11101111;
	147 :	11101000;
	146 :	00010000;
	145 :	11011110;
	144 :	00001110;
	143 :	11011101;
	142 :	00110011;
	141 :	00010000;
	140 :	11111000;
	139 :	11111000;
	138 :	11010100;
	137 :	00010111;
	136 :	00001011;
	135 :	00001011;
	134 :	00100000;
	133 :	00000010;
	132 :	11111001;
	131 :	00001100;
	130 :	10111110;
	129 :	00010100;
	128 :	00000110;
	127 :	11010001;
	126 :	11100011;
	125 :	11110100;
	124 :	11100000;
	123 :	00001111;
	122 :	00101101;
	121 :	00011100;
	120 :	00010011;
	119 :	11100000;
	118 :	11111100;
	117 :	00000001;
	116 :	11111111;
	115 :	00010000;
	114 :	00011011;
	113 :	11101110;
	112 :	00001111;
	111 :	11001111;
	110 :	11001111;
	109 :	00010100;
	108 :	11111100;
	107 :	11111000;
	106 :	00000101;
	105 :	11111110;
	104 :	11110001;
	103 :	11010110;
	102 :	11111010;
	101 :	00100010;
	100 :	11101010;
	99 :	11010011;
	98 :	11100010;
	97 :	00011001;
	96 :	00001010;
	95 :	11100010;
	94 :	00001111;
	93 :	11101110;
	92 :	11110001;
	91 :	11000101;
	90 :	11101111;
	89 :	00000000;
	88 :	11010101;
	87 :	00010111;
	86 :	00001101;
	85 :	00100110;
	84 :	11101001;
	83 :	11010010;
	82 :	11111100;
	81 :	00101001;
	80 :	11111110;
	79 :	11011110;
	78 :	11101100;
	77 :	11110111;
	76 :	00000011;
	75 :	11001111;
	74 :	11110101;
	73 :	11011111;
	72 :	11111011;
	71 :	00001100;
	70 :	11111001;
	69 :	00001010;
	68 :	11011001;
	67 :	00000100;
	66 :	00010110;
	65 :	00001011;
	64 :	11111001;
	63 :	11101000;
	62 :	00001101;
	61 :	00010011;
	60 :	11111101;
	59 :	11110110;
	58 :	00001000;
	57 :	11001010;
	56 :	11010110;
	55 :	11110010;
	54 :	00010011;
	53 :	11011011;
	52 :	00000100;
	51 :	11000000;
	50 :	11110111;
	49 :	11110001;
	48 :	00000101;
	47 :	11111010;
	46 :	00001100;
	45 :	11001001;
	44 :	11101000;
	43 :	11111000;
	42 :	00100101;
	41 :	00001100;
	40 :	00000101;
	39 :	11010001;
	38 :	11011001;
	37 :	00011110;
	36 :	11111101;
	35 :	00010010;
	34 :	11111011;
	33 :	00011110;
	32 :	00010010;
	31 :	00110110;
	30 :	00010110;
	29 :	00000110;
	28 :	00000001;
	27 :	11011110;
	26 :	00000010;
	25 :	10110010;
	24 :	00010000;
	23 :	11110011;
	22 :	11001000;
	21 :	00010010;
	20 :	11011110;
	19 :	00000111;
	18 :	11101011;
	17 :	00001010;
	16 :	11101101;
	15 :	00010101;
	14 :	11111000;
	13 :	11101001;
	12 :	00010100;
	11 :	11110010;
	10 :	11111011;
	9 :	00010000;
	8 :	11011001;
	7 :	11111101;
	6 :	11010110;
	5 :	11111101;
	4 :	00010011;
	3 :	00100001;
	2 :	11110000;
	1 :	11101101;
	0 :	00110000;
END;
