-- begin_signature
-- layer2_weight_rom(CHANNEL_ID
-- 2)
-- end_signature
WIDTH=8;
DEPTH=150;

ADDRESS_RADIX=UNS;
DATA_RADIX=BIN;

CONTENT BEGIN
	149 :	11100100;
	148 :	11100101;
	147 :	11110000;
	146 :	00001110;
	145 :	11111101;
	144 :	00010011;
	143 :	00010000;
	142 :	00001000;
	141 :	11011110;
	140 :	11111010;
	139 :	00010100;
	138 :	11111000;
	137 :	11010000;
	136 :	11011100;
	135 :	11011011;
	134 :	11111101;
	133 :	11111011;
	132 :	11010001;
	131 :	00000010;
	130 :	11110011;
	129 :	00000000;
	128 :	00001011;
	127 :	00010000;
	126 :	00001110;
	125 :	00000001;
	124 :	11100001;
	123 :	11011000;
	122 :	11110000;
	121 :	11111000;
	120 :	00010010;
	119 :	11011011;
	118 :	11101000;
	117 :	00000011;
	116 :	00100001;
	115 :	00100011;
	114 :	11101000;
	113 :	00101001;
	112 :	00011011;
	111 :	11110001;
	110 :	11110111;
	109 :	00010001;
	108 :	00100001;
	107 :	11111010;
	106 :	11001101;
	105 :	11101110;
	104 :	11111000;
	103 :	11101101;
	102 :	11100011;
	101 :	00001000;
	100 :	00010110;
	99 :	00000100;
	98 :	11011001;
	97 :	11010100;
	96 :	11110111;
	95 :	00010000;
	94 :	11011011;
	93 :	00001000;
	92 :	00011110;
	91 :	00011100;
	90 :	00111001;
	89 :	11110101;
	88 :	00000010;
	87 :	00000100;
	86 :	11111111;
	85 :	00000100;
	84 :	00001101;
	83 :	00010011;
	82 :	00001011;
	81 :	11101100;
	80 :	11100100;
	79 :	11111010;
	78 :	11110001;
	77 :	11011001;
	76 :	11110011;
	75 :	11100111;
	74 :	00000011;
	73 :	00100011;
	72 :	00000100;
	71 :	00001010;
	70 :	00100111;
	69 :	11111010;
	68 :	00001110;
	67 :	11101110;
	66 :	00000011;
	65 :	00100010;
	64 :	11111001;
	63 :	00000000;
	62 :	00001111;
	61 :	00000001;
	60 :	11110100;
	59 :	11111101;
	58 :	11111011;
	57 :	11100010;
	56 :	11101001;
	55 :	11100000;
	54 :	11110111;
	53 :	11110011;
	52 :	11101110;
	51 :	00000010;
	50 :	11101101;
	49 :	11110011;
	48 :	00100010;
	47 :	01001110;
	46 :	01000101;
	45 :	00101001;
	44 :	00111010;
	43 :	01000101;
	42 :	00011001;
	41 :	00000101;
	40 :	11110110;
	39 :	00011110;
	38 :	11011110;
	37 :	11110000;
	36 :	00110001;
	35 :	01000001;
	34 :	11011110;
	33 :	00001000;
	32 :	00110001;
	31 :	00100111;
	30 :	11110101;
	29 :	11110111;
	28 :	11011110;
	27 :	11001010;
	26 :	11000110;
	25 :	11010000;
	24 :	11011010;
	23 :	00001111;
	22 :	00110111;
	21 :	00011111;
	20 :	00101001;
	19 :	00010100;
	18 :	00110011;
	17 :	00101000;
	16 :	00000100;
	15 :	00001110;
	14 :	00010011;
	13 :	00000010;
	12 :	11111001;
	11 :	11011110;
	10 :	11110000;
	9 :	11111100;
	8 :	11011001;
	7 :	11110110;
	6 :	11111101;
	5 :	00010111;
	4 :	11011010;
	3 :	11101000;
	2 :	11110011;
	1 :	00011000;
	0 :	00000100;
END;
