-- begin_signature
-- layer1_weight_rom(CHANNEL_ID
-- 0)
-- end_signature
WIDTH=8;
DEPTH=32;

ADDRESS_RADIX=UNS;
DATA_RADIX=BIN;

CONTENT BEGIN
	31 :	XXXXXXXX;
	30 :	XXXXXXXX;
	29 :	XXXXXXXX;
	28 :	XXXXXXXX;
	27 :	XXXXXXXX;
	26 :	XXXXXXXX;
	25 :	XXXXXXXX;
	24 :	11110110;
	23 :	10101111;
	22 :	11000111;
	21 :	10111010;
	20 :	11010111;
	19 :	11011101;
	18 :	11010001;
	17 :	11110111;
	16 :	11110110;
	15 :	00001001;
	14 :	00100100;
	13 :	11011101;
	12 :	00101111;
	11 :	01000101;
	10 :	00100110;
	9 :	00011111;
	8 :	00000011;
	7 :	01001111;
	6 :	00001011;
	5 :	00011010;
	4 :	00101100;
	3 :	01000101;
	2 :	00111001;
	1 :	00111000;
	0 :	00110011;
END;
