-- begin_signature
-- fc_weight_rom(NUM_WORDS
-- 48000
-- WEIGHT_FILE
-- "/home/bany/personal/fpga-dnn-accelerator/top/weights_generator/fc_weights/c5_weights_flattened.hex")
-- end_signature
WIDTH=8;
DEPTH=48000;

ADDRESS_RADIX=UNS;
DATA_RADIX=BIN;

CONTENT BEGIN
	47999 :	00000111;
	47998 :	11110011;
	47997 :	00011000;
	47996 :	00001010;
	47995 :	00000001;
	47994 :	00000000;
	47993 :	11110001;
	47992 :	00001000;
	47991 :	00001000;
	47990 :	00000000;
	47989 :	11111000;
	47988 :	11101011;
	47987 :	00000110;
	47986 :	00010110;
	47985 :	00011000;
	47984 :	11110111;
	47983 :	11101000;
	47982 :	00001010;
	47981 :	00010001;
	47980 :	00001010;
	47979 :	00001011;
	47978 :	00001001;
	47977 :	00100110;
	47976 :	00010110;
	47975 :	00011111;
	47974 :	11111101;
	47973 :	11111100;
	47972 :	00001100;
	47971 :	00001001;
	47970 :	00000101;
	47969 :	11101110;
	47968 :	11110010;
	47967 :	00000111;
	47966 :	11110110;
	47965 :	11111001;
	47964 :	00000000;
	47963 :	11101110;
	47962 :	00001010;
	47961 :	00000001;
	47960 :	00010001;
	47959 :	00001100;
	47958 :	11111011;
	47957 :	00010000;
	47956 :	00011010;
	47955 :	00000110;
	47954 :	00000001;
	47953 :	11111010;
	47952 :	11111110;
	47951 :	00001010;
	47950 :	00001010;
	47949 :	00001110;
	47948 :	00011010;
	47947 :	00000001;
	47946 :	00000110;
	47945 :	11111100;
	47944 :	00010101;
	47943 :	00001000;
	47942 :	11110101;
	47941 :	11111000;
	47940 :	11111001;
	47939 :	00000100;
	47938 :	00001100;
	47937 :	11111100;
	47936 :	00001001;
	47935 :	00000100;
	47934 :	00000110;
	47933 :	11111111;
	47932 :	00000011;
	47931 :	00000010;
	47930 :	11101001;
	47929 :	11110001;
	47928 :	11111110;
	47927 :	11111101;
	47926 :	11111111;
	47925 :	11110011;
	47924 :	00001110;
	47923 :	00010100;
	47922 :	00000001;
	47921 :	00001000;
	47920 :	11111000;
	47919 :	00001010;
	47918 :	00011101;
	47917 :	00000010;
	47916 :	00001010;
	47915 :	11101001;
	47914 :	00000010;
	47913 :	11110110;
	47912 :	00000011;
	47911 :	00000011;
	47910 :	00001010;
	47909 :	00000111;
	47908 :	11111001;
	47907 :	11110110;
	47906 :	00011000;
	47905 :	00001110;
	47904 :	00000100;
	47903 :	11101110;
	47902 :	11101000;
	47901 :	11110101;
	47900 :	00000010;
	47899 :	11110100;
	47898 :	11110111;
	47897 :	00010101;
	47896 :	00001001;
	47895 :	11101000;
	47894 :	11101001;
	47893 :	00000011;
	47892 :	00000000;
	47891 :	00000101;
	47890 :	00000001;
	47889 :	11110101;
	47888 :	00000100;
	47887 :	11110100;
	47886 :	11110110;
	47885 :	11110010;
	47884 :	00001100;
	47883 :	00010010;
	47882 :	00001101;
	47881 :	00000010;
	47880 :	11111001;
	47879 :	00010111;
	47878 :	00000000;
	47877 :	11111100;
	47876 :	00000101;
	47875 :	11111001;
	47874 :	11101010;
	47873 :	11101010;
	47872 :	11111000;
	47871 :	00000000;
	47870 :	11111100;
	47869 :	00001101;
	47868 :	11111111;
	47867 :	11101101;
	47866 :	00010010;
	47865 :	00001101;
	47864 :	00010101;
	47863 :	11101011;
	47862 :	00001001;
	47861 :	00010100;
	47860 :	11110101;
	47859 :	11110001;
	47858 :	11011100;
	47857 :	11111100;
	47856 :	11001110;
	47855 :	11100011;
	47854 :	00010101;
	47853 :	11101110;
	47852 :	11111110;
	47851 :	11101010;
	47850 :	11101000;
	47849 :	11101001;
	47848 :	00010000;
	47847 :	00010001;
	47846 :	00000100;
	47845 :	00000010;
	47844 :	11110101;
	47843 :	00001000;
	47842 :	00000010;
	47841 :	11110101;
	47840 :	00011011;
	47839 :	00001001;
	47838 :	11101111;
	47837 :	11111100;
	47836 :	00000000;
	47835 :	00000100;
	47834 :	00000000;
	47833 :	11101010;
	47832 :	11100010;
	47831 :	11111001;
	47830 :	11111101;
	47829 :	11110110;
	47828 :	11100001;
	47827 :	11011010;
	47826 :	11110101;
	47825 :	00000100;
	47824 :	11101111;
	47823 :	00000110;
	47822 :	00001110;
	47821 :	11111001;
	47820 :	00000000;
	47819 :	11111000;
	47818 :	00000000;
	47817 :	00010001;
	47816 :	11111001;
	47815 :	00001011;
	47814 :	00011101;
	47813 :	11110110;
	47812 :	00001000;
	47811 :	11110101;
	47810 :	00001001;
	47809 :	11110001;
	47808 :	11111001;
	47807 :	11101100;
	47806 :	00011001;
	47805 :	00000011;
	47804 :	11111110;
	47803 :	11110110;
	47802 :	11101000;
	47801 :	00010100;
	47800 :	00001100;
	47799 :	11101101;
	47798 :	11110001;
	47797 :	00011001;
	47796 :	11111001;
	47795 :	00000000;
	47794 :	11101000;
	47793 :	11101100;
	47792 :	11111100;
	47791 :	00000010;
	47790 :	11111000;
	47789 :	11111010;
	47788 :	11111011;
	47787 :	11110001;
	47786 :	00001101;
	47785 :	00001111;
	47784 :	00000101;
	47783 :	00010001;
	47782 :	00001010;
	47781 :	00000001;
	47780 :	00001000;
	47779 :	00001010;
	47778 :	00000111;
	47777 :	11111001;
	47776 :	11110100;
	47775 :	11110001;
	47774 :	00000000;
	47773 :	11111100;
	47772 :	11110111;
	47771 :	11110101;
	47770 :	11101000;
	47769 :	00001101;
	47768 :	00000000;
	47767 :	00000011;
	47766 :	11111111;
	47765 :	11111101;
	47764 :	00010010;
	47763 :	00001001;
	47762 :	11110111;
	47761 :	11101010;
	47760 :	11011001;
	47759 :	11110001;
	47758 :	00000101;
	47757 :	11111000;
	47756 :	11100110;
	47755 :	11010111;
	47754 :	00001000;
	47753 :	00111001;
	47752 :	00110000;
	47751 :	11101110;
	47750 :	11000111;
	47749 :	11110110;
	47748 :	11111110;
	47747 :	00001010;
	47746 :	11111100;
	47745 :	11111001;
	47744 :	11011101;
	47743 :	00000000;
	47742 :	00000100;
	47741 :	11110111;
	47740 :	00001011;
	47739 :	00011011;
	47738 :	00010001;
	47737 :	00001010;
	47736 :	00001011;
	47735 :	00001010;
	47734 :	00011100;
	47733 :	00001110;
	47732 :	11101100;
	47731 :	11011110;
	47730 :	11100000;
	47729 :	00001011;
	47728 :	11111001;
	47727 :	11111000;
	47726 :	11110010;
	47725 :	11101001;
	47724 :	11100011;
	47723 :	11110101;
	47722 :	11100111;
	47721 :	11100100;
	47720 :	11110011;
	47719 :	00000000;
	47718 :	00010010;
	47717 :	11111011;
	47716 :	00001011;
	47715 :	00001111;
	47714 :	00011011;
	47713 :	00001100;
	47712 :	11100110;
	47711 :	11110001;
	47710 :	11111001;
	47709 :	00011111;
	47708 :	11111111;
	47707 :	11100001;
	47706 :	11011011;
	47705 :	11000111;
	47704 :	00011110;
	47703 :	00001001;
	47702 :	11101101;
	47701 :	11101100;
	47700 :	11001000;
	47699 :	11111001;
	47698 :	00000110;
	47697 :	00000011;
	47696 :	11111100;
	47695 :	00000101;
	47694 :	11110111;
	47693 :	11101011;
	47692 :	00000000;
	47691 :	00000101;
	47690 :	00001101;
	47689 :	00001011;
	47688 :	11111101;
	47687 :	00000110;
	47686 :	00010001;
	47685 :	00000100;
	47684 :	00001100;
	47683 :	11110011;
	47682 :	11011110;
	47681 :	11111110;
	47680 :	11100101;
	47679 :	00010100;
	47678 :	11110011;
	47677 :	11011010;
	47676 :	11110100;
	47675 :	11110011;
	47674 :	11111010;
	47673 :	00001001;
	47672 :	11101101;
	47671 :	11111010;
	47670 :	11110010;
	47669 :	11101010;
	47668 :	11111111;
	47667 :	11100100;
	47666 :	11101011;
	47665 :	00000110;
	47664 :	11110010;
	47663 :	00000110;
	47662 :	00001111;
	47661 :	00001000;
	47660 :	11111010;
	47659 :	00010110;
	47658 :	00011100;
	47657 :	00010110;
	47656 :	00000010;
	47655 :	11011100;
	47654 :	00011001;
	47653 :	00000100;
	47652 :	11111000;
	47651 :	11101011;
	47650 :	11100110;
	47649 :	11111010;
	47648 :	11110100;
	47647 :	00000010;
	47646 :	11111111;
	47645 :	00000011;
	47644 :	11101111;
	47643 :	11110001;
	47642 :	00000010;
	47641 :	00010000;
	47640 :	00001111;
	47639 :	00001011;
	47638 :	00010100;
	47637 :	00001101;
	47636 :	11111110;
	47635 :	00000110;
	47634 :	00001111;
	47633 :	00010001;
	47632 :	11111100;
	47631 :	00000001;
	47630 :	11111000;
	47629 :	00000000;
	47628 :	00010000;
	47627 :	00001011;
	47626 :	00010001;
	47625 :	00010100;
	47624 :	11111011;
	47623 :	00010100;
	47622 :	00010101;
	47621 :	00010010;
	47620 :	11111100;
	47619 :	00000110;
	47618 :	00011001;
	47617 :	00000001;
	47616 :	00001101;
	47615 :	11110111;
	47614 :	11110011;
	47613 :	00000001;
	47612 :	00010011;
	47611 :	00001010;
	47610 :	00001101;
	47609 :	11111111;
	47608 :	11111001;
	47607 :	00000001;
	47606 :	00010100;
	47605 :	00000101;
	47604 :	11110010;
	47603 :	11110011;
	47602 :	00000111;
	47601 :	11111000;
	47600 :	11111100;
	47599 :	11111110;
	47598 :	00000000;
	47597 :	11110100;
	47596 :	00001000;
	47595 :	00010101;
	47594 :	11110001;
	47593 :	00000011;
	47592 :	11110110;
	47591 :	00010100;
	47590 :	00010111;
	47589 :	00000110;
	47588 :	11110110;
	47587 :	00001011;
	47586 :	00000111;
	47585 :	11111010;
	47584 :	00100010;
	47583 :	00000000;
	47582 :	00001010;
	47581 :	00001110;
	47580 :	11110011;
	47579 :	11110001;
	47578 :	11101010;
	47577 :	11110010;
	47576 :	11111101;
	47575 :	11111111;
	47574 :	11111001;
	47573 :	00000000;
	47572 :	11111110;
	47571 :	11111101;
	47570 :	11111101;
	47569 :	00001000;
	47568 :	00011010;
	47567 :	11110001;
	47566 :	11111000;
	47565 :	00001101;
	47564 :	11110110;
	47563 :	00010101;
	47562 :	00000101;
	47561 :	00001101;
	47560 :	11111100;
	47559 :	00001100;
	47558 :	11111110;
	47557 :	11111010;
	47556 :	00010010;
	47555 :	00001100;
	47554 :	00011100;
	47553 :	00010110;
	47552 :	00001110;
	47551 :	11111010;
	47550 :	00000100;
	47549 :	00000101;
	47548 :	11101111;
	47547 :	11100111;
	47546 :	11001111;
	47545 :	11001111;
	47544 :	00001110;
	47543 :	00000000;
	47542 :	11111000;
	47541 :	11101001;
	47540 :	11101101;
	47539 :	11101011;
	47538 :	00001010;
	47537 :	00000111;
	47536 :	00100000;
	47535 :	00100001;
	47534 :	11111111;
	47533 :	00000011;
	47532 :	00010011;
	47531 :	00100110;
	47530 :	00101000;
	47529 :	00001100;
	47528 :	11111111;
	47527 :	11111001;
	47526 :	00001000;
	47525 :	00001111;
	47524 :	00001101;
	47523 :	11110010;
	47522 :	00000011;
	47521 :	11111011;
	47520 :	00000101;
	47519 :	00000001;
	47518 :	00000110;
	47517 :	11110111;
	47516 :	11110011;
	47515 :	11001110;
	47514 :	11110100;
	47513 :	11110011;
	47512 :	11110111;
	47511 :	00001111;
	47510 :	11111001;
	47509 :	00000011;
	47508 :	11110101;
	47507 :	00011101;
	47506 :	00011111;
	47505 :	00101000;
	47504 :	00001011;
	47503 :	00001000;
	47502 :	11111110;
	47501 :	00001010;
	47500 :	11110100;
	47499 :	11111011;
	47498 :	00000000;
	47497 :	11101111;
	47496 :	11101001;
	47495 :	11100001;
	47494 :	00001111;
	47493 :	00010000;
	47492 :	00001011;
	47491 :	00000010;
	47490 :	00000000;
	47489 :	11111111;
	47488 :	11101111;
	47487 :	00001000;
	47486 :	00001000;
	47485 :	00010010;
	47484 :	00001110;
	47483 :	00010111;
	47482 :	00001101;
	47481 :	00001101;
	47480 :	00001100;
	47479 :	00001011;
	47478 :	00000001;
	47477 :	00000001;
	47476 :	00010010;
	47475 :	00001111;
	47474 :	00010110;
	47473 :	11111011;
	47472 :	00000100;
	47471 :	11101111;
	47470 :	11110000;
	47469 :	00000100;
	47468 :	11111100;
	47467 :	11110101;
	47466 :	11111011;
	47465 :	00001111;
	47464 :	11111110;
	47463 :	11110111;
	47462 :	00001010;
	47461 :	11111011;
	47460 :	00000010;
	47459 :	00100110;
	47458 :	00100011;
	47457 :	00000101;
	47456 :	00010000;
	47455 :	00010011;
	47454 :	11111101;
	47453 :	00010110;
	47452 :	11110101;
	47451 :	11110101;
	47450 :	00001000;
	47449 :	00001001;
	47448 :	00001110;
	47447 :	00000010;
	47446 :	00010011;
	47445 :	00001111;
	47444 :	11111100;
	47443 :	11101000;
	47442 :	11101010;
	47441 :	11101011;
	47440 :	11111101;
	47439 :	11111001;
	47438 :	11111100;
	47437 :	11101001;
	47436 :	11110111;
	47435 :	00000110;
	47434 :	00010101;
	47433 :	11111110;
	47432 :	00010000;
	47431 :	00001110;
	47430 :	00000011;
	47429 :	00100100;
	47428 :	00000000;
	47427 :	00011000;
	47426 :	00010111;
	47425 :	11101000;
	47424 :	00000000;
	47423 :	00000000;
	47422 :	00000110;
	47421 :	00011101;
	47420 :	00010110;
	47419 :	11111010;
	47418 :	11111010;
	47417 :	11111100;
	47416 :	11101000;
	47415 :	11111110;
	47414 :	00001011;
	47413 :	11101110;
	47412 :	11101110;
	47411 :	11110001;
	47410 :	11111000;
	47409 :	00000001;
	47408 :	11101111;
	47407 :	00010111;
	47406 :	00001000;
	47405 :	11101111;
	47404 :	00000010;
	47403 :	00001111;
	47402 :	00000110;
	47401 :	00010001;
	47400 :	11111000;
	47399 :	00000011;
	47398 :	11111010;
	47397 :	11010000;
	47396 :	11101001;
	47395 :	11101110;
	47394 :	00011010;
	47393 :	00011001;
	47392 :	11110111;
	47391 :	00000101;
	47390 :	00000011;
	47389 :	00011000;
	47388 :	11111001;
	47387 :	00001000;
	47386 :	00011101;
	47385 :	00011011;
	47384 :	00001101;
	47383 :	11110100;
	47382 :	11111101;
	47381 :	11111101;
	47380 :	11111101;
	47379 :	11111011;
	47378 :	11111110;
	47377 :	11111100;
	47376 :	00010101;
	47375 :	00010110;
	47374 :	00000101;
	47373 :	11111110;
	47372 :	11001010;
	47371 :	11010101;
	47370 :	10110111;
	47369 :	00001001;
	47368 :	00001000;
	47367 :	11100111;
	47366 :	11111010;
	47365 :	11101110;
	47364 :	11101110;
	47363 :	00000010;
	47362 :	11111010;
	47361 :	00000011;
	47360 :	00100110;
	47359 :	11110101;
	47358 :	11101100;
	47357 :	11110100;
	47356 :	11110010;
	47355 :	00001110;
	47354 :	11111000;
	47353 :	11010110;
	47352 :	11100101;
	47351 :	11110000;
	47350 :	00000000;
	47349 :	00001100;
	47348 :	00000001;
	47347 :	11111011;
	47346 :	11101100;
	47345 :	11111000;
	47344 :	00100000;
	47343 :	00000011;
	47342 :	00000101;
	47341 :	11101011;
	47340 :	00000000;
	47339 :	00011011;
	47338 :	11110111;
	47337 :	11101001;
	47336 :	11111011;
	47335 :	00010011;
	47334 :	00011011;
	47333 :	00000001;
	47332 :	11111011;
	47331 :	00011110;
	47330 :	00011010;
	47329 :	00000010;
	47328 :	00010001;
	47327 :	00100100;
	47326 :	00011001;
	47325 :	00000100;
	47324 :	00011001;
	47323 :	11111011;
	47322 :	11101010;
	47321 :	11011001;
	47320 :	11010111;
	47319 :	11111110;
	47318 :	00000000;
	47317 :	11101100;
	47316 :	11101000;
	47315 :	11100010;
	47314 :	11111101;
	47313 :	00000011;
	47312 :	11101010;
	47311 :	11100010;
	47310 :	00001000;
	47309 :	11010010;
	47308 :	11100110;
	47307 :	11111100;
	47306 :	11110011;
	47305 :	00001110;
	47304 :	11111010;
	47303 :	00010010;
	47302 :	00101000;
	47301 :	00110001;
	47300 :	00100011;
	47299 :	00010011;
	47298 :	11110111;
	47297 :	11110010;
	47296 :	11110000;
	47295 :	11110001;
	47294 :	00000110;
	47293 :	11101100;
	47292 :	11111110;
	47291 :	00000001;
	47290 :	00000000;
	47289 :	00001000;
	47288 :	11111110;
	47287 :	11110010;
	47286 :	11111000;
	47285 :	00000111;
	47284 :	00000101;
	47283 :	00001101;
	47282 :	00000011;
	47281 :	11111001;
	47280 :	00000100;
	47279 :	11011000;
	47278 :	00000110;
	47277 :	00001101;
	47276 :	00001011;
	47275 :	00000000;
	47274 :	11110110;
	47273 :	11101010;
	47272 :	11111100;
	47271 :	11101000;
	47270 :	11101110;
	47269 :	00001000;
	47268 :	00000110;
	47267 :	00001010;
	47266 :	00001101;
	47265 :	00100001;
	47264 :	00010111;
	47263 :	00001100;
	47262 :	11111011;
	47261 :	00000010;
	47260 :	00011001;
	47259 :	11101011;
	47258 :	00000100;
	47257 :	00000001;
	47256 :	11111101;
	47255 :	00000011;
	47254 :	00001100;
	47253 :	11111111;
	47252 :	00001001;
	47251 :	00010001;
	47250 :	00010011;
	47249 :	00000101;
	47248 :	11101110;
	47247 :	11101001;
	47246 :	11111000;
	47245 :	00010100;
	47244 :	00001111;
	47243 :	00000000;
	47242 :	11111110;
	47241 :	00010100;
	47240 :	00010001;
	47239 :	00011011;
	47238 :	00001110;
	47237 :	11101101;
	47236 :	00001110;
	47235 :	00000101;
	47234 :	11111101;
	47233 :	00000100;
	47232 :	11111001;
	47231 :	00000111;
	47230 :	00001011;
	47229 :	11110110;
	47228 :	00000000;
	47227 :	11110111;
	47226 :	00010110;
	47225 :	00001010;
	47224 :	00001010;
	47223 :	11110101;
	47222 :	00010000;
	47221 :	00010110;
	47220 :	00001010;
	47219 :	11110011;
	47218 :	11110011;
	47217 :	00000100;
	47216 :	00000001;
	47215 :	11101110;
	47214 :	11111011;
	47213 :	11110010;
	47212 :	11110100;
	47211 :	11101110;
	47210 :	11111100;
	47209 :	00000111;
	47208 :	00001010;
	47207 :	11111110;
	47206 :	11111001;
	47205 :	00001000;
	47204 :	00001001;
	47203 :	00000111;
	47202 :	00000110;
	47201 :	11110101;
	47200 :	11111010;
	47199 :	00000101;
	47198 :	00001110;
	47197 :	00010011;
	47196 :	00000000;
	47195 :	11111000;
	47194 :	00011111;
	47193 :	00011000;
	47192 :	00001011;
	47191 :	00001010;
	47190 :	00011010;
	47189 :	00001010;
	47188 :	00000010;
	47187 :	00011001;
	47186 :	00010110;
	47185 :	00001100;
	47184 :	00011001;
	47183 :	00000100;
	47182 :	00000001;
	47181 :	00010010;
	47180 :	00000100;
	47179 :	11111110;
	47178 :	00000110;
	47177 :	00000010;
	47176 :	00000010;
	47175 :	11110110;
	47174 :	11111111;
	47173 :	00001000;
	47172 :	11111101;
	47171 :	11101010;
	47170 :	11101100;
	47169 :	00000000;
	47168 :	11110110;
	47167 :	11100100;
	47166 :	00000100;
	47165 :	11111011;
	47164 :	11111101;
	47163 :	11110100;
	47162 :	00001101;
	47161 :	00000110;
	47160 :	00001010;
	47159 :	00010011;
	47158 :	11110110;
	47157 :	00001001;
	47156 :	00000010;
	47155 :	00000101;
	47154 :	00000110;
	47153 :	11111000;
	47152 :	00001001;
	47151 :	00010010;
	47150 :	11101111;
	47149 :	11101100;
	47148 :	11110111;
	47147 :	00000110;
	47146 :	00001001;
	47145 :	00000011;
	47144 :	00000111;
	47143 :	11110101;
	47142 :	11101110;
	47141 :	11110001;
	47140 :	11101111;
	47139 :	11111000;
	47138 :	11110111;
	47137 :	11111101;
	47136 :	00000000;
	47135 :	00000111;
	47134 :	00001010;
	47133 :	00001010;
	47132 :	11111101;
	47131 :	11101101;
	47130 :	11111000;
	47129 :	00000000;
	47128 :	00001100;
	47127 :	00010110;
	47126 :	11110101;
	47125 :	00000011;
	47124 :	00001110;
	47123 :	11101011;
	47122 :	11101011;
	47121 :	00000000;
	47120 :	00001011;
	47119 :	00000000;
	47118 :	11101111;
	47117 :	11101001;
	47116 :	00000000;
	47115 :	00000100;
	47114 :	11110010;
	47113 :	11110000;
	47112 :	11110101;
	47111 :	00011010;
	47110 :	00011011;
	47109 :	11111101;
	47108 :	11101111;
	47107 :	00000000;
	47106 :	11101101;
	47105 :	11110110;
	47104 :	00000011;
	47103 :	00001001;
	47102 :	11111100;
	47101 :	11110011;
	47100 :	11011101;
	47099 :	11100101;
	47098 :	00010110;
	47097 :	00000111;
	47096 :	11101111;
	47095 :	11101010;
	47094 :	11110111;
	47093 :	11110010;
	47092 :	11110110;
	47091 :	11111001;
	47090 :	11100110;
	47089 :	11111001;
	47088 :	00000000;
	47087 :	11110111;
	47086 :	11111011;
	47085 :	11110001;
	47084 :	11100101;
	47083 :	11110111;
	47082 :	00000101;
	47081 :	00000100;
	47080 :	11111100;
	47079 :	00000001;
	47078 :	00000001;
	47077 :	11111111;
	47076 :	00000111;
	47075 :	00000101;
	47074 :	00000001;
	47073 :	00000110;
	47072 :	00001110;
	47071 :	00010011;
	47070 :	00000111;
	47069 :	00000100;
	47068 :	00001111;
	47067 :	00010001;
	47066 :	11111111;
	47065 :	00000100;
	47064 :	11111000;
	47063 :	11110111;
	47062 :	00011001;
	47061 :	00000001;
	47060 :	00000000;
	47059 :	11110000;
	47058 :	11100110;
	47057 :	11110001;
	47056 :	11110100;
	47055 :	11111010;
	47054 :	00000010;
	47053 :	11100110;
	47052 :	11101101;
	47051 :	00000000;
	47050 :	11110001;
	47049 :	00010101;
	47048 :	00000000;
	47047 :	11101111;
	47046 :	11111111;
	47045 :	00000111;
	47044 :	00000000;
	47043 :	11111111;
	47042 :	11101100;
	47041 :	00000101;
	47040 :	00010100;
	47039 :	00000010;
	47038 :	11111101;
	47037 :	11110111;
	47036 :	00010011;
	47035 :	00001100;
	47034 :	00001000;
	47033 :	00000110;
	47032 :	00000100;
	47031 :	00001110;
	47030 :	11111110;
	47029 :	11111011;
	47028 :	00000001;
	47027 :	11011110;
	47026 :	11011100;
	47025 :	11011000;
	47024 :	00001110;
	47023 :	00011000;
	47022 :	00010010;
	47021 :	00000100;
	47020 :	11111010;
	47019 :	11111011;
	47018 :	00001101;
	47017 :	00000101;
	47016 :	00000110;
	47015 :	00001000;
	47014 :	00001110;
	47013 :	00010001;
	47012 :	00010100;
	47011 :	00000110;
	47010 :	00000111;
	47009 :	11101110;
	47008 :	00000110;
	47007 :	11111110;
	47006 :	00010010;
	47005 :	00000001;
	47004 :	11100111;
	47003 :	00000000;
	47002 :	11100000;
	47001 :	11111010;
	47000 :	11110110;
	46999 :	11100001;
	46998 :	00000110;
	46997 :	11111110;
	46996 :	11101100;
	46995 :	00000110;
	46994 :	11011111;
	46993 :	00001100;
	46992 :	11111011;
	46991 :	00001010;
	46990 :	00011101;
	46989 :	00000000;
	46988 :	00001101;
	46987 :	00000000;
	46986 :	00001000;
	46985 :	11101010;
	46984 :	11001111;
	46983 :	11111001;
	46982 :	11101111;
	46981 :	11111001;
	46980 :	11110001;
	46979 :	00000001;
	46978 :	00000011;
	46977 :	00000011;
	46976 :	00010001;
	46975 :	00000011;
	46974 :	11111111;
	46973 :	00000001;
	46972 :	00000010;
	46971 :	11111001;
	46970 :	11111011;
	46969 :	00010111;
	46968 :	00000110;
	46967 :	00000111;
	46966 :	00001011;
	46965 :	11100001;
	46964 :	00001111;
	46963 :	00001000;
	46962 :	11110001;
	46961 :	00000011;
	46960 :	11100110;
	46959 :	00000001;
	46958 :	11110101;
	46957 :	00000000;
	46956 :	11101001;
	46955 :	11001000;
	46954 :	11110111;
	46953 :	11000001;
	46952 :	11010001;
	46951 :	11101111;
	46950 :	11110010;
	46949 :	11110111;
	46948 :	00001000;
	46947 :	11111100;
	46946 :	11111001;
	46945 :	00000101;
	46944 :	11101101;
	46943 :	11111100;
	46942 :	00010000;
	46941 :	00001001;
	46940 :	00001011;
	46939 :	11101010;
	46938 :	11101111;
	46937 :	00001001;
	46936 :	00000001;
	46935 :	11111010;
	46934 :	11111111;
	46933 :	11111010;
	46932 :	00000000;
	46931 :	11111110;
	46930 :	11101110;
	46929 :	00000100;
	46928 :	00000001;
	46927 :	11110101;
	46926 :	11111110;
	46925 :	11110000;
	46924 :	11101101;
	46923 :	11011001;
	46922 :	11110000;
	46921 :	00001011;
	46920 :	00100000;
	46919 :	11101001;
	46918 :	11110110;
	46917 :	00001110;
	46916 :	00001101;
	46915 :	00000110;
	46914 :	11100101;
	46913 :	11110010;
	46912 :	11111100;
	46911 :	11110100;
	46910 :	11001100;
	46909 :	11111110;
	46908 :	11111101;
	46907 :	11111001;
	46906 :	11110001;
	46905 :	11001000;
	46904 :	11011110;
	46903 :	11010010;
	46902 :	11100100;
	46901 :	11011111;
	46900 :	00000100;
	46899 :	11101010;
	46898 :	11111010;
	46897 :	11111100;
	46896 :	00001010;
	46895 :	00010110;
	46894 :	11011101;
	46893 :	11111100;
	46892 :	00011010;
	46891 :	00010010;
	46890 :	00010011;
	46889 :	11111110;
	46888 :	11101111;
	46887 :	00000000;
	46886 :	00001011;
	46885 :	11111001;
	46884 :	11101010;
	46883 :	11101100;
	46882 :	11101100;
	46881 :	11110110;
	46880 :	11110101;
	46879 :	11101011;
	46878 :	11100011;
	46877 :	11110011;
	46876 :	11110100;
	46875 :	11101100;
	46874 :	00000010;
	46873 :	00000011;
	46872 :	11101100;
	46871 :	11100000;
	46870 :	11110000;
	46869 :	11111000;
	46868 :	00001111;
	46867 :	00000010;
	46866 :	00000000;
	46865 :	00000100;
	46864 :	00001000;
	46863 :	00000000;
	46862 :	00000111;
	46861 :	11101000;
	46860 :	11100001;
	46859 :	11101111;
	46858 :	11111010;
	46857 :	00000000;
	46856 :	11101110;
	46855 :	11111000;
	46854 :	00001111;
	46853 :	00010001;
	46852 :	00000101;
	46851 :	00011010;
	46850 :	00011010;
	46849 :	11111001;
	46848 :	11111111;
	46847 :	11110001;
	46846 :	11111101;
	46845 :	00010111;
	46844 :	11111101;
	46843 :	00000110;
	46842 :	11110110;
	46841 :	00000011;
	46840 :	11111101;
	46839 :	00001111;
	46838 :	00010000;
	46837 :	00001011;
	46836 :	11111111;
	46835 :	00001010;
	46834 :	00000010;
	46833 :	00011110;
	46832 :	00001011;
	46831 :	00000110;
	46830 :	00010000;
	46829 :	00000011;
	46828 :	00001100;
	46827 :	11111011;
	46826 :	00001001;
	46825 :	00000010;
	46824 :	11111101;
	46823 :	11111011;
	46822 :	11110101;
	46821 :	11111010;
	46820 :	00000000;
	46819 :	11111000;
	46818 :	00000010;
	46817 :	00000101;
	46816 :	11111001;
	46815 :	00010110;
	46814 :	00001000;
	46813 :	00001110;
	46812 :	00001110;
	46811 :	00000010;
	46810 :	00010001;
	46809 :	11111000;
	46808 :	00000010;
	46807 :	00010100;
	46806 :	11111001;
	46805 :	11110001;
	46804 :	11110110;
	46803 :	00001111;
	46802 :	00000101;
	46801 :	11111011;
	46800 :	11110101;
	46799 :	00000001;
	46798 :	11111100;
	46797 :	00000000;
	46796 :	11100000;
	46795 :	11100100;
	46794 :	11111111;
	46793 :	11111000;
	46792 :	00000111;
	46791 :	11110001;
	46790 :	11111000;
	46789 :	11100010;
	46788 :	11101011;
	46787 :	00000110;
	46786 :	00000100;
	46785 :	11110111;
	46784 :	11000111;
	46783 :	10111100;
	46782 :	11111111;
	46781 :	11111110;
	46780 :	11111100;
	46779 :	11011110;
	46778 :	00000011;
	46777 :	00011010;
	46776 :	00011011;
	46775 :	00011100;
	46774 :	11110100;
	46773 :	11111111;
	46772 :	00010101;
	46771 :	11111101;
	46770 :	00010110;
	46769 :	00010001;
	46768 :	00000010;
	46767 :	00011011;
	46766 :	11111100;
	46765 :	00001100;
	46764 :	00011100;
	46763 :	11111101;
	46762 :	00000101;
	46761 :	00000001;
	46760 :	11111101;
	46759 :	11111110;
	46758 :	11110011;
	46757 :	11110111;
	46756 :	11111111;
	46755 :	11111100;
	46754 :	11110000;
	46753 :	00000011;
	46752 :	11100101;
	46751 :	00000010;
	46750 :	00000001;
	46749 :	00010100;
	46748 :	11111011;
	46747 :	11111110;
	46746 :	00010010;
	46745 :	00010010;
	46744 :	00011001;
	46743 :	00000101;
	46742 :	11110010;
	46741 :	00010010;
	46740 :	00001111;
	46739 :	00101010;
	46738 :	00001101;
	46737 :	00001111;
	46736 :	00000000;
	46735 :	11101001;
	46734 :	00000011;
	46733 :	00000010;
	46732 :	11110000;
	46731 :	11111000;
	46730 :	11101000;
	46729 :	11010011;
	46728 :	11010000;
	46727 :	11110000;
	46726 :	00000011;
	46725 :	11110110;
	46724 :	11110000;
	46723 :	11111001;
	46722 :	11110111;
	46721 :	00010011;
	46720 :	11101001;
	46719 :	00010110;
	46718 :	00100000;
	46717 :	11110101;
	46716 :	00001011;
	46715 :	00010111;
	46714 :	00010010;
	46713 :	00001101;
	46712 :	00011011;
	46711 :	11111001;
	46710 :	00000111;
	46709 :	00001000;
	46708 :	11110110;
	46707 :	00000001;
	46706 :	11110001;
	46705 :	00000001;
	46704 :	11101100;
	46703 :	11010011;
	46702 :	11010110;
	46701 :	11110000;
	46700 :	11110110;
	46699 :	00000110;
	46698 :	11111001;
	46697 :	00101010;
	46696 :	00011011;
	46695 :	11111010;
	46694 :	11111101;
	46693 :	11111100;
	46692 :	00001111;
	46691 :	00010000;
	46690 :	00010001;
	46689 :	00010011;
	46688 :	00011110;
	46687 :	00000101;
	46686 :	00000100;
	46685 :	11101001;
	46684 :	00010000;
	46683 :	11110111;
	46682 :	00000001;
	46681 :	11111100;
	46680 :	11111001;
	46679 :	11111111;
	46678 :	11110101;
	46677 :	11110001;
	46676 :	00000000;
	46675 :	11101000;
	46674 :	11110010;
	46673 :	11110100;
	46672 :	11101110;
	46671 :	00000100;
	46670 :	00001000;
	46669 :	00001111;
	46668 :	00000000;
	46667 :	11110010;
	46666 :	00001101;
	46665 :	00001011;
	46664 :	00101100;
	46663 :	11110110;
	46662 :	11110010;
	46661 :	11110111;
	46660 :	00001100;
	46659 :	11011110;
	46658 :	11101100;
	46657 :	00001001;
	46656 :	00000000;
	46655 :	00001001;
	46654 :	00000101;
	46653 :	11111101;
	46652 :	00000100;
	46651 :	11111001;
	46650 :	00001001;
	46649 :	11100101;
	46648 :	11101001;
	46647 :	00001001;
	46646 :	00011001;
	46645 :	00011011;
	46644 :	00000101;
	46643 :	00010111;
	46642 :	00010110;
	46641 :	11110010;
	46640 :	00001001;
	46639 :	11110100;
	46638 :	00000010;
	46637 :	00001111;
	46636 :	11111101;
	46635 :	00000111;
	46634 :	11101110;
	46633 :	11100010;
	46632 :	11100111;
	46631 :	11110010;
	46630 :	00001101;
	46629 :	11101000;
	46628 :	11110101;
	46627 :	11100011;
	46626 :	00000010;
	46625 :	00010011;
	46624 :	11101100;
	46623 :	11011010;
	46622 :	11101101;
	46621 :	11110010;
	46620 :	11111001;
	46619 :	00000010;
	46618 :	11101110;
	46617 :	00000011;
	46616 :	00000011;
	46615 :	00000000;
	46614 :	11111110;
	46613 :	11111010;
	46612 :	00000111;
	46611 :	00001111;
	46610 :	00010000;
	46609 :	00000000;
	46608 :	11111001;
	46607 :	11101110;
	46606 :	00000111;
	46605 :	00010011;
	46604 :	00000000;
	46603 :	00000000;
	46602 :	11011111;
	46601 :	00010001;
	46600 :	00011000;
	46599 :	00010010;
	46598 :	11111011;
	46597 :	00101100;
	46596 :	00001111;
	46595 :	00000110;
	46594 :	11100100;
	46593 :	11101100;
	46592 :	00011001;
	46591 :	11111110;
	46590 :	00001101;
	46589 :	11100010;
	46588 :	11111101;
	46587 :	11100011;
	46586 :	11101101;
	46585 :	11111001;
	46584 :	00010010;
	46583 :	00010011;
	46582 :	11111010;
	46581 :	00000011;
	46580 :	11111010;
	46579 :	00000000;
	46578 :	00000110;
	46577 :	00000101;
	46576 :	11101000;
	46575 :	11110001;
	46574 :	11101110;
	46573 :	11111111;
	46572 :	00010101;
	46571 :	11101101;
	46570 :	11111010;
	46569 :	11011000;
	46568 :	11110010;
	46567 :	11111010;
	46566 :	11111000;
	46565 :	00011111;
	46564 :	11110000;
	46563 :	00010000;
	46562 :	00000101;
	46561 :	11101110;
	46560 :	11100110;
	46559 :	00001001;
	46558 :	00101000;
	46557 :	01001001;
	46556 :	00010000;
	46555 :	11011000;
	46554 :	11111111;
	46553 :	01001101;
	46552 :	00111010;
	46551 :	11111001;
	46550 :	11001101;
	46549 :	00001001;
	46548 :	00001000;
	46547 :	00001101;
	46546 :	00011111;
	46545 :	00001110;
	46544 :	11110101;
	46543 :	00001011;
	46542 :	00000111;
	46541 :	00000110;
	46540 :	11111110;
	46539 :	11101001;
	46538 :	00011001;
	46537 :	11111100;
	46536 :	00001001;
	46535 :	11111010;
	46534 :	00001010;
	46533 :	00010101;
	46532 :	00000110;
	46531 :	11101101;
	46530 :	11110111;
	46529 :	00001110;
	46528 :	00001101;
	46527 :	11111101;
	46526 :	00001010;
	46525 :	00001011;
	46524 :	11101011;
	46523 :	00001111;
	46522 :	00010010;
	46521 :	00000011;
	46520 :	00001011;
	46519 :	11000110;
	46518 :	11111111;
	46517 :	00000110;
	46516 :	11110011;
	46515 :	00001100;
	46514 :	00001001;
	46513 :	11110111;
	46512 :	11111000;
	46511 :	00001101;
	46510 :	00001110;
	46509 :	00111100;
	46508 :	00011110;
	46507 :	00100010;
	46506 :	00011001;
	46505 :	11110100;
	46504 :	00111011;
	46503 :	00101110;
	46502 :	00101010;
	46501 :	11110011;
	46500 :	11011010;
	46499 :	00001101;
	46498 :	00000110;
	46497 :	00011010;
	46496 :	00001000;
	46495 :	00010111;
	46494 :	00000000;
	46493 :	00000101;
	46492 :	11111101;
	46491 :	11110100;
	46490 :	11100101;
	46489 :	11011101;
	46488 :	11100110;
	46487 :	00001011;
	46486 :	00000001;
	46485 :	00001111;
	46484 :	00011100;
	46483 :	00001001;
	46482 :	00001000;
	46481 :	00000011;
	46480 :	11101101;
	46479 :	00111001;
	46478 :	00011010;
	46477 :	00001101;
	46476 :	00000000;
	46475 :	00001011;
	46474 :	00010011;
	46473 :	00010100;
	46472 :	00001001;
	46471 :	00001110;
	46470 :	00001010;
	46469 :	11110011;
	46468 :	00001010;
	46467 :	00000100;
	46466 :	11111010;
	46465 :	11110011;
	46464 :	00000100;
	46463 :	00000010;
	46462 :	11111100;
	46461 :	11111110;
	46460 :	11101011;
	46459 :	00100101;
	46458 :	00011001;
	46457 :	11111011;
	46456 :	11111100;
	46455 :	11100100;
	46454 :	11100011;
	46453 :	00000100;
	46452 :	11111011;
	46451 :	11110010;
	46450 :	11101001;
	46449 :	11110111;
	46448 :	00011001;
	46447 :	00000101;
	46446 :	00000010;
	46445 :	11101011;
	46444 :	11111001;
	46443 :	11111001;
	46442 :	11110111;
	46441 :	11100011;
	46440 :	11011110;
	46439 :	11011111;
	46438 :	11101101;
	46437 :	00000101;
	46436 :	00000100;
	46435 :	11110000;
	46434 :	11100110;
	46433 :	11110111;
	46432 :	00011000;
	46431 :	11110111;
	46430 :	11110001;
	46429 :	00001010;
	46428 :	00010000;
	46427 :	00100011;
	46426 :	00000000;
	46425 :	00010101;
	46424 :	00000100;
	46423 :	00001000;
	46422 :	00010010;
	46421 :	00010100;
	46420 :	00001001;
	46419 :	00010101;
	46418 :	00011010;
	46417 :	00001001;
	46416 :	00001101;
	46415 :	00000110;
	46414 :	11110010;
	46413 :	00000010;
	46412 :	00001101;
	46411 :	00000011;
	46410 :	11111000;
	46409 :	11011101;
	46408 :	11011110;
	46407 :	00000000;
	46406 :	00001001;
	46405 :	00001001;
	46404 :	11111101;
	46403 :	11101001;
	46402 :	11111101;
	46401 :	00000101;
	46400 :	11111111;
	46399 :	11011100;
	46398 :	11110100;
	46397 :	00001110;
	46396 :	00001001;
	46395 :	00100111;
	46394 :	11111111;
	46393 :	00000100;
	46392 :	00000101;
	46391 :	11111110;
	46390 :	00001001;
	46389 :	00000000;
	46388 :	00011111;
	46387 :	00000000;
	46386 :	00001000;
	46385 :	00001011;
	46384 :	00000010;
	46383 :	00001011;
	46382 :	00000100;
	46381 :	00001101;
	46380 :	00000011;
	46379 :	00000010;
	46378 :	00000001;
	46377 :	11101001;
	46376 :	00000100;
	46375 :	00000001;
	46374 :	11110110;
	46373 :	00000000;
	46372 :	11111010;
	46371 :	11111000;
	46370 :	11111010;
	46369 :	00001100;
	46368 :	00010010;
	46367 :	11101000;
	46366 :	11101001;
	46365 :	00000000;
	46364 :	11111100;
	46363 :	00101001;
	46362 :	00001100;
	46361 :	11111000;
	46360 :	11110100;
	46359 :	11111101;
	46358 :	00001000;
	46357 :	11111010;
	46356 :	00001000;
	46355 :	00000000;
	46354 :	00010101;
	46353 :	00000100;
	46352 :	11111011;
	46351 :	00010000;
	46350 :	11111001;
	46349 :	00010011;
	46348 :	11111011;
	46347 :	11110111;
	46346 :	11101011;
	46345 :	11101000;
	46344 :	00001101;
	46343 :	11111010;
	46342 :	11111001;
	46341 :	00000001;
	46340 :	11101101;
	46339 :	11011111;
	46338 :	11100001;
	46337 :	11111100;
	46336 :	11101111;
	46335 :	00011011;
	46334 :	11101101;
	46333 :	11111101;
	46332 :	11110011;
	46331 :	00000101;
	46330 :	00011000;
	46329 :	00000000;
	46328 :	00000111;
	46327 :	00000000;
	46326 :	00010010;
	46325 :	00011101;
	46324 :	00000001;
	46323 :	11111010;
	46322 :	00010011;
	46321 :	00000011;
	46320 :	11001101;
	46319 :	11101110;
	46318 :	11101010;
	46317 :	11101111;
	46316 :	00000000;
	46315 :	11011110;
	46314 :	11101011;
	46313 :	11100101;
	46312 :	11101011;
	46311 :	11101011;
	46310 :	11110011;
	46309 :	11111001;
	46308 :	11111110;
	46307 :	11111001;
	46306 :	11111000;
	46305 :	00000010;
	46304 :	11110101;
	46303 :	00010010;
	46302 :	00001100;
	46301 :	00010010;
	46300 :	00010101;
	46299 :	00010110;
	46298 :	00001001;
	46297 :	11111011;
	46296 :	11100110;
	46295 :	11111110;
	46294 :	00001110;
	46293 :	00100010;
	46292 :	00010000;
	46291 :	00000000;
	46290 :	00010000;
	46289 :	11101010;
	46288 :	00000011;
	46287 :	00001101;
	46286 :	00001011;
	46285 :	00010110;
	46284 :	00001011;
	46283 :	00001100;
	46282 :	11110110;
	46281 :	00000110;
	46280 :	00000000;
	46279 :	00001110;
	46278 :	00010000;
	46277 :	11111010;
	46276 :	00001111;
	46275 :	00010101;
	46274 :	11111010;
	46273 :	00001110;
	46272 :	00001111;
	46271 :	00000000;
	46270 :	00000100;
	46269 :	11011111;
	46268 :	11110010;
	46267 :	11111110;
	46266 :	11100101;
	46265 :	00001101;
	46264 :	11110100;
	46263 :	00000011;
	46262 :	11100110;
	46261 :	11101111;
	46260 :	00001000;
	46259 :	00010001;
	46258 :	00100100;
	46257 :	00000101;
	46256 :	00101101;
	46255 :	00010001;
	46254 :	11100011;
	46253 :	00010010;
	46252 :	00010011;
	46251 :	00100111;
	46250 :	00010100;
	46249 :	00001000;
	46248 :	00001110;
	46247 :	00000101;
	46246 :	00000101;
	46245 :	11100101;
	46244 :	11110101;
	46243 :	11011000;
	46242 :	11100111;
	46241 :	11101100;
	46240 :	11101010;
	46239 :	11110110;
	46238 :	11110011;
	46237 :	11101011;
	46236 :	11101010;
	46235 :	11111100;
	46234 :	00010000;
	46233 :	00000011;
	46232 :	11110100;
	46231 :	11110100;
	46230 :	11110000;
	46229 :	00001100;
	46228 :	00010000;
	46227 :	00001010;
	46226 :	00010100;
	46225 :	11110111;
	46224 :	11111000;
	46223 :	00000001;
	46222 :	00001110;
	46221 :	00001000;
	46220 :	00001001;
	46219 :	11111110;
	46218 :	11110011;
	46217 :	11101010;
	46216 :	11011010;
	46215 :	00000000;
	46214 :	00001000;
	46213 :	11110101;
	46212 :	11111011;
	46211 :	11110101;
	46210 :	00000111;
	46209 :	00010000;
	46208 :	00000001;
	46207 :	00011011;
	46206 :	11110011;
	46205 :	11111101;
	46204 :	11111011;
	46203 :	00010101;
	46202 :	00001111;
	46201 :	11110101;
	46200 :	11110111;
	46199 :	00100110;
	46198 :	00000111;
	46197 :	11011011;
	46196 :	11011101;
	46195 :	00001000;
	46194 :	00100110;
	46193 :	00001110;
	46192 :	11110110;
	46191 :	00000010;
	46190 :	11111010;
	46189 :	00000100;
	46188 :	11011110;
	46187 :	00000110;
	46186 :	00100100;
	46185 :	00010100;
	46184 :	11110000;
	46183 :	11101101;
	46182 :	00000001;
	46181 :	11110011;
	46180 :	11110011;
	46179 :	00011010;
	46178 :	11111010;
	46177 :	00001110;
	46176 :	11111011;
	46175 :	00000000;
	46174 :	00000110;
	46173 :	11110001;
	46172 :	11001101;
	46171 :	11100001;
	46170 :	11011011;
	46169 :	11101101;
	46168 :	11111000;
	46167 :	00000100;
	46166 :	00001101;
	46165 :	00001111;
	46164 :	11111110;
	46163 :	11111011;
	46162 :	00000111;
	46161 :	11111001;
	46160 :	00100100;
	46159 :	00000011;
	46158 :	11101110;
	46157 :	11101100;
	46156 :	00000110;
	46155 :	00010110;
	46154 :	11110000;
	46153 :	11000111;
	46152 :	11111001;
	46151 :	11111100;
	46150 :	11111101;
	46149 :	00011000;
	46148 :	00011001;
	46147 :	11111000;
	46146 :	11111100;
	46145 :	11111011;
	46144 :	00101101;
	46143 :	00001100;
	46142 :	11110101;
	46141 :	11110010;
	46140 :	11110011;
	46139 :	00001110;
	46138 :	11010011;
	46137 :	11001111;
	46136 :	11110001;
	46135 :	11111110;
	46134 :	11111101;
	46133 :	11100111;
	46132 :	00001001;
	46131 :	00001010;
	46130 :	11111000;
	46129 :	00010011;
	46128 :	00000100;
	46127 :	00001110;
	46126 :	00001110;
	46125 :	00001001;
	46124 :	00010101;
	46123 :	00010000;
	46122 :	11101001;
	46121 :	11101001;
	46120 :	11101010;
	46119 :	00000010;
	46118 :	11110001;
	46117 :	11100100;
	46116 :	11100000;
	46115 :	11101100;
	46114 :	11111111;
	46113 :	11110110;
	46112 :	11100110;
	46111 :	11101101;
	46110 :	00000011;
	46109 :	11011111;
	46108 :	11100111;
	46107 :	11110110;
	46106 :	00000010;
	46105 :	00001011;
	46104 :	11101111;
	46103 :	11111111;
	46102 :	00001111;
	46101 :	00010100;
	46100 :	00010111;
	46099 :	00010011;
	46098 :	00000001;
	46097 :	11110010;
	46096 :	00001101;
	46095 :	11111100;
	46094 :	00010010;
	46093 :	11101011;
	46092 :	11101011;
	46091 :	00000111;
	46090 :	00000101;
	46089 :	11110111;
	46088 :	11011110;
	46087 :	11010110;
	46086 :	11011101;
	46085 :	00000000;
	46084 :	11111110;
	46083 :	00000100;
	46082 :	00010001;
	46081 :	00000100;
	46080 :	11111110;
	46079 :	11110111;
	46078 :	11111010;
	46077 :	00010111;
	46076 :	00000011;
	46075 :	00001101;
	46074 :	00000101;
	46073 :	11101100;
	46072 :	11011111;
	46071 :	11101000;
	46070 :	11110101;
	46069 :	00001110;
	46068 :	00010101;
	46067 :	00001000;
	46066 :	00010001;
	46065 :	00100110;
	46064 :	00010010;
	46063 :	11101011;
	46062 :	11100010;
	46061 :	00010100;
	46060 :	00100110;
	46059 :	11010011;
	46058 :	11000110;
	46057 :	11110100;
	46056 :	11111100;
	46055 :	00000100;
	46054 :	00011001;
	46053 :	00000111;
	46052 :	00000000;
	46051 :	00000000;
	46050 :	00001101;
	46049 :	11111111;
	46048 :	00000010;
	46047 :	00000000;
	46046 :	00001010;
	46045 :	00100000;
	46044 :	11111101;
	46043 :	00000110;
	46042 :	11101111;
	46041 :	00001001;
	46040 :	00010100;
	46039 :	00000111;
	46038 :	11111000;
	46037 :	11110111;
	46036 :	00011010;
	46035 :	00001001;
	46034 :	00001101;
	46033 :	11110101;
	46032 :	11110010;
	46031 :	00001100;
	46030 :	00001000;
	46029 :	00000111;
	46028 :	11110000;
	46027 :	11110011;
	46026 :	00001001;
	46025 :	00000000;
	46024 :	00000011;
	46023 :	00000111;
	46022 :	00001010;
	46021 :	11111001;
	46020 :	00000001;
	46019 :	11111010;
	46018 :	11101001;
	46017 :	11111010;
	46016 :	11111100;
	46015 :	11110101;
	46014 :	11111111;
	46013 :	00000001;
	46012 :	11111000;
	46011 :	11110101;
	46010 :	00000010;
	46009 :	00001000;
	46008 :	00000000;
	46007 :	00000100;
	46006 :	00000000;
	46005 :	00001001;
	46004 :	00001000;
	46003 :	00000011;
	46002 :	00000111;
	46001 :	00000000;
	46000 :	00001000;
	45999 :	00010101;
	45998 :	00100011;
	45997 :	00011000;
	45996 :	00000001;
	45995 :	00000100;
	45994 :	11101011;
	45993 :	11111001;
	45992 :	00010100;
	45991 :	11100001;
	45990 :	00001000;
	45989 :	00001101;
	45988 :	00001011;
	45987 :	00100100;
	45986 :	11111001;
	45985 :	11111011;
	45984 :	11101101;
	45983 :	00000100;
	45982 :	00000111;
	45981 :	00010010;
	45980 :	00010110;
	45979 :	11101110;
	45978 :	00000100;
	45977 :	00000100;
	45976 :	00001111;
	45975 :	00000011;
	45974 :	00001101;
	45973 :	00010010;
	45972 :	00100000;
	45971 :	11101011;
	45970 :	11111111;
	45969 :	00001111;
	45968 :	11110111;
	45967 :	11111111;
	45966 :	00000010;
	45965 :	00010101;
	45964 :	11111100;
	45963 :	11101101;
	45962 :	00000011;
	45961 :	00010000;
	45960 :	00000001;
	45959 :	11111010;
	45958 :	11110001;
	45957 :	00000010;
	45956 :	00010001;
	45955 :	00001011;
	45954 :	11100000;
	45953 :	11111001;
	45952 :	00000100;
	45951 :	00010100;
	45950 :	11111010;
	45949 :	00011010;
	45948 :	00010110;
	45947 :	00000110;
	45946 :	00001111;
	45945 :	00011100;
	45944 :	11100001;
	45943 :	11101110;
	45942 :	00001000;
	45941 :	00010000;
	45940 :	00011001;
	45939 :	11010110;
	45938 :	11110111;
	45937 :	11110110;
	45936 :	00000110;
	45935 :	11110101;
	45934 :	11110001;
	45933 :	00000001;
	45932 :	00000000;
	45931 :	11111011;
	45930 :	11100010;
	45929 :	11111100;
	45928 :	11111101;
	45927 :	11111101;
	45926 :	11111110;
	45925 :	11111001;
	45924 :	00100100;
	45923 :	01000010;
	45922 :	00010110;
	45921 :	00000110;
	45920 :	11111101;
	45919 :	11111010;
	45918 :	11101011;
	45917 :	00000000;
	45916 :	00001010;
	45915 :	00001101;
	45914 :	11100110;
	45913 :	11110100;
	45912 :	11110111;
	45911 :	00001001;
	45910 :	00000101;
	45909 :	11110011;
	45908 :	11111110;
	45907 :	00000001;
	45906 :	11111111;
	45905 :	11110001;
	45904 :	11101100;
	45903 :	11111001;
	45902 :	11111011;
	45901 :	11101010;
	45900 :	11000011;
	45899 :	00000100;
	45898 :	00001001;
	45897 :	00001001;
	45896 :	00001010;
	45895 :	00001110;
	45894 :	11101000;
	45893 :	00001011;
	45892 :	00000000;
	45891 :	11111110;
	45890 :	11111001;
	45889 :	11111010;
	45888 :	00000000;
	45887 :	00001001;
	45886 :	11111101;
	45885 :	00000100;
	45884 :	11100101;
	45883 :	11110000;
	45882 :	11110010;
	45881 :	11110000;
	45880 :	11110001;
	45879 :	11111001;
	45878 :	11111100;
	45877 :	11110110;
	45876 :	00000101;
	45875 :	11110111;
	45874 :	11101100;
	45873 :	00001111;
	45872 :	00001100;
	45871 :	00001111;
	45870 :	00001010;
	45869 :	11110011;
	45868 :	11110000;
	45867 :	00001000;
	45866 :	11111011;
	45865 :	11100010;
	45864 :	11111011;
	45863 :	00000000;
	45862 :	00011100;
	45861 :	00001101;
	45860 :	00000011;
	45859 :	00000000;
	45858 :	11110010;
	45857 :	00000011;
	45856 :	11111000;
	45855 :	00000010;
	45854 :	00001011;
	45853 :	00000001;
	45852 :	11110100;
	45851 :	00010010;
	45850 :	11111100;
	45849 :	00011001;
	45848 :	00100101;
	45847 :	00011101;
	45846 :	11110111;
	45845 :	00000000;
	45844 :	00000010;
	45843 :	11111110;
	45842 :	00000110;
	45841 :	11111000;
	45840 :	00000101;
	45839 :	11011010;
	45838 :	11110101;
	45837 :	11111110;
	45836 :	00000100;
	45835 :	00000001;
	45834 :	11111000;
	45833 :	11100111;
	45832 :	00000000;
	45831 :	00011110;
	45830 :	00001010;
	45829 :	11111001;
	45828 :	11101011;
	45827 :	11111010;
	45826 :	00010010;
	45825 :	11111000;
	45824 :	00011011;
	45823 :	00100010;
	45822 :	00111010;
	45821 :	11110001;
	45820 :	11011111;
	45819 :	00010000;
	45818 :	00000110;
	45817 :	00011111;
	45816 :	11110001;
	45815 :	11110001;
	45814 :	11011110;
	45813 :	11111110;
	45812 :	00001001;
	45811 :	11110101;
	45810 :	00000110;
	45809 :	11100000;
	45808 :	00001000;
	45807 :	11101111;
	45806 :	00010101;
	45805 :	00100000;
	45804 :	11110111;
	45803 :	11111010;
	45802 :	11101110;
	45801 :	00000010;
	45800 :	00011011;
	45799 :	11100111;
	45798 :	11110001;
	45797 :	00000100;
	45796 :	11111101;
	45795 :	00000111;
	45794 :	11011010;
	45793 :	00000100;
	45792 :	00000111;
	45791 :	00000000;
	45790 :	00110010;
	45789 :	11110101;
	45788 :	00000010;
	45787 :	11110011;
	45786 :	00000000;
	45785 :	00100000;
	45784 :	11001100;
	45783 :	11100001;
	45782 :	11011111;
	45781 :	00000101;
	45780 :	11110100;
	45779 :	11111001;
	45778 :	00001100;
	45777 :	00010010;
	45776 :	00010110;
	45775 :	11101111;
	45774 :	11110100;
	45773 :	11111100;
	45772 :	11111100;
	45771 :	00000101;
	45770 :	00100011;
	45769 :	11111100;
	45768 :	00110010;
	45767 :	11110000;
	45766 :	00001000;
	45765 :	00010101;
	45764 :	00011101;
	45763 :	00100101;
	45762 :	11111001;
	45761 :	11111001;
	45760 :	00001101;
	45759 :	00100110;
	45758 :	00110011;
	45757 :	00001000;
	45756 :	11101001;
	45755 :	11000111;
	45754 :	00000111;
	45753 :	00000111;
	45752 :	11101011;
	45751 :	11110000;
	45750 :	11110000;
	45749 :	11110111;
	45748 :	00000100;
	45747 :	00010000;
	45746 :	00010111;
	45745 :	00001111;
	45744 :	11100000;
	45743 :	11100101;
	45742 :	11111111;
	45741 :	00010011;
	45740 :	00011001;
	45739 :	11010000;
	45738 :	11101010;
	45737 :	00000100;
	45736 :	00000011;
	45735 :	11111011;
	45734 :	11011001;
	45733 :	11101110;
	45732 :	11101101;
	45731 :	11111100;
	45730 :	11100110;
	45729 :	00011110;
	45728 :	00000000;
	45727 :	11110111;
	45726 :	11110110;
	45725 :	11101000;
	45724 :	11010010;
	45723 :	11101100;
	45722 :	11111001;
	45721 :	00011000;
	45720 :	00010101;
	45719 :	11110010;
	45718 :	11110101;
	45717 :	00001100;
	45716 :	00010110;
	45715 :	00000101;
	45714 :	11010101;
	45713 :	11100010;
	45712 :	00100001;
	45711 :	00011001;
	45710 :	00000101;
	45709 :	00000000;
	45708 :	11111110;
	45707 :	11110011;
	45706 :	00000101;
	45705 :	11001011;
	45704 :	01000011;
	45703 :	00011000;
	45702 :	00000001;
	45701 :	11100101;
	45700 :	11011111;
	45699 :	11111010;
	45698 :	11110011;
	45697 :	00000011;
	45696 :	00001111;
	45695 :	00011101;
	45694 :	11011101;
	45693 :	11101000;
	45692 :	00000011;
	45691 :	00000111;
	45690 :	00001010;
	45689 :	11000100;
	45688 :	11100111;
	45687 :	00011000;
	45686 :	00011010;
	45685 :	00000100;
	45684 :	11100001;
	45683 :	11111101;
	45682 :	00000011;
	45681 :	00000100;
	45680 :	11101111;
	45679 :	00110110;
	45678 :	00001110;
	45677 :	11111101;
	45676 :	11111001;
	45675 :	11110011;
	45674 :	01001110;
	45673 :	00000101;
	45672 :	11110010;
	45671 :	00001011;
	45670 :	00011010;
	45669 :	11110111;
	45668 :	11111010;
	45667 :	00001101;
	45666 :	00010000;
	45665 :	00001011;
	45664 :	11101110;
	45663 :	11101101;
	45662 :	00010010;
	45661 :	00000010;
	45660 :	11100111;
	45659 :	11100010;
	45658 :	11101111;
	45657 :	11111000;
	45656 :	11100101;
	45655 :	11101110;
	45654 :	11111111;
	45653 :	00000110;
	45652 :	00000000;
	45651 :	00010110;
	45650 :	11111001;
	45649 :	00000001;
	45648 :	11101001;
	45647 :	11111111;
	45646 :	00000000;
	45645 :	00010010;
	45644 :	00000000;
	45643 :	00001010;
	45642 :	11111010;
	45641 :	11110011;
	45640 :	00000011;
	45639 :	00000001;
	45638 :	00000010;
	45637 :	11111101;
	45636 :	00000010;
	45635 :	00000000;
	45634 :	11111110;
	45633 :	00000100;
	45632 :	00001110;
	45631 :	00010010;
	45630 :	00000000;
	45629 :	11111011;
	45628 :	00010001;
	45627 :	00010101;
	45626 :	00001000;
	45625 :	11111010;
	45624 :	00001010;
	45623 :	00011110;
	45622 :	11111001;
	45621 :	11111001;
	45620 :	11111011;
	45619 :	11110111;
	45618 :	00001001;
	45617 :	11111101;
	45616 :	00000101;
	45615 :	00001110;
	45614 :	11110101;
	45613 :	00001011;
	45612 :	00010001;
	45611 :	00000001;
	45610 :	00001010;
	45609 :	11110011;
	45608 :	00000000;
	45607 :	00011001;
	45606 :	00001111;
	45605 :	11111101;
	45604 :	11111010;
	45603 :	00000001;
	45602 :	11111011;
	45601 :	11110100;
	45600 :	11101100;
	45599 :	11110100;
	45598 :	00000001;
	45597 :	00000001;
	45596 :	11111111;
	45595 :	11110100;
	45594 :	00000100;
	45593 :	00000011;
	45592 :	00001010;
	45591 :	11111111;
	45590 :	11110010;
	45589 :	11111100;
	45588 :	11111000;
	45587 :	11110101;
	45586 :	11111101;
	45585 :	11111111;
	45584 :	11111111;
	45583 :	11110110;
	45582 :	00000010;
	45581 :	00000000;
	45580 :	00001000;
	45579 :	11110110;
	45578 :	11110101;
	45577 :	00001000;
	45576 :	11111100;
	45575 :	11110101;
	45574 :	00001000;
	45573 :	11111101;
	45572 :	11111100;
	45571 :	11111000;
	45570 :	11111110;
	45569 :	00000101;
	45568 :	00000000;
	45567 :	00000000;
	45566 :	00000010;
	45565 :	11111000;
	45564 :	00001000;
	45563 :	00000001;
	45562 :	00000101;
	45561 :	11110101;
	45560 :	00000110;
	45559 :	11110000;
	45558 :	00000000;
	45557 :	00000010;
	45556 :	11111000;
	45555 :	11101111;
	45554 :	00000100;
	45553 :	11111111;
	45552 :	11111110;
	45551 :	00000000;
	45550 :	00000000;
	45549 :	11110101;
	45548 :	00000011;
	45547 :	00001000;
	45546 :	11111110;
	45545 :	11111110;
	45544 :	11111100;
	45543 :	11110101;
	45542 :	00000100;
	45541 :	00000000;
	45540 :	11111001;
	45539 :	00000110;
	45538 :	00000010;
	45537 :	11110010;
	45536 :	11110011;
	45535 :	00000101;
	45534 :	00000000;
	45533 :	11110010;
	45532 :	11110000;
	45531 :	11111010;
	45530 :	11111110;
	45529 :	11111010;
	45528 :	00000000;
	45527 :	11111110;
	45526 :	00000011;
	45525 :	11111111;
	45524 :	11110110;
	45523 :	00001000;
	45522 :	11111000;
	45521 :	11111011;
	45520 :	00001011;
	45519 :	00000111;
	45518 :	00000100;
	45517 :	11110100;
	45516 :	00000111;
	45515 :	11110111;
	45514 :	00001000;
	45513 :	11111101;
	45512 :	11111110;
	45511 :	11110001;
	45510 :	11110111;
	45509 :	11110110;
	45508 :	00000010;
	45507 :	11111110;
	45506 :	11110000;
	45505 :	00000000;
	45504 :	11111001;
	45503 :	00000100;
	45502 :	11111000;
	45501 :	00000010;
	45500 :	11111011;
	45499 :	11111010;
	45498 :	11110100;
	45497 :	11110101;
	45496 :	00001100;
	45495 :	11111000;
	45494 :	00000100;
	45493 :	11111111;
	45492 :	11111100;
	45491 :	00000100;
	45490 :	00000001;
	45489 :	00000110;
	45488 :	00000000;
	45487 :	11111101;
	45486 :	11111010;
	45485 :	11110011;
	45484 :	00000110;
	45483 :	11110111;
	45482 :	11111101;
	45481 :	00001000;
	45480 :	11111011;
	45479 :	00000001;
	45478 :	11110101;
	45477 :	00001001;
	45476 :	11110101;
	45475 :	11111000;
	45474 :	11110101;
	45473 :	00000100;
	45472 :	11110100;
	45471 :	11111001;
	45470 :	11111101;
	45469 :	00001000;
	45468 :	00000000;
	45467 :	00000011;
	45466 :	00000011;
	45465 :	00000110;
	45464 :	11111001;
	45463 :	00000100;
	45462 :	11110111;
	45461 :	11111000;
	45460 :	00000111;
	45459 :	00000000;
	45458 :	11110101;
	45457 :	00000110;
	45456 :	00001000;
	45455 :	11111111;
	45454 :	11111011;
	45453 :	11111110;
	45452 :	11111011;
	45451 :	11110100;
	45450 :	11101111;
	45449 :	11111010;
	45448 :	00000101;
	45447 :	11110000;
	45446 :	11111010;
	45445 :	00000000;
	45444 :	11111101;
	45443 :	11110000;
	45442 :	11110111;
	45441 :	11110010;
	45440 :	11110010;
	45439 :	11110111;
	45438 :	11111010;
	45437 :	11110100;
	45436 :	11111001;
	45435 :	11110100;
	45434 :	00000101;
	45433 :	00000000;
	45432 :	00000100;
	45431 :	00001011;
	45430 :	11111110;
	45429 :	11110110;
	45428 :	11110100;
	45427 :	11111101;
	45426 :	00000101;
	45425 :	11111111;
	45424 :	00000101;
	45423 :	11110010;
	45422 :	11110111;
	45421 :	11111010;
	45420 :	11110101;
	45419 :	00000101;
	45418 :	00000111;
	45417 :	11111000;
	45416 :	00001010;
	45415 :	11111110;
	45414 :	11110101;
	45413 :	11111110;
	45412 :	11111001;
	45411 :	00000010;
	45410 :	00000001;
	45409 :	11111001;
	45408 :	11111000;
	45407 :	11110011;
	45406 :	11111000;
	45405 :	11111101;
	45404 :	11111111;
	45403 :	00000110;
	45402 :	00000000;
	45401 :	11110111;
	45400 :	11110011;
	45399 :	00001010;
	45398 :	00000000;
	45397 :	00000011;
	45396 :	11111101;
	45395 :	11111011;
	45394 :	00010100;
	45393 :	00000000;
	45392 :	11110100;
	45391 :	11110010;
	45390 :	11110010;
	45389 :	11111000;
	45388 :	11111110;
	45387 :	11101111;
	45386 :	00000010;
	45385 :	11111111;
	45384 :	00000001;
	45383 :	11111011;
	45382 :	11111000;
	45381 :	00000011;
	45380 :	00001001;
	45379 :	11110001;
	45378 :	11111110;
	45377 :	11111011;
	45376 :	11111110;
	45375 :	00000000;
	45374 :	11111111;
	45373 :	00000001;
	45372 :	11110100;
	45371 :	11111000;
	45370 :	11111110;
	45369 :	11110101;
	45368 :	11110111;
	45367 :	11111010;
	45366 :	00000000;
	45365 :	11110110;
	45364 :	00000010;
	45363 :	00000101;
	45362 :	00001101;
	45361 :	00001110;
	45360 :	00001100;
	45359 :	11110110;
	45358 :	11111100;
	45357 :	11110011;
	45356 :	00000001;
	45355 :	11110111;
	45354 :	00000011;
	45353 :	00001010;
	45352 :	11111101;
	45351 :	11111100;
	45350 :	00001000;
	45349 :	00001010;
	45348 :	00000110;
	45347 :	00000101;
	45346 :	11110111;
	45345 :	11111110;
	45344 :	11111011;
	45343 :	11110001;
	45342 :	11110110;
	45341 :	00000001;
	45340 :	00000001;
	45339 :	11111000;
	45338 :	11110100;
	45337 :	11110100;
	45336 :	11110111;
	45335 :	11111110;
	45334 :	11111000;
	45333 :	00000110;
	45332 :	00000010;
	45331 :	00000111;
	45330 :	11111111;
	45329 :	00000000;
	45328 :	11111010;
	45327 :	11110111;
	45326 :	11111001;
	45325 :	11110110;
	45324 :	00000111;
	45323 :	11110011;
	45322 :	11110000;
	45321 :	00000000;
	45320 :	00000101;
	45319 :	00000110;
	45318 :	11111011;
	45317 :	11111110;
	45316 :	00000011;
	45315 :	11110101;
	45314 :	00000000;
	45313 :	00001010;
	45312 :	00000000;
	45311 :	00000011;
	45310 :	00001110;
	45309 :	00000110;
	45308 :	11111100;
	45307 :	11110101;
	45306 :	00000011;
	45305 :	00000000;
	45304 :	00000011;
	45303 :	11111111;
	45302 :	11110100;
	45301 :	11110010;
	45300 :	00000111;
	45299 :	11110110;
	45298 :	00000000;
	45297 :	00000000;
	45296 :	00000010;
	45295 :	00000010;
	45294 :	00000000;
	45293 :	11111011;
	45292 :	11110100;
	45291 :	00000010;
	45290 :	11110001;
	45289 :	11111110;
	45288 :	11110010;
	45287 :	11110111;
	45286 :	11111111;
	45285 :	11111011;
	45284 :	11110101;
	45283 :	00000001;
	45282 :	11110100;
	45281 :	00000101;
	45280 :	11111100;
	45279 :	00001001;
	45278 :	11111010;
	45277 :	00000011;
	45276 :	11111101;
	45275 :	11111110;
	45274 :	00000011;
	45273 :	00001001;
	45272 :	11111100;
	45271 :	00001000;
	45270 :	00000101;
	45269 :	00001001;
	45268 :	11111001;
	45267 :	11110011;
	45266 :	00000001;
	45265 :	00000001;
	45264 :	00000100;
	45263 :	00001010;
	45262 :	11110010;
	45261 :	00000000;
	45260 :	00000011;
	45259 :	11111000;
	45258 :	00000000;
	45257 :	11110010;
	45256 :	11111110;
	45255 :	00000000;
	45254 :	11110001;
	45253 :	11111111;
	45252 :	00001010;
	45251 :	00000100;
	45250 :	00001001;
	45249 :	00000111;
	45248 :	00000100;
	45247 :	00000010;
	45246 :	00000010;
	45245 :	00000011;
	45244 :	11110011;
	45243 :	00000011;
	45242 :	11110110;
	45241 :	11111100;
	45240 :	00000000;
	45239 :	11111110;
	45238 :	11110111;
	45237 :	00000101;
	45236 :	11110011;
	45235 :	00000000;
	45234 :	11110111;
	45233 :	11110101;
	45232 :	11111001;
	45231 :	00000000;
	45230 :	00001001;
	45229 :	11110110;
	45228 :	11111000;
	45227 :	11111110;
	45226 :	11110101;
	45225 :	11110101;
	45224 :	00000000;
	45223 :	11111000;
	45222 :	11111001;
	45221 :	11111110;
	45220 :	11110010;
	45219 :	11110011;
	45218 :	11111011;
	45217 :	11110000;
	45216 :	11110110;
	45215 :	11111110;
	45214 :	11110110;
	45213 :	11110010;
	45212 :	11110111;
	45211 :	11110000;
	45210 :	00000100;
	45209 :	11111000;
	45208 :	11111001;
	45207 :	11111011;
	45206 :	11111000;
	45205 :	11111100;
	45204 :	00000010;
	45203 :	00000110;
	45202 :	00000000;
	45201 :	11111001;
	45200 :	11111001;
	45199 :	00001110;
	45198 :	00010101;
	45197 :	00000010;
	45196 :	00000001;
	45195 :	11101111;
	45194 :	00010000;
	45193 :	00001110;
	45192 :	11110111;
	45191 :	11111011;
	45190 :	11111110;
	45189 :	00000001;
	45188 :	11111101;
	45187 :	00001010;
	45186 :	00000001;
	45185 :	00000110;
	45184 :	11011011;
	45183 :	11111001;
	45182 :	00001111;
	45181 :	00001101;
	45180 :	00000010;
	45179 :	11000010;
	45178 :	11011001;
	45177 :	11011101;
	45176 :	11100100;
	45175 :	11011101;
	45174 :	11111100;
	45173 :	00000001;
	45172 :	00000101;
	45171 :	11100100;
	45170 :	11101010;
	45169 :	11111100;
	45168 :	11111010;
	45167 :	00000000;
	45166 :	00000100;
	45165 :	00000000;
	45164 :	11101000;
	45163 :	00000000;
	45162 :	00001110;
	45161 :	00001010;
	45160 :	00000000;
	45159 :	11101111;
	45158 :	11110000;
	45157 :	11110101;
	45156 :	11101111;
	45155 :	00000000;
	45154 :	11101100;
	45153 :	11111100;
	45152 :	00000100;
	45151 :	00001001;
	45150 :	00000100;
	45149 :	11101001;
	45148 :	11100101;
	45147 :	11110101;
	45146 :	00000000;
	45145 :	11111101;
	45144 :	11110110;
	45143 :	11111110;
	45142 :	00000111;
	45141 :	11111111;
	45140 :	11111111;
	45139 :	00000110;
	45138 :	00000000;
	45137 :	11110001;
	45136 :	11110000;
	45135 :	11101111;
	45134 :	00000101;
	45133 :	00001010;
	45132 :	00001111;
	45131 :	11111101;
	45130 :	00010001;
	45129 :	00001101;
	45128 :	00010001;
	45127 :	00000110;
	45126 :	00000010;
	45125 :	00001000;
	45124 :	11110000;
	45123 :	11110000;
	45122 :	11110000;
	45121 :	11100011;
	45120 :	11110010;
	45119 :	00000010;
	45118 :	11101100;
	45117 :	00000000;
	45116 :	11111101;
	45115 :	00010000;
	45114 :	00000000;
	45113 :	00000110;
	45112 :	11100000;
	45111 :	00000010;
	45110 :	11111110;
	45109 :	11111010;
	45108 :	00000100;
	45107 :	00000011;
	45106 :	11111000;
	45105 :	00001010;
	45104 :	11111000;
	45103 :	00001001;
	45102 :	11110101;
	45101 :	11111010;
	45100 :	11110110;
	45099 :	11011101;
	45098 :	11111011;
	45097 :	11110110;
	45096 :	11110000;
	45095 :	00000101;
	45094 :	11111001;
	45093 :	00000001;
	45092 :	00001010;
	45091 :	11110111;
	45090 :	00000000;
	45089 :	00001001;
	45088 :	11110110;
	45087 :	00000001;
	45086 :	00000110;
	45085 :	00000110;
	45084 :	00000110;
	45083 :	00010000;
	45082 :	11111110;
	45081 :	00010011;
	45080 :	00001000;
	45079 :	00000110;
	45078 :	00001100;
	45077 :	00000101;
	45076 :	00000100;
	45075 :	11111111;
	45074 :	11110000;
	45073 :	00001110;
	45072 :	00010101;
	45071 :	00000110;
	45070 :	11111000;
	45069 :	11111111;
	45068 :	11111001;
	45067 :	00010011;
	45066 :	00001000;
	45065 :	00000000;
	45064 :	11111000;
	45063 :	00000001;
	45062 :	11111011;
	45061 :	11110101;
	45060 :	00001011;
	45059 :	00000000;
	45058 :	00010000;
	45057 :	11110110;
	45056 :	00001010;
	45055 :	00000000;
	45054 :	11011011;
	45053 :	11110000;
	45052 :	11110100;
	45051 :	11111100;
	45050 :	11101110;
	45049 :	11111110;
	45048 :	11100011;
	45047 :	11110001;
	45046 :	11101011;
	45045 :	11011011;
	45044 :	11101011;
	45043 :	11110111;
	45042 :	11111101;
	45041 :	11110101;
	45040 :	00001110;
	45039 :	11111100;
	45038 :	00001010;
	45037 :	00000100;
	45036 :	00010100;
	45035 :	00011011;
	45034 :	00010001;
	45033 :	00000101;
	45032 :	11110011;
	45031 :	11111011;
	45030 :	00000000;
	45029 :	11101011;
	45028 :	00001100;
	45027 :	11111000;
	45026 :	11111101;
	45025 :	11101111;
	45024 :	11111110;
	45023 :	00001110;
	45022 :	00000000;
	45021 :	11110100;
	45020 :	11100000;
	45019 :	11111011;
	45018 :	11110111;
	45017 :	00000001;
	45016 :	11111010;
	45015 :	00001000;
	45014 :	00000110;
	45013 :	11101010;
	45012 :	11111010;
	45011 :	00001001;
	45010 :	00001100;
	45009 :	00001010;
	45008 :	00000100;
	45007 :	11111011;
	45006 :	11110101;
	45005 :	00001001;
	45004 :	11100111;
	45003 :	00000010;
	45002 :	11011111;
	45001 :	11101001;
	45000 :	11011111;
	44999 :	11101010;
	44998 :	11100100;
	44997 :	11110111;
	44996 :	00000001;
	44995 :	11111110;
	44994 :	11111000;
	44993 :	11111101;
	44992 :	11110010;
	44991 :	11111011;
	44990 :	00001011;
	44989 :	11110001;
	44988 :	00000000;
	44987 :	00000011;
	44986 :	11111001;
	44985 :	11111010;
	44984 :	11101011;
	44983 :	11111100;
	44982 :	00010111;
	44981 :	11110100;
	44980 :	11101110;
	44979 :	11111101;
	44978 :	00001001;
	44977 :	00001010;
	44976 :	00011001;
	44975 :	00000010;
	44974 :	00000011;
	44973 :	00001001;
	44972 :	11101000;
	44971 :	11110110;
	44970 :	00100000;
	44969 :	11111001;
	44968 :	00001001;
	44967 :	11111101;
	44966 :	00010100;
	44965 :	00011011;
	44964 :	00000000;
	44963 :	00100011;
	44962 :	11111001;
	44961 :	00010001;
	44960 :	00010101;
	44959 :	11110101;
	44958 :	00000011;
	44957 :	00000000;
	44956 :	00000100;
	44955 :	00001000;
	44954 :	11110110;
	44953 :	11011001;
	44952 :	11100000;
	44951 :	00000000;
	44950 :	11111111;
	44949 :	11010000;
	44948 :	11101001;
	44947 :	00000010;
	44946 :	00000101;
	44945 :	00000001;
	44944 :	11101110;
	44943 :	00001010;
	44942 :	00000001;
	44941 :	00010110;
	44940 :	00010000;
	44939 :	00000000;
	44938 :	11111111;
	44937 :	00010111;
	44936 :	11111101;
	44935 :	00000111;
	44934 :	00000111;
	44933 :	00011001;
	44932 :	00001101;
	44931 :	00001001;
	44930 :	00000000;
	44929 :	11110100;
	44928 :	00011010;
	44927 :	00010111;
	44926 :	00010110;
	44925 :	11110011;
	44924 :	11101100;
	44923 :	11101000;
	44922 :	11101100;
	44921 :	00010011;
	44920 :	00001110;
	44919 :	11110111;
	44918 :	11111110;
	44917 :	11111000;
	44916 :	00010101;
	44915 :	00000000;
	44914 :	00011011;
	44913 :	00001111;
	44912 :	00010111;
	44911 :	11111110;
	44910 :	11110100;
	44909 :	00001111;
	44908 :	11111110;
	44907 :	11110111;
	44906 :	00000111;
	44905 :	00001001;
	44904 :	00000110;
	44903 :	00011100;
	44902 :	00110011;
	44901 :	00111110;
	44900 :	00100100;
	44899 :	11101001;
	44898 :	11100100;
	44897 :	00000001;
	44896 :	11111110;
	44895 :	11110100;
	44894 :	11110010;
	44893 :	00000011;
	44892 :	00000000;
	44891 :	00010101;
	44890 :	00000001;
	44889 :	00000100;
	44888 :	00011000;
	44887 :	00001010;
	44886 :	00001100;
	44885 :	00000110;
	44884 :	11110111;
	44883 :	00000010;
	44882 :	00010000;
	44881 :	00001100;
	44880 :	00001000;
	44879 :	11100011;
	44878 :	11111101;
	44877 :	00010101;
	44876 :	00000101;
	44875 :	11111110;
	44874 :	11011010;
	44873 :	11100010;
	44872 :	11100011;
	44871 :	11110011;
	44870 :	00000011;
	44869 :	11111111;
	44868 :	00001011;
	44867 :	00000001;
	44866 :	11110111;
	44865 :	11101101;
	44864 :	00000000;
	44863 :	11111010;
	44862 :	00010101;
	44861 :	00000010;
	44860 :	11011111;
	44859 :	00000100;
	44858 :	00001011;
	44857 :	11111111;
	44856 :	00000001;
	44855 :	00001000;
	44854 :	00000010;
	44853 :	00011000;
	44852 :	00010010;
	44851 :	00010011;
	44850 :	00001110;
	44849 :	11110000;
	44848 :	00000011;
	44847 :	00001010;
	44846 :	11110111;
	44845 :	11111101;
	44844 :	11111011;
	44843 :	00000110;
	44842 :	11111101;
	44841 :	00000000;
	44840 :	11110101;
	44839 :	11111010;
	44838 :	00000011;
	44837 :	00000110;
	44836 :	00010011;
	44835 :	11110001;
	44834 :	00000111;
	44833 :	00010001;
	44832 :	00000000;
	44831 :	00000111;
	44830 :	11110110;
	44829 :	11110110;
	44828 :	11111011;
	44827 :	11101110;
	44826 :	00000101;
	44825 :	11111101;
	44824 :	11111110;
	44823 :	11100110;
	44822 :	11101101;
	44821 :	11100100;
	44820 :	11110000;
	44819 :	11111001;
	44818 :	00000000;
	44817 :	11111011;
	44816 :	11111011;
	44815 :	11111110;
	44814 :	00001010;
	44813 :	00001101;
	44812 :	00000100;
	44811 :	00000111;
	44810 :	11111101;
	44809 :	11111001;
	44808 :	00001001;
	44807 :	00001111;
	44806 :	11110011;
	44805 :	00000010;
	44804 :	11111110;
	44803 :	11111110;
	44802 :	11111111;
	44801 :	11111011;
	44800 :	00000000;
	44799 :	11111010;
	44798 :	00000111;
	44797 :	00000101;
	44796 :	00001100;
	44795 :	00010101;
	44794 :	00101111;
	44793 :	00001100;
	44792 :	11111100;
	44791 :	00000110;
	44790 :	00010011;
	44789 :	00101100;
	44788 :	00011111;
	44787 :	11111101;
	44786 :	11111111;
	44785 :	00010100;
	44784 :	00011101;
	44783 :	00001001;
	44782 :	11110010;
	44781 :	00011001;
	44780 :	00011000;
	44779 :	00010110;
	44778 :	00001101;
	44777 :	00000011;
	44776 :	00001110;
	44775 :	00000001;
	44774 :	00000111;
	44773 :	11110111;
	44772 :	11011110;
	44771 :	11100001;
	44770 :	11110110;
	44769 :	11100111;
	44768 :	00000100;
	44767 :	11011000;
	44766 :	11110110;
	44765 :	11111101;
	44764 :	00000110;
	44763 :	00000000;
	44762 :	11111100;
	44761 :	00000111;
	44760 :	11111101;
	44759 :	00010000;
	44758 :	00001111;
	44757 :	11111001;
	44756 :	00001111;
	44755 :	00001110;
	44754 :	00011110;
	44753 :	00001111;
	44752 :	11111010;
	44751 :	00001100;
	44750 :	00001101;
	44749 :	11101000;
	44748 :	11011010;
	44747 :	11111010;
	44746 :	11110001;
	44745 :	11111110;
	44744 :	11101101;
	44743 :	11111011;
	44742 :	00001000;
	44741 :	11111111;
	44740 :	11111100;
	44739 :	00000000;
	44738 :	11110001;
	44737 :	11111010;
	44736 :	11110010;
	44735 :	11111111;
	44734 :	00000011;
	44733 :	00001000;
	44732 :	00010101;
	44731 :	00001100;
	44730 :	00001000;
	44729 :	00001011;
	44728 :	00000010;
	44727 :	00001011;
	44726 :	00010111;
	44725 :	00000011;
	44724 :	11101111;
	44723 :	11011101;
	44722 :	11101101;
	44721 :	00010110;
	44720 :	11111110;
	44719 :	11101010;
	44718 :	11100010;
	44717 :	11100101;
	44716 :	11111110;
	44715 :	00001001;
	44714 :	11111010;
	44713 :	11100111;
	44712 :	11110101;
	44711 :	00010001;
	44710 :	00010011;
	44709 :	00000001;
	44708 :	00000011;
	44707 :	00000101;
	44706 :	00001001;
	44705 :	00010001;
	44704 :	00000101;
	44703 :	11111010;
	44702 :	00001101;
	44701 :	00010010;
	44700 :	00010000;
	44699 :	11110010;
	44698 :	00000000;
	44697 :	00000100;
	44696 :	11110110;
	44695 :	11110010;
	44694 :	11111100;
	44693 :	00001101;
	44692 :	11110000;
	44691 :	11110110;
	44690 :	11110000;
	44689 :	11110010;
	44688 :	11111111;
	44687 :	00000000;
	44686 :	11110000;
	44685 :	00001101;
	44684 :	00001100;
	44683 :	00000101;
	44682 :	11111101;
	44681 :	00000101;
	44680 :	00000000;
	44679 :	00010000;
	44678 :	00000101;
	44677 :	11111101;
	44676 :	00000000;
	44675 :	11111101;
	44674 :	11101001;
	44673 :	00001100;
	44672 :	00000111;
	44671 :	00011100;
	44670 :	00001111;
	44669 :	00000101;
	44668 :	11110000;
	44667 :	00001010;
	44666 :	00001100;
	44665 :	11111111;
	44664 :	00000111;
	44663 :	00001000;
	44662 :	00001101;
	44661 :	11111000;
	44660 :	11101110;
	44659 :	00000101;
	44658 :	00000010;
	44657 :	00001010;
	44656 :	00010001;
	44655 :	00010000;
	44654 :	11100010;
	44653 :	11110111;
	44652 :	11111100;
	44651 :	00000111;
	44650 :	11100111;
	44649 :	00001011;
	44648 :	11110001;
	44647 :	11100111;
	44646 :	11101101;
	44645 :	11111010;
	44644 :	11111001;
	44643 :	11111100;
	44642 :	11101000;
	44641 :	11111010;
	44640 :	00001011;
	44639 :	00011101;
	44638 :	00000110;
	44637 :	11111011;
	44636 :	00010010;
	44635 :	00001000;
	44634 :	00101011;
	44633 :	00011010;
	44632 :	00001101;
	44631 :	00001110;
	44630 :	11110010;
	44629 :	00010011;
	44628 :	00000110;
	44627 :	00000110;
	44626 :	00000111;
	44625 :	11101100;
	44624 :	11111110;
	44623 :	00010000;
	44622 :	11111000;
	44621 :	11100000;
	44620 :	11111110;
	44619 :	00010011;
	44618 :	00001100;
	44617 :	11111110;
	44616 :	11010110;
	44615 :	11110111;
	44614 :	00010100;
	44613 :	00001011;
	44612 :	00000110;
	44611 :	00000001;
	44610 :	00000010;
	44609 :	00010011;
	44608 :	00000100;
	44607 :	00001010;
	44606 :	11110111;
	44605 :	11110011;
	44604 :	00000101;
	44603 :	00001101;
	44602 :	11110000;
	44601 :	11110001;
	44600 :	11101111;
	44599 :	00001001;
	44598 :	00001101;
	44597 :	00000011;
	44596 :	11110111;
	44595 :	00010010;
	44594 :	00001011;
	44593 :	00000001;
	44592 :	00000011;
	44591 :	11111010;
	44590 :	11110010;
	44589 :	11101001;
	44588 :	11111110;
	44587 :	00000100;
	44586 :	00010100;
	44585 :	11111111;
	44584 :	11110011;
	44583 :	11101101;
	44582 :	11101110;
	44581 :	11110111;
	44580 :	11111010;
	44579 :	00111010;
	44578 :	00000111;
	44577 :	11110100;
	44576 :	11111011;
	44575 :	00000000;
	44574 :	00000011;
	44573 :	00001010;
	44572 :	11111101;
	44571 :	11100101;
	44570 :	11110000;
	44569 :	00010011;
	44568 :	11101111;
	44567 :	00000100;
	44566 :	00010001;
	44565 :	00000101;
	44564 :	11111001;
	44563 :	11110001;
	44562 :	00001011;
	44561 :	00100001;
	44560 :	11100100;
	44559 :	11101001;
	44558 :	11011100;
	44557 :	00001110;
	44556 :	11101011;
	44555 :	11110111;
	44554 :	11110001;
	44553 :	11100001;
	44552 :	11111110;
	44551 :	11110110;
	44550 :	11110001;
	44549 :	11111110;
	44548 :	00001101;
	44547 :	11110010;
	44546 :	11100111;
	44545 :	11111000;
	44544 :	11101100;
	44543 :	00001111;
	44542 :	00011010;
	44541 :	00000011;
	44540 :	00000110;
	44539 :	00011111;
	44538 :	00000000;
	44537 :	11110001;
	44536 :	11111001;
	44535 :	11101001;
	44534 :	00101001;
	44533 :	00001011;
	44532 :	00001101;
	44531 :	11110100;
	44530 :	11101101;
	44529 :	00011010;
	44528 :	00000000;
	44527 :	11111110;
	44526 :	11110001;
	44525 :	11111001;
	44524 :	00000010;
	44523 :	11111100;
	44522 :	11100010;
	44521 :	11110101;
	44520 :	00000110;
	44519 :	00000110;
	44518 :	00010010;
	44517 :	11111000;
	44516 :	11110110;
	44515 :	00000000;
	44514 :	00001010;
	44513 :	00001101;
	44512 :	11111011;
	44511 :	11101000;
	44510 :	11001011;
	44509 :	00000011;
	44508 :	11101011;
	44507 :	00001000;
	44506 :	11101110;
	44505 :	11011000;
	44504 :	00011000;
	44503 :	11111100;
	44502 :	11101110;
	44501 :	11100100;
	44500 :	11101111;
	44499 :	00000010;
	44498 :	11101110;
	44497 :	11111010;
	44496 :	00001000;
	44495 :	00001110;
	44494 :	11111110;
	44493 :	00010110;
	44492 :	00010101;
	44491 :	00010000;
	44490 :	00001111;
	44489 :	00100001;
	44488 :	11111111;
	44487 :	00000010;
	44486 :	11111100;
	44485 :	11110000;
	44484 :	00001111;
	44483 :	11111001;
	44482 :	00000111;
	44481 :	11110101;
	44480 :	11101011;
	44479 :	11111100;
	44478 :	11101010;
	44477 :	11111010;
	44476 :	11111011;
	44475 :	11111010;
	44474 :	11001110;
	44473 :	11100000;
	44472 :	11110011;
	44471 :	11111100;
	44470 :	00001111;
	44469 :	11110111;
	44468 :	11111100;
	44467 :	00010111;
	44466 :	11111111;
	44465 :	11111101;
	44464 :	11110111;
	44463 :	11111110;
	44462 :	11110011;
	44461 :	11110110;
	44460 :	11111110;
	44459 :	11110111;
	44458 :	11110000;
	44457 :	11111010;
	44456 :	11111110;
	44455 :	11110101;
	44454 :	00101010;
	44453 :	00001001;
	44452 :	00000000;
	44451 :	11111000;
	44450 :	00000111;
	44449 :	11110111;
	44448 :	11111010;
	44447 :	00000011;
	44446 :	00001100;
	44445 :	11111101;
	44444 :	11111011;
	44443 :	11111011;
	44442 :	00001001;
	44441 :	11111111;
	44440 :	00000000;
	44439 :	00000100;
	44438 :	00000110;
	44437 :	11110101;
	44436 :	00000110;
	44435 :	00010101;
	44434 :	00001010;
	44433 :	11111001;
	44432 :	00000001;
	44431 :	00011100;
	44430 :	00100000;
	44429 :	00010010;
	44428 :	11110000;
	44427 :	11101010;
	44426 :	00000101;
	44425 :	00000000;
	44424 :	11100111;
	44423 :	11101100;
	44422 :	11101111;
	44421 :	11111110;
	44420 :	11110111;
	44419 :	00001001;
	44418 :	11101101;
	44417 :	11101011;
	44416 :	00000011;
	44415 :	00011101;
	44414 :	00010000;
	44413 :	00001010;
	44412 :	00001000;
	44411 :	11111110;
	44410 :	00100100;
	44409 :	00011010;
	44408 :	00001011;
	44407 :	11111100;
	44406 :	00000011;
	44405 :	00001001;
	44404 :	00001000;
	44403 :	11110011;
	44402 :	11110111;
	44401 :	11111010;
	44400 :	00001000;
	44399 :	11011110;
	44398 :	00010010;
	44397 :	00000000;
	44396 :	11111111;
	44395 :	11101111;
	44394 :	00010101;
	44393 :	00001110;
	44392 :	11111000;
	44391 :	11111011;
	44390 :	11111001;
	44389 :	00001011;
	44388 :	00010010;
	44387 :	11110111;
	44386 :	00000000;
	44385 :	00001111;
	44384 :	10111100;
	44383 :	11010000;
	44382 :	11001001;
	44381 :	00100010;
	44380 :	00001001;
	44379 :	11010010;
	44378 :	11011010;
	44377 :	11110001;
	44376 :	00010011;
	44375 :	00000011;
	44374 :	11101011;
	44373 :	11111000;
	44372 :	11101100;
	44371 :	11111000;
	44370 :	11110101;
	44369 :	00000101;
	44368 :	00001100;
	44367 :	00001000;
	44366 :	00000011;
	44365 :	11111011;
	44364 :	00001111;
	44363 :	00011001;
	44362 :	11100101;
	44361 :	00001101;
	44360 :	11111010;
	44359 :	11111101;
	44358 :	00000011;
	44357 :	00001010;
	44356 :	00001010;
	44355 :	11110000;
	44354 :	11111110;
	44353 :	00000110;
	44352 :	11111011;
	44351 :	00000111;
	44350 :	00011010;
	44349 :	11100100;
	44348 :	11111000;
	44347 :	00001001;
	44346 :	00000011;
	44345 :	11111010;
	44344 :	11101111;
	44343 :	00000100;
	44342 :	11110011;
	44341 :	11111000;
	44340 :	11110100;
	44339 :	00010001;
	44338 :	11111011;
	44337 :	11110101;
	44336 :	11111101;
	44335 :	11111100;
	44334 :	00011000;
	44333 :	00001010;
	44332 :	00011011;
	44331 :	00001111;
	44330 :	00100000;
	44329 :	00000000;
	44328 :	11110011;
	44327 :	11110001;
	44326 :	00000100;
	44325 :	00010001;
	44324 :	11010101;
	44323 :	11110111;
	44322 :	00000000;
	44321 :	11111101;
	44320 :	11101110;
	44319 :	11011111;
	44318 :	11110000;
	44317 :	11111010;
	44316 :	00000011;
	44315 :	00011000;
	44314 :	00010011;
	44313 :	00000011;
	44312 :	00000110;
	44311 :	11101110;
	44310 :	00001110;
	44309 :	00010110;
	44308 :	00011010;
	44307 :	00010001;
	44306 :	00001101;
	44305 :	00010110;
	44304 :	11010110;
	44303 :	11100110;
	44302 :	11111011;
	44301 :	00011100;
	44300 :	00101100;
	44299 :	00011110;
	44298 :	00000111;
	44297 :	00000100;
	44296 :	00001011;
	44295 :	00000011;
	44294 :	00001010;
	44293 :	00011000;
	44292 :	11101010;
	44291 :	00000000;
	44290 :	00000001;
	44289 :	00011000;
	44288 :	00010010;
	44287 :	11110000;
	44286 :	11101100;
	44285 :	11111110;
	44284 :	00101001;
	44283 :	00100000;
	44282 :	00001001;
	44281 :	11111011;
	44280 :	11111101;
	44279 :	11111101;
	44278 :	00010011;
	44277 :	00000010;
	44276 :	00000101;
	44275 :	00000101;
	44274 :	11110111;
	44273 :	00010111;
	44272 :	11101001;
	44271 :	00000101;
	44270 :	00001110;
	44269 :	00001010;
	44268 :	00000011;
	44267 :	11110110;
	44266 :	11101101;
	44265 :	00010011;
	44264 :	00011000;
	44263 :	00101111;
	44262 :	00001100;
	44261 :	11110000;
	44260 :	00001101;
	44259 :	11101110;
	44258 :	11111111;
	44257 :	00011011;
	44256 :	01001011;
	44255 :	00110001;
	44254 :	11100101;
	44253 :	11100110;
	44252 :	00010101;
	44251 :	00100001;
	44250 :	00000001;
	44249 :	11011000;
	44248 :	11010111;
	44247 :	00000100;
	44246 :	11111111;
	44245 :	11111000;
	44244 :	00001001;
	44243 :	00000111;
	44242 :	00011101;
	44241 :	11111011;
	44240 :	00000010;
	44239 :	00101111;
	44238 :	00011100;
	44237 :	00001001;
	44236 :	00001101;
	44235 :	00000101;
	44234 :	00101101;
	44233 :	00011110;
	44232 :	00011011;
	44231 :	00001000;
	44230 :	11100000;
	44229 :	11110011;
	44228 :	11101111;
	44227 :	11100010;
	44226 :	00000111;
	44225 :	00000000;
	44224 :	11111011;
	44223 :	11011111;
	44222 :	11110011;
	44221 :	11101011;
	44220 :	11111011;
	44219 :	00000100;
	44218 :	11111110;
	44217 :	11111001;
	44216 :	00000101;
	44215 :	00000111;
	44214 :	00011000;
	44213 :	00010111;
	44212 :	11111110;
	44211 :	00001011;
	44210 :	00001110;
	44209 :	00011100;
	44208 :	00010111;
	44207 :	00010011;
	44206 :	00000111;
	44205 :	11101110;
	44204 :	11101001;
	44203 :	00000110;
	44202 :	11100011;
	44201 :	11111111;
	44200 :	00000000;
	44199 :	00101011;
	44198 :	00001111;
	44197 :	00000011;
	44196 :	11101101;
	44195 :	00000100;
	44194 :	00101111;
	44193 :	11111110;
	44192 :	11111100;
	44191 :	11101000;
	44190 :	11111100;
	44189 :	11011010;
	44188 :	11011110;
	44187 :	11110100;
	44186 :	11111010;
	44185 :	11110110;
	44184 :	00101110;
	44183 :	00011111;
	44182 :	00000001;
	44181 :	00000101;
	44180 :	11110111;
	44179 :	00100101;
	44178 :	00000110;
	44177 :	00010111;
	44176 :	11100110;
	44175 :	11110010;
	44174 :	11111100;
	44173 :	11111011;
	44172 :	00001110;
	44171 :	00011000;
	44170 :	00100111;
	44169 :	11101011;
	44168 :	11110100;
	44167 :	00001101;
	44166 :	00010001;
	44165 :	00111001;
	44164 :	00000000;
	44163 :	11111100;
	44162 :	00101000;
	44161 :	00011101;
	44160 :	11010110;
	44159 :	00000001;
	44158 :	00001001;
	44157 :	00100010;
	44156 :	00001111;
	44155 :	11111101;
	44154 :	11110011;
	44153 :	00011000;
	44152 :	00111101;
	44151 :	00011100;
	44150 :	00000100;
	44149 :	11110010;
	44148 :	11111000;
	44147 :	11110100;
	44146 :	11110011;
	44145 :	11111110;
	44144 :	11111100;
	44143 :	11110111;
	44142 :	11110110;
	44141 :	11111101;
	44140 :	11111101;
	44139 :	00001000;
	44138 :	00000110;
	44137 :	00001011;
	44136 :	11110110;
	44135 :	11101100;
	44134 :	00101011;
	44133 :	00011011;
	44132 :	00100011;
	44131 :	11101110;
	44130 :	11100001;
	44129 :	00010110;
	44128 :	11111100;
	44127 :	11100110;
	44126 :	11011100;
	44125 :	11011101;
	44124 :	11101011;
	44123 :	11111111;
	44122 :	11111001;
	44121 :	00000011;
	44120 :	00001001;
	44119 :	11111000;
	44118 :	00001010;
	44117 :	11110010;
	44116 :	11111101;
	44115 :	00001110;
	44114 :	00100101;
	44113 :	00101111;
	44112 :	00010111;
	44111 :	00010011;
	44110 :	00000000;
	44109 :	00111010;
	44108 :	00100111;
	44107 :	00000100;
	44106 :	11110101;
	44105 :	11010000;
	44104 :	01010110;
	44103 :	00110110;
	44102 :	00100011;
	44101 :	11110010;
	44100 :	11010000;
	44099 :	11110011;
	44098 :	11101111;
	44097 :	11101011;
	44096 :	11111101;
	44095 :	11111110;
	44094 :	11110011;
	44093 :	00001100;
	44092 :	00000000;
	44091 :	11111000;
	44090 :	00000101;
	44089 :	00001010;
	44088 :	00001001;
	44087 :	00010011;
	44086 :	11111010;
	44085 :	00000001;
	44084 :	00100110;
	44083 :	00001110;
	44082 :	00100101;
	44081 :	00000001;
	44080 :	11011100;
	44079 :	00100101;
	44078 :	00100010;
	44077 :	00001010;
	44076 :	11100000;
	44075 :	11011110;
	44074 :	11101011;
	44073 :	00001101;
	44072 :	00000110;
	44071 :	11101010;
	44070 :	00000000;
	44069 :	11110100;
	44068 :	11101111;
	44067 :	11100111;
	44066 :	11101010;
	44065 :	11100001;
	44064 :	11011000;
	44063 :	11001110;
	44062 :	11011110;
	44061 :	11111100;
	44060 :	11111111;
	44059 :	00011101;
	44058 :	00001000;
	44057 :	11101110;
	44056 :	11111010;
	44055 :	11111001;
	44054 :	00010010;
	44053 :	00001001;
	44052 :	00010101;
	44051 :	11100111;
	44050 :	11101001;
	44049 :	00010101;
	44048 :	00010110;
	44047 :	00001111;
	44046 :	11111010;
	44045 :	11100010;
	44044 :	00000100;
	44043 :	00000101;
	44042 :	00000010;
	44041 :	11101111;
	44040 :	11111010;
	44039 :	11101011;
	44038 :	11010110;
	44037 :	11100011;
	44036 :	00001111;
	44035 :	00000111;
	44034 :	00001011;
	44033 :	11011101;
	44032 :	11111010;
	44031 :	00001110;
	44030 :	00011110;
	44029 :	00000100;
	44028 :	11110010;
	44027 :	00000000;
	44026 :	00000011;
	44025 :	11101010;
	44024 :	11101010;
	44023 :	11101011;
	44022 :	00000011;
	44021 :	11101101;
	44020 :	11110010;
	44019 :	00001011;
	44018 :	11110001;
	44017 :	11110110;
	44016 :	11111100;
	44015 :	00000000;
	44014 :	00011011;
	44013 :	00001100;
	44012 :	11110011;
	44011 :	00001100;
	44010 :	00001011;
	44009 :	00000100;
	44008 :	11111011;
	44007 :	00001110;
	44006 :	00001101;
	44005 :	00011101;
	44004 :	11101001;
	44003 :	11110100;
	44002 :	00000011;
	44001 :	00011101;
	44000 :	00001000;
	43999 :	11111001;
	43998 :	11101100;
	43997 :	11000111;
	43996 :	11100101;
	43995 :	00001110;
	43994 :	11101001;
	43993 :	11111100;
	43992 :	11101001;
	43991 :	00000111;
	43990 :	00001000;
	43989 :	11111111;
	43988 :	11101000;
	43987 :	11110000;
	43986 :	11111100;
	43985 :	11110010;
	43984 :	00100110;
	43983 :	00001000;
	43982 :	11110011;
	43981 :	11110010;
	43980 :	11100010;
	43979 :	11101001;
	43978 :	11100010;
	43977 :	11011011;
	43976 :	11101001;
	43975 :	11110100;
	43974 :	00000000;
	43973 :	11101101;
	43972 :	00000111;
	43971 :	00101110;
	43970 :	00011001;
	43969 :	00000100;
	43968 :	11101001;
	43967 :	11110110;
	43966 :	00001110;
	43965 :	00000000;
	43964 :	11111011;
	43963 :	11110100;
	43962 :	11111110;
	43961 :	00000100;
	43960 :	11111110;
	43959 :	11101111;
	43958 :	11111100;
	43957 :	00000110;
	43956 :	00010000;
	43955 :	11111000;
	43954 :	00001000;
	43953 :	00001111;
	43952 :	11111110;
	43951 :	11111011;
	43950 :	11100011;
	43949 :	11111011;
	43948 :	00001000;
	43947 :	00001110;
	43946 :	11101001;
	43945 :	11110101;
	43944 :	11111100;
	43943 :	00001111;
	43942 :	00001110;
	43941 :	00001001;
	43940 :	00010010;
	43939 :	11110101;
	43938 :	00001001;
	43937 :	00010000;
	43936 :	00010110;
	43935 :	00001100;
	43934 :	00000111;
	43933 :	00011010;
	43932 :	00001011;
	43931 :	00000101;
	43930 :	11111110;
	43929 :	00000101;
	43928 :	11111000;
	43927 :	00000110;
	43926 :	11111101;
	43925 :	11101011;
	43924 :	00000101;
	43923 :	00000101;
	43922 :	00011011;
	43921 :	00001101;
	43920 :	00100011;
	43919 :	11111110;
	43918 :	11111000;
	43917 :	00011110;
	43916 :	11101101;
	43915 :	11110011;
	43914 :	11111100;
	43913 :	11110100;
	43912 :	00001111;
	43911 :	11110110;
	43910 :	11100000;
	43909 :	00000111;
	43908 :	00000101;
	43907 :	00010110;
	43906 :	11100100;
	43905 :	11110001;
	43904 :	00011100;
	43903 :	00001110;
	43902 :	00010011;
	43901 :	11110100;
	43900 :	11010010;
	43899 :	00010101;
	43898 :	11111101;
	43897 :	11011110;
	43896 :	00001100;
	43895 :	00000100;
	43894 :	11111111;
	43893 :	11110001;
	43892 :	11111111;
	43891 :	11110100;
	43890 :	00010110;
	43889 :	11111100;
	43888 :	00000100;
	43887 :	11111100;
	43886 :	00000110;
	43885 :	00010100;
	43884 :	11111000;
	43883 :	00001010;
	43882 :	00000011;
	43881 :	00001100;
	43880 :	00001100;
	43879 :	11111011;
	43878 :	11110010;
	43877 :	11111011;
	43876 :	11110100;
	43875 :	00000001;
	43874 :	00011000;
	43873 :	11111111;
	43872 :	11111101;
	43871 :	11110001;
	43870 :	11111010;
	43869 :	00000000;
	43868 :	00010111;
	43867 :	11100010;
	43866 :	11110111;
	43865 :	11111111;
	43864 :	00000010;
	43863 :	11111001;
	43862 :	11101100;
	43861 :	11111010;
	43860 :	11110010;
	43859 :	00100110;
	43858 :	00001101;
	43857 :	11110001;
	43856 :	11011110;
	43855 :	11100111;
	43854 :	00010110;
	43853 :	00101101;
	43852 :	00001011;
	43851 :	11110111;
	43850 :	00011100;
	43849 :	00001001;
	43848 :	00010001;
	43847 :	11111011;
	43846 :	00000110;
	43845 :	00001011;
	43844 :	00100001;
	43843 :	00000111;
	43842 :	00010100;
	43841 :	00000101;
	43840 :	11101011;
	43839 :	11100011;
	43838 :	11111001;
	43837 :	11101010;
	43836 :	11110101;
	43835 :	11100011;
	43834 :	00000001;
	43833 :	00001101;
	43832 :	00001100;
	43831 :	11111001;
	43830 :	11110011;
	43829 :	00100010;
	43828 :	00001101;
	43827 :	00011100;
	43826 :	00010001;
	43825 :	11100010;
	43824 :	11111110;
	43823 :	00000000;
	43822 :	11110001;
	43821 :	00001010;
	43820 :	00101101;
	43819 :	00000010;
	43818 :	11101011;
	43817 :	11110101;
	43816 :	11111001;
	43815 :	00000010;
	43814 :	11101100;
	43813 :	11101011;
	43812 :	11010011;
	43811 :	11111000;
	43810 :	11111001;
	43809 :	11100110;
	43808 :	00000001;
	43807 :	11110100;
	43806 :	00001010;
	43805 :	11111111;
	43804 :	00011010;
	43803 :	00000110;
	43802 :	00101010;
	43801 :	00001100;
	43800 :	11101010;
	43799 :	00000010;
	43798 :	11100001;
	43797 :	11011011;
	43796 :	00000001;
	43795 :	00000101;
	43794 :	00011011;
	43793 :	00000111;
	43792 :	11110100;
	43791 :	00001101;
	43790 :	11101111;
	43789 :	00101001;
	43788 :	00001111;
	43787 :	00011110;
	43786 :	00010100;
	43785 :	00001001;
	43784 :	11110010;
	43783 :	11110111;
	43782 :	00011100;
	43781 :	00000110;
	43780 :	11111100;
	43779 :	10111011;
	43778 :	11111001;
	43777 :	00010010;
	43776 :	00010111;
	43775 :	00000110;
	43774 :	00000100;
	43773 :	00000000;
	43772 :	11111110;
	43771 :	00000110;
	43770 :	11010011;
	43769 :	00001000;
	43768 :	00001000;
	43767 :	11111011;
	43766 :	11110010;
	43765 :	11100100;
	43764 :	11100111;
	43763 :	11111001;
	43762 :	11100011;
	43761 :	11101000;
	43760 :	00110000;
	43759 :	11100010;
	43758 :	11110110;
	43757 :	11100011;
	43756 :	00010000;
	43755 :	00011010;
	43754 :	00001001;
	43753 :	11011000;
	43752 :	11100111;
	43751 :	00101111;
	43750 :	00011100;
	43749 :	00010000;
	43748 :	11110101;
	43747 :	00000000;
	43746 :	00010001;
	43745 :	00000111;
	43744 :	00010111;
	43743 :	11111110;
	43742 :	11111000;
	43741 :	00000111;
	43740 :	11011010;
	43739 :	00001011;
	43738 :	11101000;
	43737 :	11111000;
	43736 :	11110100;
	43735 :	00000001;
	43734 :	11110000;
	43733 :	00001000;
	43732 :	00000110;
	43731 :	00010111;
	43730 :	00001010;
	43729 :	11110111;
	43728 :	00001011;
	43727 :	00010111;
	43726 :	11111110;
	43725 :	11110110;
	43724 :	00100000;
	43723 :	00001101;
	43722 :	00010100;
	43721 :	00001000;
	43720 :	11110000;
	43719 :	00010110;
	43718 :	00000010;
	43717 :	11111111;
	43716 :	11101111;
	43715 :	11001110;
	43714 :	11111000;
	43713 :	00000000;
	43712 :	11110101;
	43711 :	11110101;
	43710 :	00100010;
	43709 :	11011100;
	43708 :	00000100;
	43707 :	00000101;
	43706 :	11111100;
	43705 :	00100001;
	43704 :	11100101;
	43703 :	11110111;
	43702 :	00000000;
	43701 :	00100011;
	43700 :	00100011;
	43699 :	00001001;
	43698 :	00001000;
	43697 :	00000100;
	43696 :	00000011;
	43695 :	00001111;
	43694 :	00010101;
	43693 :	11110011;
	43692 :	11110101;
	43691 :	00000000;
	43690 :	11110001;
	43689 :	11111111;
	43688 :	11111100;
	43687 :	11111111;
	43686 :	11110001;
	43685 :	11111100;
	43684 :	11101101;
	43683 :	00011110;
	43682 :	11111001;
	43681 :	00000001;
	43680 :	00010011;
	43679 :	11011100;
	43678 :	11111100;
	43677 :	00001000;
	43676 :	00010011;
	43675 :	00010000;
	43674 :	00100001;
	43673 :	00001000;
	43672 :	00011100;
	43671 :	00000100;
	43670 :	11111110;
	43669 :	00000010;
	43668 :	11111100;
	43667 :	11111110;
	43666 :	00000011;
	43665 :	00000101;
	43664 :	00001101;
	43663 :	00001101;
	43662 :	00100100;
	43661 :	00010011;
	43660 :	00011100;
	43659 :	00001101;
	43658 :	00010011;
	43657 :	00010000;
	43656 :	00000101;
	43655 :	00010001;
	43654 :	11011011;
	43653 :	11100110;
	43652 :	00000001;
	43651 :	11110101;
	43650 :	00001100;
	43649 :	00001100;
	43648 :	11111111;
	43647 :	11101110;
	43646 :	00010001;
	43645 :	00100010;
	43644 :	00010101;
	43643 :	00000101;
	43642 :	00100001;
	43641 :	00010111;
	43640 :	00001100;
	43639 :	00100000;
	43638 :	11111011;
	43637 :	00010001;
	43636 :	00000110;
	43635 :	11110110;
	43634 :	11101110;
	43633 :	11110010;
	43632 :	00000001;
	43631 :	11111000;
	43630 :	11110101;
	43629 :	11010000;
	43628 :	11100001;
	43627 :	11110111;
	43626 :	00000100;
	43625 :	00000010;
	43624 :	00000001;
	43623 :	00000110;
	43622 :	00011000;
	43621 :	00010111;
	43620 :	00011010;
	43619 :	00001011;
	43618 :	00010000;
	43617 :	00001000;
	43616 :	11111001;
	43615 :	00000001;
	43614 :	00000000;
	43613 :	00000010;
	43612 :	11111101;
	43611 :	11101101;
	43610 :	11111101;
	43609 :	00000010;
	43608 :	11111010;
	43607 :	00000101;
	43606 :	11111101;
	43605 :	11101010;
	43604 :	00011001;
	43603 :	00000011;
	43602 :	00001000;
	43601 :	11111100;
	43600 :	11101100;
	43599 :	00000111;
	43598 :	00010010;
	43597 :	11111100;
	43596 :	11110001;
	43595 :	11111010;
	43594 :	00100001;
	43593 :	00001001;
	43592 :	00000100;
	43591 :	00001010;
	43590 :	00001101;
	43589 :	00010001;
	43588 :	00001001;
	43587 :	11110011;
	43586 :	00000000;
	43585 :	00001010;
	43584 :	00001110;
	43583 :	00001110;
	43582 :	00001100;
	43581 :	00001011;
	43580 :	11101011;
	43579 :	00001011;
	43578 :	00100011;
	43577 :	00100110;
	43576 :	00011011;
	43575 :	00000000;
	43574 :	00011100;
	43573 :	00010010;
	43572 :	11111011;
	43571 :	00011111;
	43570 :	00000111;
	43569 :	00001011;
	43568 :	00010010;
	43567 :	11111011;
	43566 :	00001000;
	43565 :	00000010;
	43564 :	00001010;
	43563 :	00010001;
	43562 :	00000100;
	43561 :	11111101;
	43560 :	11101100;
	43559 :	00010111;
	43558 :	00011011;
	43557 :	00001111;
	43556 :	11110011;
	43555 :	00000010;
	43554 :	00001010;
	43553 :	00000000;
	43552 :	00000000;
	43551 :	00000001;
	43550 :	00000110;
	43549 :	00000111;
	43548 :	11111011;
	43547 :	11110110;
	43546 :	11110101;
	43545 :	11101011;
	43544 :	11111101;
	43543 :	00000101;
	43542 :	00010101;
	43541 :	11110101;
	43540 :	00000010;
	43539 :	00000110;
	43538 :	00000000;
	43537 :	00000111;
	43536 :	00000001;
	43535 :	00010100;
	43534 :	11110001;
	43533 :	00010100;
	43532 :	11111000;
	43531 :	00010001;
	43530 :	00010100;
	43529 :	00000110;
	43528 :	11110011;
	43527 :	11110111;
	43526 :	11110100;
	43525 :	11100110;
	43524 :	00010111;
	43523 :	00001000;
	43522 :	00001001;
	43521 :	11111010;
	43520 :	00000001;
	43519 :	11111101;
	43518 :	00001010;
	43517 :	00010001;
	43516 :	00000110;
	43515 :	00000101;
	43514 :	00001000;
	43513 :	11111010;
	43512 :	00010011;
	43511 :	11100111;
	43510 :	11011101;
	43509 :	00001010;
	43508 :	00011101;
	43507 :	00001011;
	43506 :	11111101;
	43505 :	11110101;
	43504 :	00000101;
	43503 :	00010001;
	43502 :	00001111;
	43501 :	11101100;
	43500 :	11110100;
	43499 :	00001010;
	43498 :	00000001;
	43497 :	11111010;
	43496 :	00000000;
	43495 :	11110011;
	43494 :	00000110;
	43493 :	00000110;
	43492 :	11110111;
	43491 :	11101110;
	43490 :	11111101;
	43489 :	00010010;
	43488 :	00010100;
	43487 :	00000110;
	43486 :	11111111;
	43485 :	00001011;
	43484 :	00000110;
	43483 :	00000010;
	43482 :	00000111;
	43481 :	00001000;
	43480 :	00000101;
	43479 :	11110010;
	43478 :	11101010;
	43477 :	00000000;
	43476 :	11111000;
	43475 :	11101111;
	43474 :	00010011;
	43473 :	00011010;
	43472 :	00011100;
	43471 :	00011001;
	43470 :	00001010;
	43469 :	11010110;
	43468 :	00000000;
	43467 :	11101100;
	43466 :	11101000;
	43465 :	11110001;
	43464 :	11110101;
	43463 :	11101011;
	43462 :	11100110;
	43461 :	11110001;
	43460 :	11101010;
	43459 :	00011010;
	43458 :	00000001;
	43457 :	11110110;
	43456 :	00010000;
	43455 :	11101010;
	43454 :	00100001;
	43453 :	00000000;
	43452 :	00110111;
	43451 :	00110001;
	43450 :	01001011;
	43449 :	00101010;
	43448 :	00100101;
	43447 :	00101001;
	43446 :	00001001;
	43445 :	00000011;
	43444 :	00011110;
	43443 :	00001110;
	43442 :	00010010;
	43441 :	00010111;
	43440 :	11110100;
	43439 :	00010001;
	43438 :	00000101;
	43437 :	00000101;
	43436 :	11011010;
	43435 :	11000101;
	43434 :	00001001;
	43433 :	00001010;
	43432 :	00000000;
	43431 :	11011101;
	43430 :	10111000;
	43429 :	11111110;
	43428 :	00001000;
	43427 :	00010101;
	43426 :	00010000;
	43425 :	11111011;
	43424 :	00000110;
	43423 :	00100001;
	43422 :	00011111;
	43421 :	00000110;
	43420 :	00000101;
	43419 :	00001100;
	43418 :	00011000;
	43417 :	00010010;
	43416 :	00011110;
	43415 :	00011000;
	43414 :	11111001;
	43413 :	00001100;
	43412 :	00000011;
	43411 :	11101101;
	43410 :	11101101;
	43409 :	00001111;
	43408 :	00101000;
	43407 :	11111101;
	43406 :	11011110;
	43405 :	11010110;
	43404 :	00010101;
	43403 :	00001111;
	43402 :	11111010;
	43401 :	11111010;
	43400 :	11111001;
	43399 :	00001100;
	43398 :	00010110;
	43397 :	11110010;
	43396 :	00000001;
	43395 :	11111111;
	43394 :	00110101;
	43393 :	11111010;
	43392 :	11110000;
	43391 :	11111101;
	43390 :	11100100;
	43389 :	11110011;
	43388 :	11110100;
	43387 :	00001101;
	43386 :	00000000;
	43385 :	00001000;
	43384 :	11100010;
	43383 :	11100110;
	43382 :	00000001;
	43381 :	00000110;
	43380 :	00001111;
	43379 :	11011010;
	43378 :	00000100;
	43377 :	00001011;
	43376 :	11111011;
	43375 :	11100110;
	43374 :	00001011;
	43373 :	11011010;
	43372 :	00011111;
	43371 :	00011000;
	43370 :	00001000;
	43369 :	11111000;
	43368 :	11001100;
	43367 :	00000110;
	43366 :	00000010;
	43365 :	11000100;
	43364 :	11110011;
	43363 :	11111110;
	43362 :	11101000;
	43361 :	00000010;
	43360 :	11100001;
	43359 :	00001000;
	43358 :	00000100;
	43357 :	00000011;
	43356 :	00001100;
	43355 :	00010111;
	43354 :	00001110;
	43353 :	11111000;
	43352 :	00100101;
	43351 :	00111110;
	43350 :	00101011;
	43349 :	00011011;
	43348 :	00010010;
	43347 :	00000100;
	43346 :	00000100;
	43345 :	00000101;
	43344 :	00100111;
	43343 :	11111111;
	43342 :	11111001;
	43341 :	00011001;
	43340 :	00001100;
	43339 :	11110010;
	43338 :	11011111;
	43337 :	00000010;
	43336 :	11111000;
	43335 :	11110011;
	43334 :	11010011;
	43333 :	11101100;
	43332 :	11110111;
	43331 :	11101110;
	43330 :	11110100;
	43329 :	11110000;
	43328 :	11110011;
	43327 :	11100100;
	43326 :	11110010;
	43325 :	00000011;
	43324 :	00010100;
	43323 :	00001101;
	43322 :	00100001;
	43321 :	00010100;
	43320 :	00010011;
	43319 :	00001100;
	43318 :	11100110;
	43317 :	00000001;
	43316 :	11101011;
	43315 :	11100001;
	43314 :	11001110;
	43313 :	00000001;
	43312 :	11110100;
	43311 :	11101011;
	43310 :	11001111;
	43309 :	00001000;
	43308 :	00001101;
	43307 :	00000001;
	43306 :	11111011;
	43305 :	00000011;
	43304 :	00001001;
	43303 :	00010110;
	43302 :	11111010;
	43301 :	11111010;
	43300 :	00000111;
	43299 :	00010000;
	43298 :	11111011;
	43297 :	00001011;
	43296 :	00010001;
	43295 :	00001111;
	43294 :	00000100;
	43293 :	00000111;
	43292 :	00010000;
	43291 :	00001000;
	43290 :	00000000;
	43289 :	11011111;
	43288 :	11011010;
	43287 :	11101000;
	43286 :	11111000;
	43285 :	11110001;
	43284 :	11111000;
	43283 :	11110001;
	43282 :	11111101;
	43281 :	11110111;
	43280 :	11101010;
	43279 :	00000110;
	43278 :	00011011;
	43277 :	00000110;
	43276 :	11111110;
	43275 :	11111101;
	43274 :	11101010;
	43273 :	11100110;
	43272 :	11111001;
	43271 :	00000001;
	43270 :	00000111;
	43269 :	00001010;
	43268 :	11101101;
	43267 :	00000001;
	43266 :	11111111;
	43265 :	11111000;
	43264 :	00001101;
	43263 :	00010000;
	43262 :	11111111;
	43261 :	11111101;
	43260 :	00011111;
	43259 :	11011101;
	43258 :	11011001;
	43257 :	00000000;
	43256 :	00010100;
	43255 :	00001000;
	43254 :	11101111;
	43253 :	11101000;
	43252 :	00000011;
	43251 :	11101000;
	43250 :	11101111;
	43249 :	11110010;
	43248 :	00000011;
	43247 :	11110011;
	43246 :	11110001;
	43245 :	00001001;
	43244 :	00001111;
	43243 :	00001010;
	43242 :	11110110;
	43241 :	00000100;
	43240 :	00010001;
	43239 :	11110111;
	43238 :	11111010;
	43237 :	11111101;
	43236 :	00001000;
	43235 :	00000101;
	43234 :	11110011;
	43233 :	11110000;
	43232 :	00010100;
	43231 :	00000111;
	43230 :	11110110;
	43229 :	00001011;
	43228 :	11111000;
	43227 :	00010011;
	43226 :	00000010;
	43225 :	00010100;
	43224 :	00011000;
	43223 :	00001111;
	43222 :	00001010;
	43221 :	11111011;
	43220 :	00001101;
	43219 :	00001000;
	43218 :	00000010;
	43217 :	00001010;
	43216 :	00001010;
	43215 :	00010000;
	43214 :	00000000;
	43213 :	00000010;
	43212 :	11111001;
	43211 :	11111001;
	43210 :	11111100;
	43209 :	11111001;
	43208 :	11111101;
	43207 :	11111001;
	43206 :	11110100;
	43205 :	00000010;
	43204 :	00000111;
	43203 :	11110111;
	43202 :	11111111;
	43201 :	11111010;
	43200 :	11110111;
	43199 :	00010001;
	43198 :	11100110;
	43197 :	11011000;
	43196 :	00000100;
	43195 :	00100000;
	43194 :	11110100;
	43193 :	11100111;
	43192 :	00000111;
	43191 :	00011110;
	43190 :	00101101;
	43189 :	00010010;
	43188 :	11101110;
	43187 :	00000011;
	43186 :	00000000;
	43185 :	00001010;
	43184 :	00010100;
	43183 :	11110101;
	43182 :	11110101;
	43181 :	00010010;
	43180 :	11110111;
	43179 :	11111010;
	43178 :	11111010;
	43177 :	11110011;
	43176 :	00100000;
	43175 :	00011000;
	43174 :	00011110;
	43173 :	11111010;
	43172 :	00001111;
	43171 :	00001011;
	43170 :	00100010;
	43169 :	00100101;
	43168 :	11111111;
	43167 :	11101010;
	43166 :	00000000;
	43165 :	00000100;
	43164 :	00000001;
	43163 :	00000110;
	43162 :	00000011;
	43161 :	00000110;
	43160 :	00001000;
	43159 :	11110110;
	43158 :	00000100;
	43157 :	00011001;
	43156 :	00100110;
	43155 :	00000110;
	43154 :	00001111;
	43153 :	00001000;
	43152 :	00000101;
	43151 :	00000111;
	43150 :	00000010;
	43149 :	00100100;
	43148 :	00001101;
	43147 :	11111101;
	43146 :	11100011;
	43145 :	11110101;
	43144 :	00000010;
	43143 :	00000011;
	43142 :	00000011;
	43141 :	11111101;
	43140 :	00000101;
	43139 :	11110001;
	43138 :	00000111;
	43137 :	00100001;
	43136 :	00100111;
	43135 :	00111001;
	43134 :	00000110;
	43133 :	00000100;
	43132 :	00001101;
	43131 :	11111010;
	43130 :	00010111;
	43129 :	00000011;
	43128 :	00000010;
	43127 :	00000000;
	43126 :	11101011;
	43125 :	11110101;
	43124 :	00010101;
	43123 :	00010010;
	43122 :	00001010;
	43121 :	11111011;
	43120 :	00010001;
	43119 :	00000010;
	43118 :	11111101;
	43117 :	00001000;
	43116 :	11100011;
	43115 :	11000011;
	43114 :	11110010;
	43113 :	11110100;
	43112 :	00011001;
	43111 :	00011000;
	43110 :	11100111;
	43109 :	11111011;
	43108 :	11110100;
	43107 :	00001000;
	43106 :	00011010;
	43105 :	00000011;
	43104 :	00001010;
	43103 :	00010100;
	43102 :	00001111;
	43101 :	11101010;
	43100 :	11010000;
	43099 :	00010111;
	43098 :	11111110;
	43097 :	11100000;
	43096 :	11101110;
	43095 :	11110011;
	43094 :	11111101;
	43093 :	11111101;
	43092 :	00000000;
	43091 :	11111100;
	43090 :	00001001;
	43089 :	00001110;
	43088 :	00010000;
	43087 :	00001010;
	43086 :	11111111;
	43085 :	00011100;
	43084 :	11101110;
	43083 :	11110001;
	43082 :	11110001;
	43081 :	00001010;
	43080 :	00010111;
	43079 :	00000011;
	43078 :	11111110;
	43077 :	11101101;
	43076 :	00001001;
	43075 :	00000111;
	43074 :	00001111;
	43073 :	11110011;
	43072 :	11110101;
	43071 :	11111111;
	43070 :	00001100;
	43069 :	11111101;
	43068 :	00000011;
	43067 :	00000001;
	43066 :	11111101;
	43065 :	00010110;
	43064 :	11110100;
	43063 :	11100001;
	43062 :	00010011;
	43061 :	00000001;
	43060 :	11101011;
	43059 :	00011001;
	43058 :	00010101;
	43057 :	11111011;
	43056 :	11101111;
	43055 :	11101100;
	43054 :	00011110;
	43053 :	00101000;
	43052 :	00000000;
	43051 :	00001101;
	43050 :	00010111;
	43049 :	00011011;
	43048 :	00101111;
	43047 :	00000110;
	43046 :	00000010;
	43045 :	00001101;
	43044 :	00011110;
	43043 :	00000110;
	43042 :	11110100;
	43041 :	11101100;
	43040 :	11010101;
	43039 :	11110011;
	43038 :	11101010;
	43037 :	11100110;
	43036 :	11100000;
	43035 :	11010011;
	43034 :	00000001;
	43033 :	11110101;
	43032 :	11110011;
	43031 :	00100001;
	43030 :	11110111;
	43029 :	00100011;
	43028 :	00000100;
	43027 :	00001011;
	43026 :	00001011;
	43025 :	00000000;
	43024 :	00011111;
	43023 :	00001110;
	43022 :	00010011;
	43021 :	00001001;
	43020 :	00101110;
	43019 :	00010100;
	43018 :	00001001;
	43017 :	11101110;
	43016 :	11100111;
	43015 :	00000011;
	43014 :	11101011;
	43013 :	11011110;
	43012 :	11010110;
	43011 :	11100110;
	43010 :	11011010;
	43009 :	11110001;
	43008 :	11110000;
	43007 :	00001000;
	43006 :	00011101;
	43005 :	00001001;
	43004 :	00011100;
	43003 :	11110111;
	43002 :	00011001;
	43001 :	00001101;
	43000 :	00011110;
	42999 :	00001111;
	42998 :	11110101;
	42997 :	11101101;
	42996 :	11100011;
	42995 :	00000011;
	42994 :	00010010;
	42993 :	00000001;
	42992 :	11111011;
	42991 :	00000010;
	42990 :	11110111;
	42989 :	00101000;
	42988 :	11111111;
	42987 :	00010001;
	42986 :	00110110;
	42985 :	01000001;
	42984 :	00000000;
	42983 :	11011011;
	42982 :	11110010;
	42981 :	11111010;
	42980 :	00011010;
	42979 :	11101000;
	42978 :	11110011;
	42977 :	00010110;
	42976 :	00010000;
	42975 :	11110100;
	42974 :	11101110;
	42973 :	11100100;
	42972 :	11110000;
	42971 :	00010100;
	42970 :	10111001;
	42969 :	11111000;
	42968 :	00001011;
	42967 :	11111100;
	42966 :	11110110;
	42965 :	11001110;
	42964 :	11111001;
	42963 :	11111000;
	42962 :	11110011;
	42961 :	11111011;
	42960 :	00001111;
	42959 :	00000000;
	42958 :	11011000;
	42957 :	11101000;
	42956 :	11110011;
	42955 :	11101111;
	42954 :	00010100;
	42953 :	10111010;
	42952 :	11101100;
	42951 :	11111111;
	42950 :	00001000;
	42949 :	00100100;
	42948 :	00001100;
	42947 :	00000001;
	42946 :	11110110;
	42945 :	00000011;
	42944 :	00100011;
	42943 :	00000111;
	42942 :	11110111;
	42941 :	11101001;
	42940 :	11101111;
	42939 :	00011010;
	42938 :	00000011;
	42937 :	11101100;
	42936 :	00001110;
	42935 :	00001010;
	42934 :	00001010;
	42933 :	11101110;
	42932 :	11101000;
	42931 :	00000011;
	42930 :	00000001;
	42929 :	00010001;
	42928 :	11110100;
	42927 :	00000101;
	42926 :	11101110;
	42925 :	11111011;
	42924 :	00010101;
	42923 :	00010000;
	42922 :	00000111;
	42921 :	11110001;
	42920 :	11100100;
	42919 :	00101111;
	42918 :	11111010;
	42917 :	11111001;
	42916 :	11110110;
	42915 :	11010101;
	42914 :	11110000;
	42913 :	11111101;
	42912 :	11101000;
	42911 :	11111010;
	42910 :	00001101;
	42909 :	11100100;
	42908 :	00000010;
	42907 :	11111100;
	42906 :	11111001;
	42905 :	11101111;
	42904 :	00000010;
	42903 :	00000000;
	42902 :	11111001;
	42901 :	00000011;
	42900 :	00001011;
	42899 :	00010001;
	42898 :	00001100;
	42897 :	00000000;
	42896 :	11110110;
	42895 :	11111011;
	42894 :	00000101;
	42893 :	11110001;
	42892 :	11100100;
	42891 :	11110010;
	42890 :	00000110;
	42889 :	00010011;
	42888 :	11111110;
	42887 :	11101110;
	42886 :	00010101;
	42885 :	11110111;
	42884 :	00000111;
	42883 :	00001000;
	42882 :	11101110;
	42881 :	11101011;
	42880 :	11101100;
	42879 :	11111111;
	42878 :	11111011;
	42877 :	11111011;
	42876 :	00001010;
	42875 :	00000000;
	42874 :	00011110;
	42873 :	11111010;
	42872 :	00000110;
	42871 :	11110011;
	42870 :	11110100;
	42869 :	00000001;
	42868 :	11101100;
	42867 :	00001001;
	42866 :	00001010;
	42865 :	00001111;
	42864 :	00000010;
	42863 :	11111001;
	42862 :	00000011;
	42861 :	00010011;
	42860 :	00111100;
	42859 :	11101010;
	42858 :	00000001;
	42857 :	11110000;
	42856 :	11110011;
	42855 :	00001011;
	42854 :	11110100;
	42853 :	11110110;
	42852 :	00000100;
	42851 :	11110111;
	42850 :	11111001;
	42849 :	00000110;
	42848 :	11101000;
	42847 :	11110101;
	42846 :	00001110;
	42845 :	00011000;
	42844 :	00001111;
	42843 :	11111101;
	42842 :	00001010;
	42841 :	00011101;
	42840 :	00111100;
	42839 :	11111101;
	42838 :	11111011;
	42837 :	11110010;
	42836 :	00000001;
	42835 :	00011111;
	42834 :	11011011;
	42833 :	11110111;
	42832 :	11111101;
	42831 :	11111010;
	42830 :	00000000;
	42829 :	11011110;
	42828 :	11101000;
	42827 :	00000000;
	42826 :	00011010;
	42825 :	00000101;
	42824 :	00011100;
	42823 :	11110111;
	42822 :	00001000;
	42821 :	00010110;
	42820 :	00001100;
	42819 :	11111100;
	42818 :	00000101;
	42817 :	00000111;
	42816 :	11110010;
	42815 :	11111000;
	42814 :	11111011;
	42813 :	11100100;
	42812 :	00000010;
	42811 :	11111110;
	42810 :	00000101;
	42809 :	00000011;
	42808 :	11111011;
	42807 :	00001011;
	42806 :	00000001;
	42805 :	11110111;
	42804 :	00000010;
	42803 :	11111000;
	42802 :	11111001;
	42801 :	11111111;
	42800 :	11100001;
	42799 :	00010100;
	42798 :	00001010;
	42797 :	00000100;
	42796 :	00001000;
	42795 :	00001011;
	42794 :	00001010;
	42793 :	11100011;
	42792 :	00000110;
	42791 :	00000110;
	42790 :	00000101;
	42789 :	11101110;
	42788 :	11100100;
	42787 :	00000000;
	42786 :	00010001;
	42785 :	11111101;
	42784 :	00100001;
	42783 :	00010000;
	42782 :	00000010;
	42781 :	11111100;
	42780 :	00001010;
	42779 :	01001011;
	42778 :	00101110;
	42777 :	00101110;
	42776 :	00100110;
	42775 :	00000111;
	42774 :	00000001;
	42773 :	11110001;
	42772 :	11111101;
	42771 :	00010000;
	42770 :	00011110;
	42769 :	00000010;
	42768 :	00000101;
	42767 :	11110100;
	42766 :	11111010;
	42765 :	11110101;
	42764 :	00000110;
	42763 :	00000101;
	42762 :	11111111;
	42761 :	00000010;
	42760 :	11111101;
	42759 :	00001100;
	42758 :	00001100;
	42757 :	00010000;
	42756 :	00010011;
	42755 :	00010011;
	42754 :	00000100;
	42753 :	11111110;
	42752 :	00000011;
	42751 :	00000011;
