-- begin_signature
-- layer2_weight_rom(CHANNEL_ID
-- 0)
-- end_signature
WIDTH=8;
DEPTH=150;

ADDRESS_RADIX=UNS;
DATA_RADIX=BIN;

CONTENT BEGIN
	149 :	11101001;
	148 :	00000010;
	147 :	11100000;
	146 :	11100010;
	145 :	11001010;
	144 :	00001010;
	143 :	00000100;
	142 :	11101000;
	141 :	00001011;
	140 :	11001010;
	139 :	11111011;
	138 :	00010010;
	137 :	11110101;
	136 :	00010000;
	135 :	00001001;
	134 :	00001111;
	133 :	00101111;
	132 :	11101101;
	131 :	00010001;
	130 :	00000101;
	129 :	00011010;
	128 :	00001110;
	127 :	11111001;
	126 :	00011001;
	125 :	00000001;
	124 :	11001010;
	123 :	11110101;
	122 :	00001010;
	121 :	11111011;
	120 :	11111100;
	119 :	11101100;
	118 :	00001000;
	117 :	11111000;
	116 :	00010110;
	115 :	00001110;
	114 :	11101011;
	113 :	00010000;
	112 :	00001101;
	111 :	00000000;
	110 :	00010110;
	109 :	11101000;
	108 :	11101110;
	107 :	11101011;
	106 :	11110001;
	105 :	00001010;
	104 :	11111110;
	103 :	11110101;
	102 :	00010101;
	101 :	11111100;
	100 :	00001010;
	99 :	11100101;
	98 :	11110111;
	97 :	11101100;
	96 :	11100001;
	95 :	11010010;
	94 :	11110100;
	93 :	00011001;
	92 :	00001010;
	91 :	00001001;
	90 :	11110011;
	89 :	00000001;
	88 :	00001000;
	87 :	00000101;
	86 :	11111000;
	85 :	11101010;
	84 :	11101110;
	83 :	11110011;
	82 :	00000010;
	81 :	00011011;
	80 :	00010011;
	79 :	00000011;
	78 :	11111010;
	77 :	00001011;
	76 :	00001000;
	75 :	11110000;
	74 :	11110000;
	73 :	11111100;
	72 :	00011000;
	71 :	00001100;
	70 :	11011010;
	69 :	11111111;
	68 :	00001111;
	67 :	00000000;
	66 :	00100100;
	65 :	00001001;
	64 :	11110001;
	63 :	00011111;
	62 :	00010101;
	61 :	00101000;
	60 :	00010111;
	59 :	00000000;
	58 :	00011000;
	57 :	00010000;
	56 :	00011010;
	55 :	00010111;
	54 :	00001000;
	53 :	00000011;
	52 :	00000101;
	51 :	00010101;
	50 :	00011101;
	49 :	00010110;
	48 :	00010011;
	47 :	00001100;
	46 :	00011010;
	45 :	00101010;
	44 :	00110111;
	43 :	00001111;
	42 :	00001000;
	41 :	11111101;
	40 :	11101000;
	39 :	00001110;
	38 :	11011011;
	37 :	11001100;
	36 :	10111011;
	35 :	11001001;
	34 :	11110111;
	33 :	11100101;
	32 :	11001001;
	31 :	11000101;
	30 :	10110001;
	29 :	11111011;
	28 :	11101101;
	27 :	11000100;
	26 :	10101000;
	25 :	11011101;
	24 :	00010011;
	23 :	00000000;
	22 :	00010110;
	21 :	00000001;
	20 :	00001101;
	19 :	00001000;
	18 :	00001011;
	17 :	11111100;
	16 :	00010000;
	15 :	11101010;
	14 :	11101100;
	13 :	11111000;
	12 :	11100111;
	11 :	00000111;
	10 :	11110110;
	9 :	11011101;
	8 :	00000110;
	7 :	00000000;
	6 :	11111010;
	5 :	00000010;
	4 :	11111011;
	3 :	00000000;
	2 :	11110000;
	1 :	11101110;
	0 :	11011011;
END;
