-- begin_signature
-- layer1_weight_rom(CHANNEL_ID
-- 5)
-- end_signature
WIDTH=8;
DEPTH=32;

ADDRESS_RADIX=UNS;
DATA_RADIX=BIN;

CONTENT BEGIN
	31 :	XXXXXXXX;
	30 :	XXXXXXXX;
	29 :	XXXXXXXX;
	28 :	XXXXXXXX;
	27 :	XXXXXXXX;
	26 :	XXXXXXXX;
	25 :	XXXXXXXX;
	24 :	11011111;
	23 :	00010011;
	22 :	00011001;
	21 :	00110011;
	20 :	11011001;
	19 :	10110011;
	18 :	11101100;
	17 :	00111011;
	16 :	00010100;
	15 :	11011111;
	14 :	10100110;
	13 :	00010110;
	12 :	01000011;
	11 :	00111111;
	10 :	00001101;
	9 :	10101000;
	8 :	11011011;
	7 :	00010111;
	6 :	00011101;
	5 :	11101111;
	4 :	11101100;
	3 :	00100111;
	2 :	11111010;
	1 :	00011110;
	0 :	00011110;
END;
