-- begin_signature
-- layer2_weight_rom(CHANNEL_ID
-- 11)
-- end_signature
WIDTH=8;
DEPTH=150;

ADDRESS_RADIX=UNS;
DATA_RADIX=BIN;

CONTENT BEGIN
	149 :	11110101;
	148 :	11101010;
	147 :	11011100;
	146 :	11101110;
	145 :	10110010;
	144 :	11111101;
	143 :	11101001;
	142 :	11110100;
	141 :	11110101;
	140 :	11010100;
	139 :	11100111;
	138 :	11110100;
	137 :	11001010;
	136 :	11011001;
	135 :	11011011;
	134 :	11101111;
	133 :	11110011;
	132 :	11000100;
	131 :	11000100;
	130 :	11100111;
	129 :	00000000;
	128 :	00100101;
	127 :	00001100;
	126 :	11100101;
	125 :	00000001;
	124 :	11110001;
	123 :	11111101;
	122 :	00010110;
	121 :	00001001;
	120 :	11101001;
	119 :	11111001;
	118 :	00010110;
	117 :	00001110;
	116 :	11111110;
	115 :	00001010;
	114 :	00000110;
	113 :	11110111;
	112 :	11110001;
	111 :	00001011;
	110 :	11101110;
	109 :	11111101;
	108 :	11110000;
	107 :	00000000;
	106 :	11111110;
	105 :	11111111;
	104 :	11011100;
	103 :	00000101;
	102 :	11111110;
	101 :	11110000;
	100 :	11110000;
	99 :	00001010;
	98 :	11101011;
	97 :	11101000;
	96 :	11100010;
	95 :	11100100;
	94 :	00000010;
	93 :	00000000;
	92 :	00001100;
	91 :	00011001;
	90 :	00000101;
	89 :	11111010;
	88 :	11101011;
	87 :	00001111;
	86 :	00000010;
	85 :	00000111;
	84 :	11111110;
	83 :	11111001;
	82 :	11011010;
	81 :	00000111;
	80 :	00010010;
	79 :	11111011;
	78 :	11100111;
	77 :	11101100;
	76 :	11011010;
	75 :	11010101;
	74 :	00001001;
	73 :	00001010;
	72 :	00010000;
	71 :	00001011;
	70 :	00000000;
	69 :	00010100;
	68 :	11110100;
	67 :	00000110;
	66 :	00100110;
	65 :	00011101;
	64 :	00011010;
	63 :	11101111;
	62 :	00001000;
	61 :	11111111;
	60 :	00000000;
	59 :	00000101;
	58 :	00010100;
	57 :	11111101;
	56 :	11101101;
	55 :	11101010;
	54 :	00000101;
	53 :	00000011;
	52 :	11111111;
	51 :	11100100;
	50 :	11011110;
	49 :	11100111;
	48 :	11111000;
	47 :	11110000;
	46 :	00100010;
	45 :	00101000;
	44 :	00010101;
	43 :	11011111;
	42 :	11110010;
	41 :	00100110;
	40 :	01001110;
	39 :	11011011;
	38 :	00001101;
	37 :	00010101;
	36 :	00100001;
	35 :	00111110;
	34 :	00011010;
	33 :	00001100;
	32 :	00100110;
	31 :	00110000;
	30 :	01000001;
	29 :	11100101;
	28 :	11110101;
	27 :	00000010;
	26 :	00001110;
	25 :	00001110;
	24 :	00000110;
	23 :	00001111;
	22 :	11111110;
	21 :	11111010;
	20 :	11111001;
	19 :	00010100;
	18 :	11110110;
	17 :	11101001;
	16 :	00011011;
	15 :	00100110;
	14 :	11101100;
	13 :	11110111;
	12 :	11110010;
	11 :	11101000;
	10 :	00000111;
	9 :	11010111;
	8 :	00000001;
	7 :	11011010;
	6 :	11010010;
	5 :	11001101;
	4 :	11110101;
	3 :	00010011;
	2 :	00001110;
	1 :	11111010;
	0 :	11100111;
END;
