-- begin_signature
-- layer2_weight_rom(CHANNEL_ID
-- 13)
-- end_signature
WIDTH=8;
DEPTH=150;

ADDRESS_RADIX=UNS;
DATA_RADIX=BIN;

CONTENT BEGIN
	149 :	11110111;
	148 :	00001001;
	147 :	00010010;
	146 :	11111100;
	145 :	00000101;
	144 :	00000011;
	143 :	00000000;
	142 :	00010000;
	141 :	11111011;
	140 :	00000000;
	139 :	00001001;
	138 :	11111000;
	137 :	00010010;
	136 :	00000000;
	135 :	11011011;
	134 :	11111111;
	133 :	11110100;
	132 :	11100100;
	131 :	00010101;
	130 :	11100001;
	129 :	00100010;
	128 :	00000010;
	127 :	11001101;
	126 :	11010011;
	125 :	11001011;
	124 :	11010011;
	123 :	00000110;
	122 :	00010010;
	121 :	11111011;
	120 :	00010010;
	119 :	11110110;
	118 :	00000000;
	117 :	11110110;
	116 :	00000000;
	115 :	11111000;
	114 :	11110101;
	113 :	11101100;
	112 :	11110000;
	111 :	11101001;
	110 :	00000000;
	109 :	11101011;
	108 :	11101111;
	107 :	11001101;
	106 :	11110100;
	105 :	11110111;
	104 :	11110011;
	103 :	11110100;
	102 :	11011110;
	101 :	11111001;
	100 :	11011000;
	99 :	11010110;
	98 :	11101101;
	97 :	11111111;
	96 :	00010011;
	95 :	00001111;
	94 :	00000110;
	93 :	00011011;
	92 :	00010100;
	91 :	11110100;
	90 :	00010110;
	89 :	11111101;
	88 :	00001101;
	87 :	00010001;
	86 :	00101000;
	85 :	00000010;
	84 :	11011110;
	83 :	11111101;
	82 :	00000011;
	81 :	00101010;
	80 :	00101110;
	79 :	11110001;
	78 :	11101111;
	77 :	11010101;
	76 :	11110000;
	75 :	11111101;
	74 :	11110110;
	73 :	11111000;
	72 :	00000011;
	71 :	00001010;
	70 :	11111100;
	69 :	11101010;
	68 :	00001111;
	67 :	00011110;
	66 :	00100000;
	65 :	00000010;
	64 :	11111111;
	63 :	00000100;
	62 :	00011000;
	61 :	00011111;
	60 :	00100011;
	59 :	11111100;
	58 :	11110111;
	57 :	11110000;
	56 :	00011110;
	55 :	00100011;
	54 :	00011000;
	53 :	00000010;
	52 :	11010100;
	51 :	11000100;
	50 :	11111101;
	49 :	11000100;
	48 :	11011100;
	47 :	11011110;
	46 :	11110111;
	45 :	00001000;
	44 :	11000010;
	43 :	00000100;
	42 :	00011001;
	41 :	01110011;
	40 :	01100011;
	39 :	11011101;
	38 :	11110110;
	37 :	00010010;
	36 :	00011000;
	35 :	01001101;
	34 :	00010111;
	33 :	01000000;
	32 :	01011100;
	31 :	00110011;
	30 :	00011110;
	29 :	11111010;
	28 :	00111101;
	27 :	01110110;
	26 :	01110110;
	25 :	00110010;
	24 :	00010111;
	23 :	00000001;
	22 :	00001010;
	21 :	11111101;
	20 :	00010001;
	19 :	00001101;
	18 :	00001100;
	17 :	00010011;
	16 :	11111101;
	15 :	11111101;
	14 :	11100110;
	13 :	11010101;
	12 :	11100011;
	11 :	00001011;
	10 :	00001111;
	9 :	11011110;
	8 :	11010011;
	7 :	11110011;
	6 :	11110001;
	5 :	11111100;
	4 :	00000010;
	3 :	00010111;
	2 :	00010101;
	1 :	11101000;
	0 :	11101010;
END;
