-- begin_signature
-- layer2_weight_rom(CHANNEL_ID
-- 8)
-- end_signature
WIDTH=8;
DEPTH=150;

ADDRESS_RADIX=UNS;
DATA_RADIX=BIN;

CONTENT BEGIN
	149 :	00000010;
	148 :	10101110;
	147 :	11000101;
	146 :	00001100;
	145 :	00100000;
	144 :	00011110;
	143 :	11011111;
	142 :	11010111;
	141 :	00000000;
	140 :	00000000;
	139 :	01010101;
	138 :	00001101;
	137 :	11011001;
	136 :	00000000;
	135 :	00000000;
	134 :	01001000;
	133 :	00001000;
	132 :	11110000;
	131 :	00010010;
	130 :	11111010;
	129 :	00011100;
	128 :	00010001;
	127 :	00000000;
	126 :	00010110;
	125 :	00001100;
	124 :	00001000;
	123 :	00000100;
	122 :	11011110;
	121 :	11011110;
	120 :	00001001;
	119 :	00011110;
	118 :	00000110;
	117 :	11110110;
	116 :	11001011;
	115 :	11111101;
	114 :	00001010;
	113 :	00001110;
	112 :	00000110;
	111 :	11011011;
	110 :	11110001;
	109 :	00001001;
	108 :	00010011;
	107 :	00010011;
	106 :	11100110;
	105 :	11101110;
	104 :	00000111;
	103 :	00011110;
	102 :	00000011;
	101 :	11110100;
	100 :	00001000;
	99 :	11110101;
	98 :	10110011;
	97 :	11010010;
	96 :	00011010;
	95 :	00110010;
	94 :	00010111;
	93 :	11001000;
	92 :	10010000;
	91 :	11100110;
	90 :	11110010;
	89 :	00000000;
	88 :	00001100;
	87 :	11100001;
	86 :	11010101;
	85 :	11111100;
	84 :	11111111;
	83 :	11110001;
	82 :	11101110;
	81 :	11101100;
	80 :	11110101;
	79 :	00000111;
	78 :	00010100;
	77 :	11011110;
	76 :	11110101;
	75 :	11101110;
	74 :	00101011;
	73 :	11000110;
	72 :	10111011;
	71 :	11101010;
	70 :	00001010;
	69 :	00111101;
	68 :	00000101;
	67 :	11011000;
	66 :	11101010;
	65 :	00001111;
	64 :	00111100;
	63 :	00011010;
	62 :	11110011;
	61 :	11110101;
	60 :	11111010;
	59 :	00010000;
	58 :	00001110;
	57 :	00010000;
	56 :	11111100;
	55 :	11111110;
	54 :	11111110;
	53 :	00010111;
	52 :	00000000;
	51 :	11111101;
	50 :	00010000;
	49 :	00111111;
	48 :	01010001;
	47 :	01000010;
	46 :	00110010;
	45 :	00101110;
	44 :	11111001;
	43 :	00010011;
	42 :	11111100;
	41 :	11101100;
	40 :	00011111;
	39 :	11000110;
	38 :	10110101;
	37 :	11010000;
	36 :	11110110;
	35 :	00001010;
	34 :	11010010;
	33 :	10101000;
	32 :	11111010;
	31 :	00010000;
	30 :	00000011;
	29 :	10110010;
	28 :	10101001;
	27 :	10110110;
	26 :	11101101;
	25 :	00001110;
	24 :	00001000;
	23 :	11011100;
	22 :	11010011;
	21 :	11101111;
	20 :	00001000;
	19 :	00000100;
	18 :	00010100;
	17 :	11100110;
	16 :	00000010;
	15 :	11111110;
	14 :	00000001;
	13 :	11101000;
	12 :	00000000;
	11 :	11101010;
	10 :	11110101;
	9 :	11110001;
	8 :	00000100;
	7 :	11110010;
	6 :	00010011;
	5 :	00001101;
	4 :	00000111;
	3 :	00010101;
	2 :	11110110;
	1 :	11111010;
	0 :	11111011;
END;
