-- begin_signature
-- layer2_weight_rom(CHANNEL_ID
-- 3)
-- end_signature
WIDTH=8;
DEPTH=150;

ADDRESS_RADIX=UNS;
DATA_RADIX=BIN;

CONTENT BEGIN
	149 :	11111111;
	148 :	11110100;
	147 :	11010011;
	146 :	11111000;
	145 :	00100101;
	144 :	11110010;
	143 :	00000000;
	142 :	11100100;
	141 :	11110011;
	140 :	11110010;
	139 :	11110111;
	138 :	11111001;
	137 :	11110000;
	136 :	11110011;
	135 :	11101100;
	134 :	11110111;
	133 :	11011100;
	132 :	11111011;
	131 :	00010001;
	130 :	00001011;
	129 :	11010100;
	128 :	11011001;
	127 :	00000101;
	126 :	11101111;
	125 :	11111011;
	124 :	00000001;
	123 :	00001001;
	122 :	11111100;
	121 :	11101001;
	120 :	11110100;
	119 :	11111010;
	118 :	11110011;
	117 :	11011100;
	116 :	11010010;
	115 :	00000010;
	114 :	11101101;
	113 :	00001001;
	112 :	00001100;
	111 :	11110011;
	110 :	00010000;
	109 :	00010000;
	108 :	11101101;
	107 :	00001111;
	106 :	00001100;
	105 :	00011100;
	104 :	00001111;
	103 :	11101110;
	102 :	00011011;
	101 :	00001110;
	100 :	11110100;
	99 :	11011101;
	98 :	11100011;
	97 :	11100000;
	96 :	00011011;
	95 :	00100011;
	94 :	11010101;
	93 :	11101010;
	92 :	11001010;
	91 :	11000110;
	90 :	11011111;
	89 :	00000000;
	88 :	11110100;
	87 :	00010010;
	86 :	11110111;
	85 :	11110010;
	84 :	11111011;
	83 :	00010010;
	82 :	11111111;
	81 :	00100011;
	80 :	00011000;
	79 :	11111001;
	78 :	11101010;
	77 :	00000001;
	76 :	00001011;
	75 :	00010111;
	74 :	11110101;
	73 :	11100101;
	72 :	11100010;
	71 :	11100100;
	70 :	11111100;
	69 :	11101101;
	68 :	11100111;
	67 :	11110001;
	66 :	11010110;
	65 :	11100111;
	64 :	11110101;
	63 :	11101110;
	62 :	00010000;
	61 :	11110111;
	60 :	11110010;
	59 :	11111110;
	58 :	00001100;
	57 :	00011100;
	56 :	00000110;
	55 :	00100110;
	54 :	00000101;
	53 :	00010000;
	52 :	00001101;
	51 :	11111011;
	50 :	11111111;
	49 :	11111010;
	48 :	11100110;
	47 :	00000000;
	46 :	11110100;
	45 :	11111011;
	44 :	11101011;
	43 :	00001110;
	42 :	00011110;
	41 :	00111010;
	40 :	00110001;
	39 :	00110111;
	38 :	01000110;
	37 :	01000111;
	36 :	01000100;
	35 :	01010001;
	34 :	00000110;
	33 :	00010111;
	32 :	00011011;
	31 :	00001101;
	30 :	11110000;
	29 :	00011111;
	28 :	00010111;
	27 :	00010001;
	26 :	00010111;
	25 :	00000110;
	24 :	11111101;
	23 :	11011010;
	22 :	11000001;
	21 :	11001110;
	20 :	11010110;
	19 :	11110101;
	18 :	00000001;
	17 :	00010101;
	16 :	00001010;
	15 :	11110010;
	14 :	00011001;
	13 :	00010101;
	12 :	00101111;
	11 :	00100110;
	10 :	00001011;
	9 :	11111101;
	8 :	00000100;
	7 :	00000001;
	6 :	11111110;
	5 :	11111001;
	4 :	11011100;
	3 :	00000000;
	2 :	00000101;
	1 :	00000101;
	0 :	00001111;
END;
