-- begin_signature
-- layer2_weight_rom(CHANNEL_ID
-- 7)
-- end_signature
WIDTH=8;
DEPTH=150;

ADDRESS_RADIX=UNS;
DATA_RADIX=BIN;

CONTENT BEGIN
	149 :	11110000;
	148 :	11101010;
	147 :	11111010;
	146 :	00011001;
	145 :	11110001;
	144 :	11100110;
	143 :	11101100;
	142 :	11101011;
	141 :	11011111;
	140 :	10111000;
	139 :	11110110;
	138 :	11101001;
	137 :	11011100;
	136 :	11000010;
	135 :	11001001;
	134 :	11110111;
	133 :	11100110;
	132 :	11001011;
	131 :	10110101;
	130 :	11101010;
	129 :	00100100;
	128 :	00010011;
	127 :	11010110;
	126 :	11010111;
	125 :	00001101;
	124 :	11010010;
	123 :	11010101;
	122 :	11111001;
	121 :	11111111;
	120 :	00100000;
	119 :	11100111;
	118 :	11100101;
	117 :	00001111;
	116 :	00101111;
	115 :	00010001;
	114 :	11101111;
	113 :	00010010;
	112 :	00100011;
	111 :	00010101;
	110 :	11101100;
	109 :	11110011;
	108 :	00001111;
	107 :	11101001;
	106 :	11010111;
	105 :	11001011;
	104 :	11010010;
	103 :	11111010;
	102 :	00001100;
	101 :	11010011;
	100 :	10110101;
	99 :	11101001;
	98 :	11111001;
	97 :	11101011;
	96 :	11110101;
	95 :	00001101;
	94 :	11101111;
	93 :	00001010;
	92 :	00000111;
	91 :	00010011;
	90 :	00011110;
	89 :	00000010;
	88 :	11111110;
	87 :	00000110;
	86 :	00011001;
	85 :	11110100;
	84 :	00001011;
	83 :	00001001;
	82 :	11101000;
	81 :	11101001;
	80 :	11110010;
	79 :	11111011;
	78 :	11111001;
	77 :	11011011;
	76 :	11001000;
	75 :	11011101;
	74 :	11101010;
	73 :	00001111;
	72 :	11110011;
	71 :	00001011;
	70 :	11110111;
	69 :	11111100;
	68 :	00000000;
	67 :	00000010;
	66 :	00000001;
	65 :	00001011;
	64 :	00010011;
	63 :	11111000;
	62 :	11111110;
	61 :	00000110;
	60 :	00000000;
	59 :	00011111;
	58 :	00001011;
	57 :	11010110;
	56 :	11011011;
	55 :	11100111;
	54 :	00100000;
	53 :	11111010;
	52 :	11101110;
	51 :	11010000;
	50 :	11101000;
	49 :	00011010;
	48 :	00111100;
	47 :	01000001;
	46 :	11111110;
	45 :	11100010;
	44 :	01000110;
	43 :	00110110;
	42 :	11110101;
	41 :	00010000;
	40 :	00101000;
	39 :	00111000;
	38 :	11111110;
	37 :	00000110;
	36 :	00111011;
	35 :	00101111;
	34 :	00111011;
	33 :	00100100;
	32 :	00100111;
	31 :	00010101;
	30 :	11111001;
	29 :	11110000;
	28 :	00001110;
	27 :	11111001;
	26 :	11101000;
	25 :	11101110;
	24 :	00010101;
	23 :	00011111;
	22 :	00011110;
	21 :	00011110;
	20 :	00001001;
	19 :	00010010;
	18 :	00101101;
	17 :	00011001;
	16 :	11110111;
	15 :	11111100;
	14 :	00000010;
	13 :	11111010;
	12 :	11100011;
	11 :	11010011;
	10 :	11101111;
	9 :	11110001;
	8 :	11110000;
	7 :	11110000;
	6 :	11000010;
	5 :	11011011;
	4 :	00000000;
	3 :	00010011;
	2 :	11110110;
	1 :	11010010;
	0 :	11101100;
END;
