-- begin_signature
-- fc_weight_rom(NUM_WORDS
-- 10080
-- WEIGHT_FILE
-- "/home/bany/personal/fpga-dnn-accelerator/top/weights_generator/fc_weights/f6_weights_flattened.hex")
-- end_signature
WIDTH=8;
DEPTH=10080;

ADDRESS_RADIX=UNS;
DATA_RADIX=BIN;

CONTENT BEGIN
	10079 :	00011011;
	10078 :	00000010;
	10077 :	11111110;
	10076 :	00011111;
	10075 :	11110001;
	10074 :	00001000;
	10073 :	11110111;
	10072 :	11110000;
	10071 :	00010100;
	10070 :	11110100;
	10069 :	11110000;
	10068 :	11100101;
	10067 :	11111111;
	10066 :	00011101;
	10065 :	00100110;
	10064 :	11110001;
	10063 :	00001101;
	10062 :	00001100;
	10061 :	00100001;
	10060 :	00010101;
	10059 :	00011000;
	10058 :	00000110;
	10057 :	00010000;
	10056 :	00001110;
	10055 :	00010100;
	10054 :	00000110;
	10053 :	11111110;
	10052 :	11110000;
	10051 :	00000000;
	10050 :	11101110;
	10049 :	11110010;
	10048 :	11110011;
	10047 :	11101100;
	10046 :	00011000;
	10045 :	00001100;
	10044 :	11111000;
	10043 :	00011010;
	10042 :	00001101;
	10041 :	11110001;
	10040 :	00000010;
	10039 :	00000000;
	10038 :	00011000;
	10037 :	00010111;
	10036 :	00010001;
	10035 :	00010011;
	10034 :	00010111;
	10033 :	00011101;
	10032 :	11110011;
	10031 :	00000101;
	10030 :	11110001;
	10029 :	00101011;
	10028 :	00000011;
	10027 :	00000100;
	10026 :	11101001;
	10025 :	11111010;
	10024 :	00010000;
	10023 :	00010011;
	10022 :	00001010;
	10021 :	00000101;
	10020 :	00001100;
	10019 :	00100100;
	10018 :	00100000;
	10017 :	11111101;
	10016 :	11001111;
	10015 :	00000000;
	10014 :	00010010;
	10013 :	11111011;
	10012 :	00011111;
	10011 :	11110101;
	10010 :	00010110;
	10009 :	00010011;
	10008 :	11100110;
	10007 :	00000111;
	10006 :	00101011;
	10005 :	11111111;
	10004 :	11100101;
	10003 :	00001101;
	10002 :	00001100;
	10001 :	00010100;
	10000 :	11111110;
	9999 :	11111010;
	9998 :	11110111;
	9997 :	11111000;
	9996 :	00011001;
	9995 :	00100100;
	9994 :	00001110;
	9993 :	00011010;
	9992 :	11110001;
	9991 :	11011010;
	9990 :	11101010;
	9989 :	11101110;
	9988 :	00000110;
	9987 :	11110100;
	9986 :	11011001;
	9985 :	11101000;
	9984 :	00000101;
	9983 :	11110000;
	9982 :	00000000;
	9981 :	11111000;
	9980 :	00010011;
	9979 :	11110110;
	9978 :	00011101;
	9977 :	11100011;
	9976 :	00001000;
	9975 :	11011010;
	9974 :	00001000;
	9973 :	11111101;
	9972 :	11101000;
	9971 :	00010000;
	9970 :	00010010;
	9969 :	00011111;
	9968 :	11111110;
	9967 :	00010101;
	9966 :	11111011;
	9965 :	11111110;
	9964 :	00100100;
	9963 :	00000000;
	9962 :	00000000;
	9961 :	11100110;
	9960 :	11110001;
	9959 :	11110101;
	9958 :	11110100;
	9957 :	00000000;
	9956 :	00011100;
	9955 :	11100001;
	9954 :	00010100;
	9953 :	11101111;
	9952 :	00100011;
	9951 :	00010100;
	9950 :	00110000;
	9949 :	11111100;
	9948 :	11011000;
	9947 :	11111011;
	9946 :	11011010;
	9945 :	00000010;
	9944 :	11111000;
	9943 :	00100011;
	9942 :	11111001;
	9941 :	11110110;
	9940 :	00011010;
	9939 :	11101101;
	9938 :	00011011;
	9937 :	00000000;
	9936 :	11110000;
	9935 :	11100101;
	9934 :	00000011;
	9933 :	00000110;
	9932 :	11100001;
	9931 :	00000000;
	9930 :	11111100;
	9929 :	00000111;
	9928 :	00010000;
	9927 :	00001110;
	9926 :	00100100;
	9925 :	11111011;
	9924 :	11100011;
	9923 :	11110001;
	9922 :	11111011;
	9921 :	00001011;
	9920 :	00001000;
	9919 :	11101100;
	9918 :	11111111;
	9917 :	00100010;
	9916 :	00000011;
	9915 :	11100101;
	9914 :	11101110;
	9913 :	11110111;
	9912 :	11101001;
	9911 :	11101100;
	9910 :	00011011;
	9909 :	11011101;
	9908 :	11110010;
	9907 :	00000100;
	9906 :	00101101;
	9905 :	00010110;
	9904 :	00010010;
	9903 :	11011110;
	9902 :	00001000;
	9901 :	11111111;
	9900 :	00000011;
	9899 :	00010111;
	9898 :	11110011;
	9897 :	11100111;
	9896 :	11101110;
	9895 :	00001001;
	9894 :	11110010;
	9893 :	11110010;
	9892 :	11111100;
	9891 :	11100000;
	9890 :	00000000;
	9889 :	00001010;
	9888 :	00100111;
	9887 :	00100001;
	9886 :	11101010;
	9885 :	11001000;
	9884 :	00011010;
	9883 :	11101100;
	9882 :	11101110;
	9881 :	00010001;
	9880 :	11111100;
	9879 :	00000101;
	9878 :	00000111;
	9877 :	11111100;
	9876 :	00000001;
	9875 :	00000010;
	9874 :	11111101;
	9873 :	00000000;
	9872 :	11101110;
	9871 :	00011011;
	9870 :	00101001;
	9869 :	11111100;
	9868 :	00010111;
	9867 :	00011101;
	9866 :	00100110;
	9865 :	00101010;
	9864 :	00000010;
	9863 :	11100111;
	9862 :	11010111;
	9861 :	00001000;
	9860 :	00011100;
	9859 :	11111111;
	9858 :	00011011;
	9857 :	11110000;
	9856 :	00010100;
	9855 :	00001101;
	9854 :	00000010;
	9853 :	00010001;
	9852 :	00000101;
	9851 :	00000000;
	9850 :	11011000;
	9849 :	00000011;
	9848 :	00010010;
	9847 :	00000000;
	9846 :	11111111;
	9845 :	00010011;
	9844 :	11100101;
	9843 :	00000111;
	9842 :	00100010;
	9841 :	00010001;
	9840 :	00010011;
	9839 :	11111101;
	9838 :	00001101;
	9837 :	11111001;
	9836 :	00000111;
	9835 :	00011000;
	9834 :	11101010;
	9833 :	11110111;
	9832 :	00001000;
	9831 :	00000111;
	9830 :	00101011;
	9829 :	11111000;
	9828 :	00000000;
	9827 :	00010001;
	9826 :	11100101;
	9825 :	11101010;
	9824 :	11110001;
	9823 :	00010110;
	9822 :	00010001;
	9821 :	00000000;
	9820 :	00011100;
	9819 :	11111111;
	9818 :	11110100;
	9817 :	00010101;
	9816 :	00010111;
	9815 :	11010101;
	9814 :	00000101;
	9813 :	11110101;
	9812 :	00101010;
	9811 :	00011110;
	9810 :	00000100;
	9809 :	00010001;
	9808 :	00001001;
	9807 :	11101000;
	9806 :	11101110;
	9805 :	00001011;
	9804 :	00011011;
	9803 :	00001011;
	9802 :	11110011;
	9801 :	00001010;
	9800 :	00010100;
	9799 :	11110011;
	9798 :	11100010;
	9797 :	00010010;
	9796 :	11101100;
	9795 :	11010001;
	9794 :	00010001;
	9793 :	00010011;
	9792 :	11111111;
	9791 :	00000101;
	9790 :	00000110;
	9789 :	11110000;
	9788 :	11111100;
	9787 :	00000000;
	9786 :	00110101;
	9785 :	00011011;
	9784 :	11111001;
	9783 :	11011110;
	9782 :	11111010;
	9781 :	00000000;
	9780 :	00000000;
	9779 :	00010101;
	9778 :	11101101;
	9777 :	11111100;
	9776 :	00110001;
	9775 :	00000101;
	9774 :	00011000;
	9773 :	00001100;
	9772 :	11011001;
	9771 :	11110101;
	9770 :	11101000;
	9769 :	00010000;
	9768 :	00100001;
	9767 :	11101110;
	9766 :	00010101;
	9765 :	00010011;
	9764 :	00001011;
	9763 :	11111100;
	9762 :	11101001;
	9761 :	11111110;
	9760 :	11110110;
	9759 :	11101010;
	9758 :	11111011;
	9757 :	00010111;
	9756 :	00001001;
	9755 :	00010110;
	9754 :	00010000;
	9753 :	11111100;
	9752 :	11100100;
	9751 :	00101100;
	9750 :	00010010;
	9749 :	11110011;
	9748 :	00010000;
	9747 :	00011100;
	9746 :	11101001;
	9745 :	11111010;
	9744 :	00000001;
	9743 :	00000001;
	9742 :	11110001;
	9741 :	11110101;
	9740 :	11111010;
	9739 :	00000000;
	9738 :	11111000;
	9737 :	11101011;
	9736 :	00001000;
	9735 :	00100001;
	9734 :	11110100;
	9733 :	11111011;
	9732 :	11101010;
	9731 :	00001101;
	9730 :	00010010;
	9729 :	11100000;
	9728 :	11111010;
	9727 :	00011001;
	9726 :	00001000;
	9725 :	11110000;
	9724 :	00000111;
	9723 :	11111101;
	9722 :	11100101;
	9721 :	11111000;
	9720 :	00000100;
	9719 :	00011101;
	9718 :	11110100;
	9717 :	00000100;
	9716 :	00001000;
	9715 :	11111101;
	9714 :	00010110;
	9713 :	11110101;
	9712 :	11011010;
	9711 :	11110001;
	9710 :	11101001;
	9709 :	00010000;
	9708 :	00100110;
	9707 :	00100101;
	9706 :	00011011;
	9705 :	00111111;
	9704 :	00001000;
	9703 :	11101101;
	9702 :	00001100;
	9701 :	00001011;
	9700 :	11110101;
	9699 :	00101001;
	9698 :	00010011;
	9697 :	11111101;
	9696 :	00100001;
	9695 :	11111111;
	9694 :	00001110;
	9693 :	00001111;
	9692 :	00010001;
	9691 :	00000011;
	9690 :	11110011;
	9689 :	11101010;
	9688 :	00001011;
	9687 :	00010111;
	9686 :	11100010;
	9685 :	00100101;
	9684 :	00010101;
	9683 :	00001111;
	9682 :	00001000;
	9681 :	11101111;
	9680 :	11110011;
	9679 :	00000000;
	9678 :	00001011;
	9677 :	00000100;
	9676 :	00010010;
	9675 :	00011000;
	9674 :	00010110;
	9673 :	00011011;
	9672 :	00100001;
	9671 :	00001100;
	9670 :	11101011;
	9669 :	00100001;
	9668 :	11110001;
	9667 :	11111010;
	9666 :	11111110;
	9665 :	00000011;
	9664 :	00001011;
	9663 :	00000110;
	9662 :	11110111;
	9661 :	00000100;
	9660 :	00001011;
	9659 :	00001100;
	9658 :	00010000;
	9657 :	00010000;
	9656 :	00010011;
	9655 :	00000111;
	9654 :	00001011;
	9653 :	11110110;
	9652 :	00100110;
	9651 :	00010111;
	9650 :	11111111;
	9649 :	00100111;
	9648 :	11110010;
	9647 :	11100110;
	9646 :	01000001;
	9645 :	11111111;
	9644 :	00010011;
	9643 :	00101011;
	9642 :	11111101;
	9641 :	00000001;
	9640 :	00000000;
	9639 :	00100000;
	9638 :	11111000;
	9637 :	11101101;
	9636 :	00000000;
	9635 :	00010110;
	9634 :	00010101;
	9633 :	11111001;
	9632 :	00001100;
	9631 :	11101001;
	9630 :	11101010;
	9629 :	00010100;
	9628 :	11100110;
	9627 :	11100011;
	9626 :	11110010;
	9625 :	11100110;
	9624 :	00010001;
	9623 :	00000111;
	9622 :	00101101;
	9621 :	00000000;
	9620 :	11100110;
	9619 :	00000000;
	9618 :	11111000;
	9617 :	00000100;
	9616 :	00000000;
	9615 :	11110001;
	9614 :	00001001;
	9613 :	00000110;
	9612 :	11111101;
	9611 :	11110111;
	9610 :	00100110;
	9609 :	00001000;
	9608 :	11100111;
	9607 :	00000000;
	9606 :	11110001;
	9605 :	11011110;
	9604 :	00101000;
	9603 :	00001000;
	9602 :	11101010;
	9601 :	11111100;
	9600 :	00000001;
	9599 :	00000100;
	9598 :	11011110;
	9597 :	11110010;
	9596 :	00000000;
	9595 :	11001101;
	9594 :	11111111;
	9593 :	00000010;
	9592 :	00011001;
	9591 :	00001001;
	9590 :	11110101;
	9589 :	11111110;
	9588 :	00000010;
	9587 :	11110000;
	9586 :	00010000;
	9585 :	11111001;
	9584 :	00000110;
	9583 :	00110111;
	9582 :	11110111;
	9581 :	00010101;
	9580 :	00000110;
	9579 :	11001110;
	9578 :	00110011;
	9577 :	11111101;
	9576 :	11101101;
	9575 :	11111010;
	9574 :	00000000;
	9573 :	11111001;
	9572 :	11010001;
	9571 :	11011100;
	9570 :	00000010;
	9569 :	00010010;
	9568 :	00010001;
	9567 :	11110010;
	9566 :	00011010;
	9565 :	11110111;
	9564 :	11101001;
	9563 :	00000111;
	9562 :	00001110;
	9561 :	11111100;
	9560 :	11101100;
	9559 :	11110101;
	9558 :	00010101;
	9557 :	11111111;
	9556 :	11010101;
	9555 :	00010001;
	9554 :	00001100;
	9553 :	00010000;
	9552 :	11110111;
	9551 :	00010101;
	9550 :	00011010;
	9549 :	11100101;
	9548 :	00010110;
	9547 :	00011001;
	9546 :	00110001;
	9545 :	11101000;
	9544 :	11101111;
	9543 :	11110010;
	9542 :	11101100;
	9541 :	00001100;
	9540 :	11110000;
	9539 :	11110010;
	9538 :	11110010;
	9537 :	00001010;
	9536 :	11111011;
	9535 :	11111010;
	9534 :	00100111;
	9533 :	00000111;
	9532 :	00011011;
	9531 :	11111101;
	9530 :	11011011;
	9529 :	11110100;
	9528 :	00100001;
	9527 :	00000010;
	9526 :	00011111;
	9525 :	11011011;
	9524 :	01010011;
	9523 :	11011001;
	9522 :	11110010;
	9521 :	11110101;
	9520 :	00001011;
	9519 :	11110000;
	9518 :	11111000;
	9517 :	00001100;
	9516 :	11011000;
	9515 :	11010101;
	9514 :	00010011;
	9513 :	00100011;
	9512 :	11111000;
	9511 :	11111111;
	9510 :	00001101;
	9509 :	00000011;
	9508 :	00001111;
	9507 :	00100100;
	9506 :	11111101;
	9505 :	11110011;
	9504 :	11110010;
	9503 :	11100001;
	9502 :	11111110;
	9501 :	00000100;
	9500 :	00100001;
	9499 :	11011100;
	9498 :	11111010;
	9497 :	11010011;
	9496 :	00010011;
	9495 :	00001001;
	9494 :	11110101;
	9493 :	00100010;
	9492 :	11111010;
	9491 :	00000010;
	9490 :	11010001;
	9489 :	00010100;
	9488 :	11110011;
	9487 :	11011110;
	9486 :	11111011;
	9485 :	11110010;
	9484 :	11110101;
	9483 :	00010101;
	9482 :	00010001;
	9481 :	11110010;
	9480 :	00011101;
	9479 :	00001010;
	9478 :	11100000;
	9477 :	00011001;
	9476 :	00011110;
	9475 :	11101011;
	9474 :	00001100;
	9473 :	00000010;
	9472 :	11111000;
	9471 :	11110010;
	9470 :	11101100;
	9469 :	11110010;
	9468 :	11111001;
	9467 :	11001101;
	9466 :	00000100;
	9465 :	01000001;
	9464 :	00010100;
	9463 :	00011000;
	9462 :	00001011;
	9461 :	11111010;
	9460 :	00100100;
	9459 :	11100110;
	9458 :	11110011;
	9457 :	11100011;
	9456 :	11001100;
	9455 :	00010010;
	9454 :	11111010;
	9453 :	00001010;
	9452 :	11000101;
	9451 :	11110000;
	9450 :	00001011;
	9449 :	00001100;
	9448 :	00010100;
	9447 :	11110011;
	9446 :	00100001;
	9445 :	11110110;
	9444 :	11100110;
	9443 :	00010001;
	9442 :	11110011;
	9441 :	00001001;
	9440 :	00000101;
	9439 :	11111001;
	9438 :	00100000;
	9437 :	00011010;
	9436 :	11100011;
	9435 :	00100010;
	9434 :	11111101;
	9433 :	00011001;
	9432 :	00000001;
	9431 :	11101111;
	9430 :	00101001;
	9429 :	11110010;
	9428 :	11111101;
	9427 :	00000010;
	9426 :	00011000;
	9425 :	00001110;
	9424 :	00011001;
	9423 :	11110001;
	9422 :	11111110;
	9421 :	11101110;
	9420 :	00001100;
	9419 :	11111011;
	9418 :	00100110;
	9417 :	00000011;
	9416 :	11111101;
	9415 :	11111101;
	9414 :	00010100;
	9413 :	11100111;
	9412 :	00100101;
	9411 :	00000111;
	9410 :	11110001;
	9409 :	00000101;
	9408 :	00000010;
	9407 :	00001010;
	9406 :	00010100;
	9405 :	11001111;
	9404 :	00000111;
	9403 :	11101110;
	9402 :	00010110;
	9401 :	11101010;
	9400 :	00010111;
	9399 :	11101011;
	9398 :	00001011;
	9397 :	11110001;
	9396 :	00010101;
	9395 :	11100000;
	9394 :	00010101;
	9393 :	00001011;
	9392 :	00011111;
	9391 :	00100011;
	9390 :	11110010;
	9389 :	11111000;
	9388 :	00000001;
	9387 :	00001111;
	9386 :	00100110;
	9385 :	00100100;
	9384 :	11110001;
	9383 :	00100100;
	9382 :	11101101;
	9381 :	00010011;
	9380 :	00001101;
	9379 :	00011110;
	9378 :	11111100;
	9377 :	11011000;
	9376 :	00000010;
	9375 :	00011010;
	9374 :	11111010;
	9373 :	00000100;
	9372 :	00010011;
	9371 :	11111111;
	9370 :	11001001;
	9369 :	11100000;
	9368 :	00000000;
	9367 :	11111111;
	9366 :	00010101;
	9365 :	00000010;
	9364 :	11101011;
	9363 :	00010100;
	9362 :	00001010;
	9361 :	11110111;
	9360 :	00011000;
	9359 :	11111101;
	9358 :	11101101;
	9357 :	11100111;
	9356 :	11101111;
	9355 :	00000011;
	9354 :	00001111;
	9353 :	11101001;
	9352 :	11111101;
	9351 :	11110111;
	9350 :	11111000;
	9349 :	11101110;
	9348 :	11110010;
	9347 :	11111001;
	9346 :	11100001;
	9345 :	11111010;
	9344 :	11101011;
	9343 :	11111101;
	9342 :	11111010;
	9341 :	00000000;
	9340 :	11110110;
	9339 :	00010000;
	9338 :	11110000;
	9337 :	11110000;
	9336 :	11110110;
	9335 :	00001011;
	9334 :	11101111;
	9333 :	11110100;
	9332 :	00000111;
	9331 :	11110100;
	9330 :	00000110;
	9329 :	11110010;
	9328 :	11111111;
	9327 :	11100101;
	9326 :	00001010;
	9325 :	11111101;
	9324 :	11100000;
	9323 :	00001101;
	9322 :	00010100;
	9321 :	00000111;
	9320 :	11110111;
	9319 :	00000100;
	9318 :	11111011;
	9317 :	00001001;
	9316 :	11100010;
	9315 :	00000001;
	9314 :	00001101;
	9313 :	11100110;
	9312 :	11100101;
	9311 :	00000000;
	9310 :	00001111;
	9309 :	00001001;
	9308 :	11111100;
	9307 :	11100101;
	9306 :	11111011;
	9305 :	11111001;
	9304 :	11111110;
	9303 :	00000010;
	9302 :	11110010;
	9301 :	00000000;
	9300 :	00000101;
	9299 :	11100110;
	9298 :	11110111;
	9297 :	11110110;
	9296 :	11111000;
	9295 :	00001101;
	9294 :	11110100;
	9293 :	11111101;
	9292 :	11100101;
	9291 :	11110000;
	9290 :	11111011;
	9289 :	00001110;
	9288 :	11101001;
	9287 :	00001000;
	9286 :	11111000;
	9285 :	11110001;
	9284 :	00010101;
	9283 :	11011111;
	9282 :	11110110;
	9281 :	11101110;
	9280 :	00000010;
	9279 :	11101100;
	9278 :	00000001;
	9277 :	00000001;
	9276 :	11101111;
	9275 :	00010001;
	9274 :	11111100;
	9273 :	11111111;
	9272 :	11110111;
	9271 :	00000001;
	9270 :	11110001;
	9269 :	00000000;
	9268 :	11111011;
	9267 :	00001001;
	9266 :	00000010;
	9265 :	11100101;
	9264 :	00000000;
	9263 :	11110011;
	9262 :	11110100;
	9261 :	11110011;
	9260 :	11101111;
	9259 :	00000101;
	9258 :	11111010;
	9257 :	00000001;
	9256 :	11101000;
	9255 :	00000000;
	9254 :	11111100;
	9253 :	00001100;
	9252 :	11111100;
	9251 :	00000100;
	9250 :	11111100;
	9249 :	11011101;
	9248 :	11101000;
	9247 :	00000101;
	9246 :	11111010;
	9245 :	00000000;
	9244 :	11110000;
	9243 :	11111001;
	9242 :	11100110;
	9241 :	00001001;
	9240 :	00000011;
	9239 :	11111100;
	9238 :	00001110;
	9237 :	00001101;
	9236 :	00000001;
	9235 :	00001100;
	9234 :	11010001;
	9233 :	00010010;
	9232 :	00000000;
	9231 :	00010001;
	9230 :	11111111;
	9229 :	11111010;
	9228 :	11011111;
	9227 :	11100101;
	9226 :	00000001;
	9225 :	11000100;
	9224 :	00000011;
	9223 :	00000110;
	9222 :	11111110;
	9221 :	00001111;
	9220 :	11101110;
	9219 :	00010001;
	9218 :	11101010;
	9217 :	11110100;
	9216 :	00010000;
	9215 :	11101000;
	9214 :	11111111;
	9213 :	00010100;
	9212 :	00010100;
	9211 :	00000111;
	9210 :	11101110;
	9209 :	11111001;
	9208 :	11101010;
	9207 :	00010001;
	9206 :	00000010;
	9205 :	11100100;
	9204 :	00101100;
	9203 :	00001011;
	9202 :	00000101;
	9201 :	00010011;
	9200 :	00001111;
	9199 :	00010111;
	9198 :	11101011;
	9197 :	00000110;
	9196 :	00000000;
	9195 :	00000000;
	9194 :	00000001;
	9193 :	11011010;
	9192 :	00001110;
	9191 :	00001100;
	9190 :	11111011;
	9189 :	11111000;
	9188 :	11110100;
	9187 :	10110011;
	9186 :	11011011;
	9185 :	00000110;
	9184 :	11110010;
	9183 :	00101000;
	9182 :	11110011;
	9181 :	11111100;
	9180 :	11110011;
	9179 :	11111011;
	9178 :	00000000;
	9177 :	00010100;
	9176 :	11111100;
	9175 :	11110000;
	9174 :	11100001;
	9173 :	00000101;
	9172 :	11111100;
	9171 :	00100000;
	9170 :	11111011;
	9169 :	00000100;
	9168 :	00010110;
	9167 :	00001011;
	9166 :	11100001;
	9165 :	11111000;
	9164 :	11100100;
	9163 :	11111011;
	9162 :	11111001;
	9161 :	00010101;
	9160 :	00000100;
	9159 :	11100100;
	9158 :	00001101;
	9157 :	11101001;
	9156 :	00001011;
	9155 :	00010001;
	9154 :	11111110;
	9153 :	11101111;
	9152 :	00010011;
	9151 :	11100001;
	9150 :	11011101;
	9149 :	00001001;
	9148 :	00001111;
	9147 :	00000001;
	9146 :	11100111;
	9145 :	00101001;
	9144 :	00011000;
	9143 :	00001110;
	9142 :	00100001;
	9141 :	11101000;
	9140 :	00001101;
	9139 :	11010001;
	9138 :	00011000;
	9137 :	00100110;
	9136 :	00010011;
	9135 :	00000110;
	9134 :	00000110;
	9133 :	00000000;
	9132 :	00010010;
	9131 :	00001000;
	9130 :	11110110;
	9129 :	00000000;
	9128 :	00001100;
	9127 :	11111010;
	9126 :	00010001;
	9125 :	00000001;
	9124 :	00000111;
	9123 :	11101110;
	9122 :	11111110;
	9121 :	00010001;
	9120 :	00010101;
	9119 :	00001001;
	9118 :	11110101;
	9117 :	11110111;
	9116 :	00100010;
	9115 :	11111000;
	9114 :	11110011;
	9113 :	11110100;
	9112 :	11101110;
	9111 :	11011010;
	9110 :	11111010;
	9109 :	00101110;
	9108 :	11010000;
	9107 :	11111100;
	9106 :	00001000;
	9105 :	00000000;
	9104 :	11111111;
	9103 :	11110001;
	9102 :	00000000;
	9101 :	00011001;
	9100 :	11110101;
	9099 :	00001000;
	9098 :	11101010;
	9097 :	11110100;
	9096 :	11101111;
	9095 :	11111010;
	9094 :	11110100;
	9093 :	00101101;
	9092 :	11111011;
	9091 :	11100100;
	9090 :	00000001;
	9089 :	11111010;
	9088 :	00001111;
	9087 :	00000011;
	9086 :	00001100;
	9085 :	11111100;
	9084 :	11100111;
	9083 :	11110100;
	9082 :	00001001;
	9081 :	00001000;
	9080 :	00100011;
	9079 :	11111011;
	9078 :	00011100;
	9077 :	00001000;
	9076 :	00010010;
	9075 :	00011110;
	9074 :	00001101;
	9073 :	00011101;
	9072 :	00001011;
	9071 :	11010110;
	9070 :	11100101;
	9069 :	11110011;
	9068 :	00000110;
	9067 :	11110000;
	9066 :	11010001;
	9065 :	11110111;
	9064 :	11101110;
	9063 :	00100101;
	9062 :	00000000;
	9061 :	11111110;
	9060 :	11110010;
	9059 :	00010110;
	9058 :	11111000;
	9057 :	11100111;
	9056 :	11010100;
	9055 :	11110111;
	9054 :	11110011;
	9053 :	00001011;
	9052 :	00100100;
	9051 :	00000110;
	9050 :	00000010;
	9049 :	11110110;
	9048 :	11111100;
	9047 :	00011111;
	9046 :	11101001;
	9045 :	00000010;
	9044 :	10110110;
	9043 :	11111111;
	9042 :	00000000;
	9041 :	00001111;
	9040 :	00000011;
	9039 :	11101111;
	9038 :	00001110;
	9037 :	11110011;
	9036 :	00011011;
	9035 :	00011001;
	9034 :	00001010;
	9033 :	11110010;
	9032 :	11111011;
	9031 :	11110000;
	9030 :	11010101;
	9029 :	00001000;
	9028 :	00001100;
	9027 :	11111011;
	9026 :	11110101;
	9025 :	00100100;
	9024 :	11111000;
	9023 :	00100011;
	9022 :	11111111;
	9021 :	11110000;
	9020 :	00011000;
	9019 :	00000110;
	9018 :	00100101;
	9017 :	11101111;
	9016 :	11110011;
	9015 :	00100010;
	9014 :	11111100;
	9013 :	00000010;
	9012 :	00001001;
	9011 :	00001011;
	9010 :	11111001;
	9009 :	00010011;
	9008 :	00010100;
	9007 :	00011001;
	9006 :	11101101;
	9005 :	00010100;
	9004 :	00000011;
	9003 :	00001011;
	9002 :	00000100;
	9001 :	11011110;
	9000 :	00011110;
	8999 :	11110000;
	8998 :	11111010;
	8997 :	00001111;
	8996 :	00001010;
	8995 :	00010100;
	8994 :	11111001;
	8993 :	00010010;
	8992 :	11101101;
	8991 :	00000000;
	8990 :	11101100;
	8989 :	11101011;
	8988 :	11100111;
	8987 :	11110111;
	8986 :	00000110;
	8985 :	00010100;
	8984 :	00000000;
	8983 :	00000011;
	8982 :	11101011;
	8981 :	11100101;
	8980 :	11110101;
	8979 :	11101000;
	8978 :	11101111;
	8977 :	11111011;
	8976 :	00000001;
	8975 :	11110100;
	8974 :	11101111;
	8973 :	00001110;
	8972 :	11101100;
	8971 :	00001100;
	8970 :	11101100;
	8969 :	11110100;
	8968 :	00000001;
	8967 :	11101001;
	8966 :	11111100;
	8965 :	11101000;
	8964 :	11101000;
	8963 :	11110001;
	8962 :	00000010;
	8961 :	00000000;
	8960 :	11111001;
	8959 :	11110100;
	8958 :	11111000;
	8957 :	11111110;
	8956 :	11111010;
	8955 :	11111000;
	8954 :	00010011;
	8953 :	11101100;
	8952 :	11110101;
	8951 :	11110000;
	8950 :	11110000;
	8949 :	11111101;
	8948 :	00010000;
	8947 :	11111010;
	8946 :	00001101;
	8945 :	00000010;
	8944 :	00001010;
	8943 :	11111110;
	8942 :	11111011;
	8941 :	00001000;
	8940 :	00000111;
	8939 :	00001111;
	8938 :	00001110;
	8937 :	00001110;
	8936 :	11100101;
	8935 :	11101100;
	8934 :	11101010;
	8933 :	11110111;
	8932 :	11101011;
	8931 :	00000000;
	8930 :	00000111;
	8929 :	11101100;
	8928 :	00000000;
	8927 :	11101000;
	8926 :	11110010;
	8925 :	00001011;
	8924 :	00001000;
	8923 :	00000000;
	8922 :	11101111;
	8921 :	11101110;
	8920 :	00001001;
	8919 :	00010101;
	8918 :	11101000;
	8917 :	11110100;
	8916 :	00001001;
	8915 :	11110010;
	8914 :	11110010;
	8913 :	11111010;
	8912 :	11100110;
	8911 :	11110000;
	8910 :	11111110;
	8909 :	00000101;
	8908 :	11111101;
	8907 :	00001100;
	8906 :	00000101;
	8905 :	11101101;
	8904 :	11111001;
	8903 :	00000000;
	8902 :	11100111;
	8901 :	00000010;
	8900 :	00000110;
	8899 :	00000010;
	8898 :	11100111;
	8897 :	00000110;
	8896 :	11111111;
	8895 :	00001110;
	8894 :	00001111;
	8893 :	00001101;
	8892 :	00000001;
	8891 :	11111000;
	8890 :	11110010;
	8889 :	00000101;
	8888 :	00000100;
	8887 :	11111010;
	8886 :	11110001;
	8885 :	11110101;
	8884 :	11101011;
	8883 :	11111111;
	8882 :	11101001;
	8881 :	11110110;
	8880 :	00000000;
	8879 :	00000010;
	8878 :	00011010;
	8877 :	11111110;
	8876 :	11011001;
	8875 :	00100101;
	8874 :	00101010;
	8873 :	00000110;
	8872 :	00010101;
	8871 :	11110100;
	8870 :	11101001;
	8869 :	00001000;
	8868 :	00001011;
	8867 :	00100101;
	8866 :	00010000;
	8865 :	11001101;
	8864 :	00000100;
	8863 :	11110010;
	8862 :	00000000;
	8861 :	00000100;
	8860 :	00000111;
	8859 :	11100001;
	8858 :	00000011;
	8857 :	00001111;
	8856 :	11110111;
	8855 :	00011010;
	8854 :	11111101;
	8853 :	11011110;
	8852 :	11111101;
	8851 :	11100111;
	8850 :	00001101;
	8849 :	00000100;
	8848 :	00100101;
	8847 :	11111001;
	8846 :	00000101;
	8845 :	00100110;
	8844 :	00010111;
	8843 :	00010000;
	8842 :	00000101;
	8841 :	11111110;
	8840 :	00011001;
	8839 :	11101111;
	8838 :	00000000;
	8837 :	11110110;
	8836 :	11111111;
	8835 :	00100001;
	8834 :	00010000;
	8833 :	11101010;
	8832 :	00011001;
	8831 :	00000110;
	8830 :	00111000;
	8829 :	00001000;
	8828 :	00010110;
	8827 :	00001111;
	8826 :	00010001;
	8825 :	11111100;
	8824 :	00000100;
	8823 :	11111010;
	8822 :	00001101;
	8821 :	00010001;
	8820 :	11111010;
	8819 :	11100001;
	8818 :	11101101;
	8817 :	11111000;
	8816 :	00011001;
	8815 :	11101111;
	8814 :	00010111;
	8813 :	11110001;
	8812 :	00000010;
	8811 :	00100001;
	8810 :	00001101;
	8809 :	11001000;
	8808 :	00010111;
	8807 :	11111011;
	8806 :	11111100;
	8805 :	00010010;
	8804 :	00101011;
	8803 :	00001000;
	8802 :	00000100;
	8801 :	11101001;
	8800 :	11110101;
	8799 :	11111000;
	8798 :	00011011;
	8797 :	00011010;
	8796 :	00000010;
	8795 :	11100110;
	8794 :	00000100;
	8793 :	00011110;
	8792 :	00100110;
	8791 :	11111111;
	8790 :	00010111;
	8789 :	00001001;
	8788 :	00011000;
	8787 :	00001001;
	8786 :	00110001;
	8785 :	11100011;
	8784 :	11110100;
	8783 :	11101100;
	8782 :	00010000;
	8781 :	00001011;
	8780 :	00000110;
	8779 :	00011110;
	8778 :	00010001;
	8777 :	11110110;
	8776 :	00011110;
	8775 :	00001101;
	8774 :	11101100;
	8773 :	00010101;
	8772 :	00000101;
	8771 :	00010001;
	8770 :	11111111;
	8769 :	11101001;
	8768 :	00011100;
	8767 :	11010101;
	8766 :	00000101;
	8765 :	00011010;
	8764 :	11111011;
	8763 :	11110100;
	8762 :	11110100;
	8761 :	11111110;
	8760 :	11110011;
	8759 :	00000010;
	8758 :	11101001;
	8757 :	00010001;
	8756 :	11101000;
	8755 :	11101011;
	8754 :	11101101;
	8753 :	11110001;
	8752 :	11101000;
	8751 :	00001100;
	8750 :	11110000;
	8749 :	11110100;
	8748 :	11100100;
	8747 :	11110000;
	8746 :	00010000;
	8745 :	00001111;
	8744 :	00001101;
	8743 :	00001011;
	8742 :	00001101;
	8741 :	11110100;
	8740 :	11110100;
	8739 :	00000000;
	8738 :	11110000;
	8737 :	00000101;
	8736 :	11110111;
	8735 :	11110011;
	8734 :	11111001;
	8733 :	11101101;
	8732 :	00001000;
	8731 :	11110010;
	8730 :	00001100;
	8729 :	11101101;
	8728 :	00000100;
	8727 :	11101100;
	8726 :	11110000;
	8725 :	00000111;
	8724 :	00001000;
	8723 :	11111001;
	8722 :	11101110;
	8721 :	11110110;
	8720 :	11101001;
	8719 :	11101101;
	8718 :	11111010;
	8717 :	00000011;
	8716 :	11101110;
	8715 :	00001111;
	8714 :	00001101;
	8713 :	11110011;
	8712 :	11111011;
	8711 :	11110101;
	8710 :	00001011;
	8709 :	11100110;
	8708 :	00001001;
	8707 :	11110011;
	8706 :	00001100;
	8705 :	11101111;
	8704 :	11111111;
	8703 :	11110100;
	8702 :	00000101;
	8701 :	00000100;
	8700 :	11111111;
	8699 :	11110011;
	8698 :	00001110;
	8697 :	00001011;
	8696 :	11111101;
	8695 :	00001111;
	8694 :	00010001;
	8693 :	00010011;
	8692 :	11101000;
	8691 :	11110001;
	8690 :	11101000;
	8689 :	11101101;
	8688 :	11111111;
	8687 :	00001000;
	8686 :	11111000;
	8685 :	11111001;
	8684 :	00001100;
	8683 :	11111111;
	8682 :	11111011;
	8681 :	11101110;
	8680 :	11101001;
	8679 :	11110011;
	8678 :	00000111;
	8677 :	00000101;
	8676 :	00010000;
	8675 :	11111001;
	8674 :	00001010;
	8673 :	00001000;
	8672 :	00000110;
	8671 :	00000011;
	8670 :	11100100;
	8669 :	00001110;
	8668 :	00000001;
	8667 :	00001100;
	8666 :	11100111;
	8665 :	11110010;
	8664 :	00010101;
	8663 :	11100110;
	8662 :	11110101;
	8661 :	11111001;
	8660 :	11101000;
	8659 :	00001110;
	8658 :	11111111;
	8657 :	11101111;
	8656 :	00000000;
	8655 :	00001000;
	8654 :	11101101;
	8653 :	11111110;
	8652 :	11111001;
	8651 :	00010100;
	8650 :	11101100;
	8649 :	00000101;
	8648 :	11101101;
	8647 :	00001011;
	8646 :	00000010;
	8645 :	00001000;
	8644 :	11101001;
	8643 :	11110100;
	8642 :	00001000;
	8641 :	11111010;
	8640 :	11110010;
	8639 :	11111010;
	8638 :	11110111;
	8637 :	11101110;
	8636 :	11110001;
	8635 :	00001011;
	8634 :	00000100;
	8633 :	00010011;
	8632 :	11110101;
	8631 :	00011000;
	8630 :	11100010;
	8629 :	11110110;
	8628 :	00010001;
	8627 :	11100010;
	8626 :	11110111;
	8625 :	11110110;
	8624 :	00000000;
	8623 :	00101010;
	8622 :	11110101;
	8621 :	11111000;
	8620 :	11111110;
	8619 :	00011100;
	8618 :	00110010;
	8617 :	00000110;
	8616 :	11111011;
	8615 :	00001000;
	8614 :	00000010;
	8613 :	00010011;
	8612 :	11100001;
	8611 :	00011100;
	8610 :	11110011;
	8609 :	00010011;
	8608 :	11111001;
	8607 :	11110001;
	8606 :	11101110;
	8605 :	00011100;
	8604 :	11100111;
	8603 :	00010100;
	8602 :	11111101;
	8601 :	00001101;
	8600 :	11100111;
	8599 :	11110010;
	8598 :	11011000;
	8597 :	00000000;
	8596 :	11100110;
	8595 :	00000111;
	8594 :	11110101;
	8593 :	00000100;
	8592 :	00011011;
	8591 :	00011001;
	8590 :	11111111;
	8589 :	00011111;
	8588 :	00000010;
	8587 :	11100010;
	8586 :	00000001;
	8585 :	00000000;
	8584 :	00001100;
	8583 :	00001101;
	8582 :	00000010;
	8581 :	11111001;
	8580 :	11111111;
	8579 :	11100000;
	8578 :	11111100;
	8577 :	00001100;
	8576 :	11101011;
	8575 :	00010011;
	8574 :	00011010;
	8573 :	11110100;
	8572 :	11111010;
	8571 :	11011011;
	8570 :	00000010;
	8569 :	00010110;
	8568 :	00000110;
	8567 :	11100010;
	8566 :	00000010;
	8565 :	11101001;
	8564 :	00010001;
	8563 :	00011000;
	8562 :	11111010;
	8561 :	00000000;
	8560 :	00001001;
	8559 :	00001111;
	8558 :	00010001;
	8557 :	11010100;
	8556 :	11100100;
	8555 :	00011101;
	8554 :	11101101;
	8553 :	00010100;
	8552 :	00001111;
	8551 :	11100011;
	8550 :	11110000;
	8549 :	00010101;
	8548 :	11101110;
	8547 :	00010100;
	8546 :	11010101;
	8545 :	00011001;
	8544 :	00001001;
	8543 :	11100010;
	8542 :	00011001;
	8541 :	11101111;
	8540 :	11110100;
	8539 :	11100100;
	8538 :	11111011;
	8537 :	00001101;
	8536 :	00001001;
	8535 :	11111010;
	8534 :	00000111;
	8533 :	00001101;
	8532 :	00000111;
	8531 :	11100110;
	8530 :	11101100;
	8529 :	00001110;
	8528 :	11111101;
	8527 :	00000110;
	8526 :	00010010;
	8525 :	11101010;
	8524 :	00000001;
	8523 :	00000010;
	8522 :	00010000;
	8521 :	00010111;
	8520 :	00001100;
	8519 :	00011000;
	8518 :	00000001;
	8517 :	00011001;
	8516 :	00011011;
	8515 :	00001100;
	8514 :	11111101;
	8513 :	00000010;
	8512 :	11110100;
	8511 :	00011110;
	8510 :	00101101;
	8509 :	11011001;
	8508 :	11110011;
	8507 :	11101001;
	8506 :	11010100;
	8505 :	00100000;
	8504 :	00010100;
	8503 :	00010100;
	8502 :	11111001;
	8501 :	00001010;
	8500 :	00010110;
	8499 :	00000001;
	8498 :	00001110;
	8497 :	00000100;
	8496 :	00100000;
	8495 :	11011110;
	8494 :	00001001;
	8493 :	00001001;
	8492 :	00011101;
	8491 :	00010011;
	8490 :	11101101;
	8489 :	11101011;
	8488 :	11100110;
	8487 :	11100110;
	8486 :	00001111;
	8485 :	00000001;
	8484 :	00000000;
	8483 :	00001110;
	8482 :	00001011;
	8481 :	11011100;
	8480 :	00000000;
	8479 :	00010011;
	8478 :	11100110;
	8477 :	00010111;
	8476 :	00011111;
	8475 :	11110011;
	8474 :	11110100;
	8473 :	00011011;
	8472 :	11110100;
	8471 :	11111110;
	8470 :	11000100;
	8469 :	11111000;
	8468 :	11101101;
	8467 :	00111010;
	8466 :	11010100;
	8465 :	00101001;
	8464 :	11101101;
	8463 :	11110011;
	8462 :	11101100;
	8461 :	11101110;
	8460 :	00000101;
	8459 :	00011010;
	8458 :	00000000;
	8457 :	00000111;
	8456 :	11001101;
	8455 :	11110010;
	8454 :	00100000;
	8453 :	00010000;
	8452 :	11101011;
	8451 :	11100110;
	8450 :	11101101;
	8449 :	00100011;
	8448 :	00000001;
	8447 :	00000001;
	8446 :	00010000;
	8445 :	11111110;
	8444 :	11100011;
	8443 :	11010110;
	8442 :	11110100;
	8441 :	00000011;
	8440 :	00001001;
	8439 :	00100011;
	8438 :	11011100;
	8437 :	00001110;
	8436 :	00001010;
	8435 :	11111010;
	8434 :	00010101;
	8433 :	11101111;
	8432 :	10111010;
	8431 :	00011001;
	8430 :	00110110;
	8429 :	00010011;
	8428 :	11011110;
	8427 :	11001101;
	8426 :	00001111;
	8425 :	11111110;
	8424 :	11110010;
	8423 :	00011011;
	8422 :	00001101;
	8421 :	00000111;
	8420 :	11101100;
	8419 :	00001010;
	8418 :	00010110;
	8417 :	00000000;
	8416 :	11110001;
	8415 :	11111001;
	8414 :	11110010;
	8413 :	11111100;
	8412 :	11010110;
	8411 :	11111100;
	8410 :	11100110;
	8409 :	11110001;
	8408 :	11101000;
	8407 :	00000110;
	8406 :	11111001;
	8405 :	11111010;
	8404 :	11110100;
	8403 :	00010001;
	8402 :	11100101;
	8401 :	00001011;
	8400 :	00001110;
	8399 :	00000001;
	8398 :	00000110;
	8397 :	11110010;
	8396 :	11110100;
	8395 :	11101001;
	8394 :	11111101;
	8393 :	11110100;
	8392 :	00000011;
	8391 :	11011110;
	8390 :	00000001;
	8389 :	00011010;
	8388 :	00010111;
	8387 :	00001100;
	8386 :	11101101;
	8385 :	00010110;
	8384 :	00010010;
	8383 :	00010111;
	8382 :	00001111;
	8381 :	11111100;
	8380 :	00000110;
	8379 :	11111101;
	8378 :	00010110;
	8377 :	11111010;
	8376 :	11001011;
	8375 :	11110110;
	8374 :	11100110;
	8373 :	00011100;
	8372 :	11111011;
	8371 :	11110111;
	8370 :	00000001;
	8369 :	11111101;
	8368 :	11100110;
	8367 :	00000000;
	8366 :	11110110;
	8365 :	11101001;
	8364 :	00000011;
	8363 :	11100011;
	8362 :	00000001;
	8361 :	00001011;
	8360 :	00001001;
	8359 :	11110000;
	8358 :	00001100;
	8357 :	00000000;
	8356 :	00001011;
	8355 :	00000011;
	8354 :	00001010;
	8353 :	00000001;
	8352 :	00000010;
	8351 :	00000011;
	8350 :	11110001;
	8349 :	11110101;
	8348 :	00000110;
	8347 :	11001000;
	8346 :	00000001;
	8345 :	11110000;
	8344 :	11110111;
	8343 :	11111001;
	8342 :	00001011;
	8341 :	11101101;
	8340 :	00001000;
	8339 :	00001110;
	8338 :	00000011;
	8337 :	11110101;
	8336 :	00011101;
	8335 :	00010000;
	8334 :	11101101;
	8333 :	11110110;
	8332 :	00000101;
	8331 :	00000110;
	8330 :	00000110;
	8329 :	11100011;
	8328 :	00011000;
	8327 :	00010000;
	8326 :	11001010;
	8325 :	00000010;
	8324 :	11100000;
	8323 :	00001000;
	8322 :	11111101;
	8321 :	11010000;
	8320 :	00000111;
	8319 :	11010001;
	8318 :	00011011;
	8317 :	11111000;
	8316 :	00000101;
	8315 :	00000001;
	8314 :	00001001;
	8313 :	11010010;
	8312 :	00011100;
	8311 :	11111101;
	8310 :	11100000;
	8309 :	00010111;
	8308 :	00010101;
	8307 :	00010010;
	8306 :	00000100;
	8305 :	00010111;
	8304 :	11101111;
	8303 :	00010010;
	8302 :	00000010;
	8301 :	00010110;
	8300 :	11101111;
	8299 :	00010100;
	8298 :	11111100;
	8297 :	00110001;
	8296 :	00010001;
	8295 :	00010110;
	8294 :	00000101;
	8293 :	11110110;
	8292 :	00000100;
	8291 :	00010011;
	8290 :	00001000;
	8289 :	00000000;
	8288 :	00000011;
	8287 :	00000111;
	8286 :	11111111;
	8285 :	00010101;
	8284 :	11101101;
	8283 :	11101100;
	8282 :	00000101;
	8281 :	00001010;
	8280 :	11111100;
	8279 :	11110001;
	8278 :	00000001;
	8277 :	00100000;
	8276 :	11111010;
	8275 :	00100001;
	8274 :	00011011;
	8273 :	11101110;
	8272 :	00010010;
	8271 :	00001110;
	8270 :	00011101;
	8269 :	11100000;
	8268 :	11111111;
	8267 :	11101111;
	8266 :	00000100;
	8265 :	11101010;
	8264 :	11101011;
	8263 :	00101110;
	8262 :	11110111;
	8261 :	00010011;
	8260 :	00011000;
	8259 :	11101111;
	8258 :	00000000;
	8257 :	00000011;
	8256 :	00000100;
	8255 :	00001010;
	8254 :	11110010;
	8253 :	11100110;
	8252 :	00001011;
	8251 :	00001001;
	8250 :	00010001;
	8249 :	00010000;
	8248 :	00010110;
	8247 :	00010111;
	8246 :	00011100;
	8245 :	00011011;
	8244 :	11110000;
	8243 :	00001110;
	8242 :	00010101;
	8241 :	11110101;
	8240 :	11011111;
	8239 :	00010010;
	8238 :	11110011;
	8237 :	11110101;
	8236 :	11010100;
	8235 :	11101001;
	8234 :	11110011;
	8233 :	00001001;
	8232 :	11100111;
	8231 :	00001111;
	8230 :	00010000;
	8229 :	00001000;
	8228 :	00000001;
	8227 :	00001111;
	8226 :	00111001;
	8225 :	11110011;
	8224 :	11111001;
	8223 :	00001000;
	8222 :	00001001;
	8221 :	11110111;
	8220 :	11110001;
	8219 :	11011010;
	8218 :	11111011;
	8217 :	00001001;
	8216 :	00000000;
	8215 :	00000011;
	8214 :	00100110;
	8213 :	00000100;
	8212 :	00000111;
	8211 :	11111111;
	8210 :	00000100;
	8209 :	00011010;
	8208 :	00100101;
	8207 :	11110011;
	8206 :	00101000;
	8205 :	11111001;
	8204 :	01000010;
	8203 :	11001110;
	8202 :	00001110;
	8201 :	11110101;
	8200 :	11111111;
	8199 :	00100010;
	8198 :	11100110;
	8197 :	00000000;
	8196 :	11100010;
	8195 :	00100001;
	8194 :	00001001;
	8193 :	00010000;
	8192 :	00001100;
	8191 :	00010001;
	8190 :	00110110;
	8189 :	11101001;
	8188 :	00010011;
	8187 :	00010010;
	8186 :	00100110;
	8185 :	00011001;
	8184 :	00001010;
	8183 :	11100001;
	8182 :	00001001;
	8181 :	00000110;
	8180 :	00100010;
	8179 :	00011100;
	8178 :	00010100;
	8177 :	11110100;
	8176 :	00010101;
	8175 :	11100010;
	8174 :	11101011;
	8173 :	00010111;
	8172 :	00001100;
	8171 :	11110111;
	8170 :	11101100;
	8169 :	11111011;
	8168 :	00010001;
	8167 :	11010111;
	8166 :	00000000;
	8165 :	11111010;
	8164 :	11111111;
	8163 :	00001111;
	8162 :	00001101;
	8161 :	11111010;
	8160 :	00001101;
	8159 :	11101110;
	8158 :	00001101;
	8157 :	11111111;
	8156 :	11110011;
	8155 :	00001011;
	8154 :	00011011;
	8153 :	11110110;
	8152 :	00001101;
	8151 :	00010111;
	8150 :	00001110;
	8149 :	11111001;
	8148 :	11110010;
	8147 :	11101111;
	8146 :	00000001;
	8145 :	00111011;
	8144 :	11110001;
	8143 :	11110001;
	8142 :	11111111;
	8141 :	11110110;
	8140 :	00010100;
	8139 :	00001101;
	8138 :	11111101;
	8137 :	00000101;
	8136 :	00010100;
	8135 :	11101111;
	8134 :	00001011;
	8133 :	11111000;
	8132 :	00011001;
	8131 :	00001100;
	8130 :	11111100;
	8129 :	00010000;
	8128 :	00010010;
	8127 :	11101001;
	8126 :	11110110;
	8125 :	11111101;
	8124 :	00001110;
	8123 :	00000010;
	8122 :	00001111;
	8121 :	00001000;
	8120 :	11111110;
	8119 :	00001101;
	8118 :	00010111;
	8117 :	00000110;
	8116 :	11101110;
	8115 :	00000001;
	8114 :	11110000;
	8113 :	00011101;
	8112 :	11001100;
	8111 :	11001101;
	8110 :	00000000;
	8109 :	00000010;
	8108 :	00000100;
	8107 :	11111111;
	8106 :	11011010;
	8105 :	11111001;
	8104 :	00001100;
	8103 :	11110111;
	8102 :	00000001;
	8101 :	11000111;
	8100 :	00010000;
	8099 :	00001000;
	8098 :	00010010;
	8097 :	11110001;
	8096 :	00000011;
	8095 :	00001110;
	8094 :	11110110;
	8093 :	00001111;
	8092 :	11110001;
	8091 :	00001000;
	8090 :	11110011;
	8089 :	11101011;
	8088 :	11100110;
	8087 :	11111110;
	8086 :	00011111;
	8085 :	00011001;
	8084 :	11100000;
	8083 :	11110110;
	8082 :	00001011;
	8081 :	11111100;
	8080 :	00001100;
	8079 :	11011011;
	8078 :	00011001;
	8077 :	00000000;
	8076 :	00001110;
	8075 :	00010100;
	8074 :	00001101;
	8073 :	11101111;
	8072 :	11101001;
	8071 :	00010111;
	8070 :	00101011;
	8069 :	11101110;
	8068 :	00001010;
	8067 :	00000111;
	8066 :	00010010;
	8065 :	11101000;
	8064 :	11101010;
	8063 :	11111010;
	8062 :	11111111;
	8061 :	00010010;
	8060 :	00001001;
	8059 :	00010010;
	8058 :	11101000;
	8057 :	00000011;
	8056 :	00010001;
	8055 :	00011101;
	8054 :	00010111;
	8053 :	11101110;
	8052 :	00010001;
	8051 :	11110010;
	8050 :	00001111;
	8049 :	11101100;
	8048 :	11110100;
	8047 :	00001010;
	8046 :	11101110;
	8045 :	11110010;
	8044 :	00000000;
	8043 :	00001000;
	8042 :	11101111;
	8041 :	11011010;
	8040 :	11111010;
	8039 :	00011011;
	8038 :	11110100;
	8037 :	00000000;
	8036 :	00100011;
	8035 :	00000000;
	8034 :	11111010;
	8033 :	00000101;
	8032 :	11110001;
	8031 :	11111011;
	8030 :	00011010;
	8029 :	11111110;
	8028 :	00000000;
	8027 :	11110000;
	8026 :	00100000;
	8025 :	01001001;
	8024 :	11100110;
	8023 :	00000101;
	8022 :	00010011;
	8021 :	11111001;
	8020 :	00011010;
	8019 :	00010101;
	8018 :	00011101;
	8017 :	00000100;
	8016 :	00101101;
	8015 :	11110101;
	8014 :	00000100;
	8013 :	11011100;
	8012 :	00011110;
	8011 :	00110001;
	8010 :	11111111;
	8009 :	00010000;
	8008 :	11111010;
	8007 :	11100101;
	8006 :	11101111;
	8005 :	00001101;
	8004 :	00010011;
	8003 :	11110011;
	8002 :	11110101;
	8001 :	11100010;
	8000 :	11110001;
	7999 :	11111001;
	7998 :	00011001;
	7997 :	00100011;
	7996 :	00010001;
	7995 :	00001001;
	7994 :	00001100;
	7993 :	00010001;
	7992 :	00001001;
	7991 :	00001101;
	7990 :	00100010;
	7989 :	00001101;
	7988 :	11110101;
	7987 :	00000001;
	7986 :	11001001;
	7985 :	00101000;
	7984 :	11111000;
	7983 :	00001100;
	7982 :	00001100;
	7981 :	11010110;
	7980 :	00001010;
	7979 :	11101110;
	7978 :	00010010;
	7977 :	00001010;
	7976 :	00101101;
	7975 :	00010100;
	7974 :	11101010;
	7973 :	00000001;
	7972 :	00000000;
	7971 :	00010110;
	7970 :	11110011;
	7969 :	00011100;
	7968 :	11101100;
	7967 :	11100011;
	7966 :	00010101;
	7965 :	00000101;
	7964 :	11001100;
	7963 :	00100110;
	7962 :	11101100;
	7961 :	00000000;
	7960 :	11110110;
	7959 :	11011111;
	7958 :	00011111;
	7957 :	00000101;
	7956 :	00010110;
	7955 :	00001101;
	7954 :	00000010;
	7953 :	11111000;
	7952 :	11111111;
	7951 :	00101111;
	7950 :	11111000;
	7949 :	00001001;
	7948 :	00001001;
	7947 :	00000101;
	7946 :	00100101;
	7945 :	11101100;
	7944 :	00001011;
	7943 :	00011010;
	7942 :	00110111;
	7941 :	00001110;
	7940 :	11101000;
	7939 :	00110111;
	7938 :	11100000;
	7937 :	00010101;
	7936 :	11111001;
	7935 :	11111101;
	7934 :	00010111;
	7933 :	11101010;
	7932 :	00010011;
	7931 :	11101110;
	7930 :	11111010;
	7929 :	00010000;
	7928 :	11110110;
	7927 :	00001001;
	7926 :	11101100;
	7925 :	00011010;
	7924 :	00000001;
	7923 :	00000011;
	7922 :	00011000;
	7921 :	00001000;
	7920 :	11110111;
	7919 :	00000011;
	7918 :	11101010;
	7917 :	11111111;
	7916 :	00001010;
	7915 :	11111001;
	7914 :	00000000;
	7913 :	00001010;
	7912 :	00000001;
	7911 :	00000110;
	7910 :	11110110;
	7909 :	11111011;
	7908 :	00100101;
	7907 :	11111110;
	7906 :	00001010;
	7905 :	11110001;
	7904 :	11111010;
	7903 :	11111001;
	7902 :	11110000;
	7901 :	11100110;
	7900 :	00001001;
	7899 :	00010100;
	7898 :	00001010;
	7897 :	00000110;
	7896 :	00000101;
	7895 :	00001000;
	7894 :	11110101;
	7893 :	00000001;
	7892 :	00000101;
	7891 :	00100101;
	7890 :	00001110;
	7889 :	00001101;
	7888 :	00010000;
	7887 :	11101110;
	7886 :	11101101;
	7885 :	00001011;
	7884 :	00001110;
	7883 :	11010011;
	7882 :	00001000;
	7881 :	00010101;
	7880 :	11111111;
	7879 :	11101111;
	7878 :	11100010;
	7877 :	00001011;
	7876 :	11111010;
	7875 :	11111101;
	7874 :	11101000;
	7873 :	11110101;
	7872 :	00010101;
	7871 :	00100100;
	7870 :	00001011;
	7869 :	00000000;
	7868 :	00000000;
	7867 :	11110010;
	7866 :	00011011;
	7865 :	11110100;
	7864 :	00000111;
	7863 :	00001011;
	7862 :	00001000;
	7861 :	00011100;
	7860 :	11110100;
	7859 :	11100111;
	7858 :	11111011;
	7857 :	00010011;
	7856 :	00100001;
	7855 :	11111001;
	7854 :	00000010;
	7853 :	11110110;
	7852 :	00001000;
	7851 :	11001111;
	7850 :	00001101;
	7849 :	00101111;
	7848 :	00001110;
	7847 :	11010100;
	7846 :	00000100;
	7845 :	11110101;
	7844 :	00000000;
	7843 :	00100011;
	7842 :	11101110;
	7841 :	00001100;
	7840 :	00010011;
	7839 :	00000110;
	7838 :	00000100;
	7837 :	11011101;
	7836 :	11111000;
	7835 :	11111001;
	7834 :	11111011;
	7833 :	11101001;
	7832 :	00010010;
	7831 :	00000011;
	7830 :	11110011;
	7829 :	00001001;
	7828 :	11111110;
	7827 :	11111110;
	7826 :	11111011;
	7825 :	00011001;
	7824 :	00010101;
	7823 :	11111110;
	7822 :	00011000;
	7821 :	11111010;
	7820 :	11111011;
	7819 :	11011010;
	7818 :	11101000;
	7817 :	00001111;
	7816 :	00000001;
	7815 :	11110100;
	7814 :	00001110;
	7813 :	00001110;
	7812 :	11100111;
	7811 :	11101000;
	7810 :	11111010;
	7809 :	00001000;
	7808 :	11110001;
	7807 :	11111001;
	7806 :	00001010;
	7805 :	11101110;
	7804 :	11101100;
	7803 :	00001010;
	7802 :	11100000;
	7801 :	11111001;
	7800 :	00000010;
	7799 :	11110001;
	7798 :	11111011;
	7797 :	00000011;
	7796 :	11110110;
	7795 :	11110110;
	7794 :	11110001;
	7793 :	00000110;
	7792 :	11101101;
	7791 :	11111111;
	7790 :	11110001;
	7789 :	11111111;
	7788 :	00001110;
	7787 :	11110111;
	7786 :	11111100;
	7785 :	11110000;
	7784 :	11101100;
	7783 :	11111111;
	7782 :	00010101;
	7781 :	11111010;
	7780 :	11111110;
	7779 :	00000101;
	7778 :	11111011;
	7777 :	00001111;
	7776 :	00000001;
	7775 :	00001100;
	7774 :	00001011;
	7773 :	11111011;
	7772 :	11110001;
	7771 :	00000011;
	7770 :	00001000;
	7769 :	00000110;
	7768 :	00000001;
	7767 :	00000000;
	7766 :	11111010;
	7765 :	11110001;
	7764 :	00001000;
	7763 :	00010011;
	7762 :	11110000;
	7761 :	11110001;
	7760 :	00010001;
	7759 :	11111011;
	7758 :	11111101;
	7757 :	11101011;
	7756 :	11100111;
	7755 :	11101100;
	7754 :	11110000;
	7753 :	11110011;
	7752 :	00001111;
	7751 :	11101010;
	7750 :	00000001;
	7749 :	00000000;
	7748 :	11111000;
	7747 :	11101110;
	7746 :	00000010;
	7745 :	00001001;
	7744 :	11111000;
	7743 :	11101010;
	7742 :	11111001;
	7741 :	11111001;
	7740 :	11110011;
	7739 :	00001000;
	7738 :	11110011;
	7737 :	00001111;
	7736 :	11110101;
	7735 :	11110110;
	7734 :	11111010;
	7733 :	11111000;
	7732 :	00010001;
	7731 :	11111011;
	7730 :	00001011;
	7729 :	00010000;
	7728 :	11110111;
	7727 :	00000100;
	7726 :	11111001;
	7725 :	11110110;
	7724 :	11111000;
	7723 :	11111100;
	7722 :	11111110;
	7721 :	11110000;
	7720 :	11111101;
	7719 :	11101010;
	7718 :	11110001;
	7717 :	11110100;
	7716 :	00001000;
	7715 :	11110011;
	7714 :	11111010;
	7713 :	00001001;
	7712 :	11101100;
	7711 :	11111011;
	7710 :	00010011;
	7709 :	11110111;
	7708 :	00001111;
	7707 :	11111100;
	7706 :	11110101;
	7705 :	11101100;
	7704 :	00010010;
	7703 :	00000101;
	7702 :	11101001;
	7701 :	00001010;
	7700 :	11111010;
	7699 :	00010100;
	7698 :	00010000;
	7697 :	00001011;
	7696 :	11101010;
	7695 :	00001010;
	7694 :	00001110;
	7693 :	11101110;
	7692 :	00001101;
	7691 :	00010101;
	7690 :	11101101;
	7689 :	11101101;
	7688 :	00001100;
	7687 :	11100101;
	7686 :	11111001;
	7685 :	11100110;
	7684 :	11111010;
	7683 :	11101110;
	7682 :	00001110;
	7681 :	00000010;
	7680 :	11101010;
	7679 :	11110011;
	7678 :	11110111;
	7677 :	00011100;
	7676 :	00000001;
	7675 :	00000011;
	7674 :	11100100;
	7673 :	11111100;
	7672 :	00100101;
	7671 :	11110010;
	7670 :	00000100;
	7669 :	11111011;
	7668 :	11011010;
	7667 :	11110111;
	7666 :	11111010;
	7665 :	11001001;
	7664 :	00011100;
	7663 :	11110101;
	7662 :	00000010;
	7661 :	00011000;
	7660 :	11011011;
	7659 :	11110010;
	7658 :	11001110;
	7657 :	11111001;
	7656 :	00010110;
	7655 :	00010100;
	7654 :	11111000;
	7653 :	00011010;
	7652 :	00001011;
	7651 :	11101100;
	7650 :	00001101;
	7649 :	00001010;
	7648 :	00000100;
	7647 :	00101001;
	7646 :	00000111;
	7645 :	11011110;
	7644 :	00001101;
	7643 :	00001111;
	7642 :	11101111;
	7641 :	11111010;
	7640 :	11110111;
	7639 :	00000101;
	7638 :	00000011;
	7637 :	00011110;
	7636 :	11101110;
	7635 :	00001110;
	7634 :	11111110;
	7633 :	11110110;
	7632 :	11111000;
	7631 :	00000111;
	7630 :	00100000;
	7629 :	11101001;
	7628 :	00010010;
	7627 :	11000111;
	7626 :	11111010;
	7625 :	00000111;
	7624 :	11111010;
	7623 :	11110100;
	7622 :	11111010;
	7621 :	11110111;
	7620 :	00001111;
	7619 :	00011111;
	7618 :	11100100;
	7617 :	11101001;
	7616 :	11110111;
	7615 :	11110010;
	7614 :	11100101;
	7613 :	00000000;
	7612 :	00011111;
	7611 :	00001111;
	7610 :	00000000;
	7609 :	11100111;
	7608 :	11111100;
	7607 :	00011100;
	7606 :	11110001;
	7605 :	11001111;
	7604 :	11101101;
	7603 :	11100001;
	7602 :	11111100;
	7601 :	00011010;
	7600 :	11101111;
	7599 :	11100101;
	7598 :	00000010;
	7597 :	11111001;
	7596 :	00011000;
	7595 :	11110111;
	7594 :	00010000;
	7593 :	00100010;
	7592 :	00000100;
	7591 :	11110110;
	7590 :	11101101;
	7589 :	00010110;
	7588 :	00001110;
	7587 :	00000101;
	7586 :	00100010;
	7585 :	00100000;
	7584 :	00001011;
	7583 :	11110110;
	7582 :	11111010;
	7581 :	11110011;
	7580 :	00011000;
	7579 :	11011011;
	7578 :	00010111;
	7577 :	11100001;
	7576 :	00100011;
	7575 :	00000001;
	7574 :	11110010;
	7573 :	00100010;
	7572 :	00100111;
	7571 :	11111111;
	7570 :	11010011;
	7569 :	00001011;
	7568 :	00010000;
	7567 :	11110011;
	7566 :	00000000;
	7565 :	00010101;
	7564 :	00011100;
	7563 :	00001011;
	7562 :	00001111;
	7561 :	11100101;
	7560 :	00011000;
	7559 :	00001111;
	7558 :	11100010;
	7557 :	00010101;
	7556 :	00000011;
	7555 :	11111110;
	7554 :	00000000;
	7553 :	00000111;
	7552 :	11111110;
	7551 :	00001110;
	7550 :	11110011;
	7549 :	11110101;
	7548 :	00010111;
	7547 :	11101011;
	7546 :	00011101;
	7545 :	00111110;
	7544 :	11111011;
	7543 :	00100101;
	7542 :	11111111;
	7541 :	11111000;
	7540 :	11101100;
	7539 :	00010100;
	7538 :	00010000;
	7537 :	00000101;
	7536 :	00000010;
	7535 :	00010011;
	7534 :	11110011;
	7533 :	11111001;
	7532 :	11111101;
	7531 :	00010010;
	7530 :	11111011;
	7529 :	00000000;
	7528 :	11110011;
	7527 :	00000011;
	7526 :	11111111;
	7525 :	00101100;
	7524 :	11100001;
	7523 :	11101001;
	7522 :	00000000;
	7521 :	00000000;
	7520 :	00000000;
	7519 :	11111101;
	7518 :	11100110;
	7517 :	11101111;
	7516 :	11100000;
	7515 :	00001010;
	7514 :	11111110;
	7513 :	00001110;
	7512 :	00010101;
	7511 :	00001101;
	7510 :	11101001;
	7509 :	00100010;
	7508 :	00000110;
	7507 :	11101100;
	7506 :	11111001;
	7505 :	11100101;
	7504 :	11100110;
	7503 :	00010101;
	7502 :	11110110;
	7501 :	11100011;
	7500 :	11101010;
	7499 :	11011100;
	7498 :	00000011;
	7497 :	00000001;
	7496 :	11111100;
	7495 :	11110001;
	7494 :	00011111;
	7493 :	00000011;
	7492 :	00000011;
	7491 :	11101110;
	7490 :	00000000;
	7489 :	00111111;
	7488 :	11111100;
	7487 :	11111001;
	7486 :	00100111;
	7485 :	00011010;
	7484 :	00011101;
	7483 :	00010011;
	7482 :	00010010;
	7481 :	00001101;
	7480 :	00001011;
	7479 :	00001000;
	7478 :	00101001;
	7477 :	11110111;
	7476 :	11110011;
	7475 :	00000110;
	7474 :	00001100;
	7473 :	11111101;
	7472 :	11110001;
	7471 :	00001001;
	7470 :	11101111;
	7469 :	00001111;
	7468 :	11110111;
	7467 :	00010001;
	7466 :	11011010;
	7465 :	11111010;
	7464 :	00000111;
	7463 :	11100010;
	7462 :	00101010;
	7461 :	00010011;
	7460 :	00011010;
	7459 :	11111000;
	7458 :	11111101;
	7457 :	00010100;
	7456 :	00001001;
	7455 :	11011001;
	7454 :	11111010;
	7453 :	11110111;
	7452 :	11110100;
	7451 :	00001011;
	7450 :	11101011;
	7449 :	00011000;
	7448 :	11110111;
	7447 :	00000000;
	7446 :	11101001;
	7445 :	11110010;
	7444 :	00011011;
	7443 :	00000100;
	7442 :	11111110;
	7441 :	00000110;
	7440 :	00001011;
	7439 :	00100100;
	7438 :	00010001;
	7437 :	11001111;
	7436 :	11110101;
	7435 :	11110110;
	7434 :	11011111;
	7433 :	00000101;
	7432 :	00100001;
	7431 :	11011110;
	7430 :	00001111;
	7429 :	00000100;
	7428 :	11111011;
	7427 :	00001101;
	7426 :	00010001;
	7425 :	11111101;
	7424 :	11110011;
	7423 :	11011011;
	7422 :	11101010;
	7421 :	00000111;
	7420 :	11110111;
	7419 :	00001101;
	7418 :	00111111;
	7417 :	11100001;
	7416 :	00000111;
	7415 :	00010011;
	7414 :	11110111;
	7413 :	11011001;
	7412 :	11011010;
	7411 :	00001110;
	7410 :	00001011;
	7409 :	00001011;
	7408 :	11101100;
	7407 :	00000110;
	7406 :	11101110;
	7405 :	00100010;
	7404 :	11110111;
	7403 :	11100110;
	7402 :	00001001;
	7401 :	11011000;
	7400 :	11111001;
	7399 :	00000001;
	7398 :	00010101;
	7397 :	11101011;
	7396 :	00001011;
	7395 :	11110000;
	7394 :	00000011;
	7393 :	11101000;
	7392 :	00101100;
	7391 :	11111010;
	7390 :	00001000;
	7389 :	11111000;
	7388 :	00010000;
	7387 :	11101101;
	7386 :	11101011;
	7385 :	00010101;
	7384 :	00000110;
	7383 :	00011011;
	7382 :	00000101;
	7381 :	11111110;
	7380 :	11110111;
	7379 :	11110101;
	7378 :	11110011;
	7377 :	11111001;
	7376 :	00001000;
	7375 :	00011000;
	7374 :	11110010;
	7373 :	00001010;
	7372 :	11101111;
	7371 :	11101010;
	7370 :	00011110;
	7369 :	11000111;
	7368 :	11101111;
	7367 :	11100101;
	7366 :	11010110;
	7365 :	11111101;
	7364 :	00001100;
	7363 :	00001011;
	7362 :	00001000;
	7361 :	00010100;
	7360 :	11110000;
	7359 :	11101000;
	7358 :	00000110;
	7357 :	00000110;
	7356 :	11101110;
	7355 :	11010011;
	7354 :	11110100;
	7353 :	11111101;
	7352 :	11111010;
	7351 :	00000001;
	7350 :	11101110;
	7349 :	11101110;
	7348 :	00011100;
	7347 :	00011100;
	7346 :	00001101;
	7345 :	00000010;
	7344 :	11110011;
	7343 :	11110001;
	7342 :	00001101;
	7341 :	00001011;
	7340 :	00011000;
	7339 :	00000000;
	7338 :	00000010;
	7337 :	00100000;
	7336 :	11101011;
	7335 :	11110001;
	7334 :	00000001;
	7333 :	11000101;
	7332 :	11111110;
	7331 :	00000000;
	7330 :	11110011;
	7329 :	00011111;
	7328 :	11100110;
	7327 :	00100111;
	7326 :	00000110;
	7325 :	11101100;
	7324 :	11101111;
	7323 :	00000011;
	7322 :	11110111;
	7321 :	00000100;
	7320 :	00010111;
	7319 :	11101000;
	7318 :	00000000;
	7317 :	11110011;
	7316 :	11101011;
	7315 :	11110110;
	7314 :	00000010;
	7313 :	11111000;
	7312 :	11100111;
	7311 :	11100100;
	7310 :	00000100;
	7309 :	00000100;
	7308 :	11101000;
	7307 :	11100111;
	7306 :	11101111;
	7305 :	00001011;
	7304 :	00001001;
	7303 :	11100110;
	7302 :	00001000;
	7301 :	11101100;
	7300 :	11101100;
	7299 :	11101100;
	7298 :	00000101;
	7297 :	11110111;
	7296 :	00000001;
	7295 :	11110111;
	7294 :	11110110;
	7293 :	11111100;
	7292 :	00001101;
	7291 :	11110000;
	7290 :	00001000;
	7289 :	00000110;
	7288 :	11101001;
	7287 :	11111100;
	7286 :	11101001;
	7285 :	11110000;
	7284 :	11111001;
	7283 :	00000001;
	7282 :	00000011;
	7281 :	11100010;
	7280 :	00000000;
	7279 :	11101100;
	7278 :	11111111;
	7277 :	00000101;
	7276 :	00001001;
	7275 :	11111000;
	7274 :	00000101;
	7273 :	00001010;
	7272 :	11110010;
	7271 :	11111000;
	7270 :	11110001;
	7269 :	11101100;
	7268 :	00001001;
	7267 :	00001111;
	7266 :	00001100;
	7265 :	11110101;
	7264 :	00000110;
	7263 :	00000110;
	7262 :	00000001;
	7261 :	00000111;
	7260 :	00000100;
	7259 :	00001001;
	7258 :	11111110;
	7257 :	00000011;
	7256 :	00010011;
	7255 :	00000010;
	7254 :	00000011;
	7253 :	00010011;
	7252 :	11110111;
	7251 :	11110101;
	7250 :	00000100;
	7249 :	00010010;
	7248 :	11111001;
	7247 :	11111011;
	7246 :	11110110;
	7245 :	00000111;
	7244 :	00001101;
	7243 :	00010001;
	7242 :	00010001;
	7241 :	11101000;
	7240 :	00000110;
	7239 :	11110110;
	7238 :	11101011;
	7237 :	11100100;
	7236 :	11101100;
	7235 :	11111100;
	7234 :	11101010;
	7233 :	11110111;
	7232 :	11101110;
	7231 :	11111010;
	7230 :	11101010;
	7229 :	00000100;
	7228 :	11101011;
	7227 :	00011000;
	7226 :	00001101;
	7225 :	11110001;
	7224 :	00001000;
	7223 :	11111110;
	7222 :	00000101;
	7221 :	11110110;
	7220 :	11111010;
	7219 :	00000010;
	7218 :	11110100;
	7217 :	11111101;
	7216 :	11101011;
	7215 :	11110100;
	7214 :	00010100;
	7213 :	11011101;
	7212 :	11110110;
	7211 :	00000111;
	7210 :	00001101;
	7209 :	11110110;
	7208 :	11111001;
	7207 :	11100100;
	7206 :	11110111;
	7205 :	00000101;
	7204 :	11110100;
	7203 :	11110010;
	7202 :	11100110;
	7201 :	11101010;
	7200 :	11101001;
	7199 :	00000110;
	7198 :	11111011;
	7197 :	11111000;
	7196 :	00011011;
	7195 :	11111100;
	7194 :	00011010;
	7193 :	11100100;
	7192 :	11111111;
	7191 :	11101100;
	7190 :	00011111;
	7189 :	11110110;
	7188 :	00010010;
	7187 :	00000101;
	7186 :	11101011;
	7185 :	00000011;
	7184 :	00011011;
	7183 :	00000111;
	7182 :	00010011;
	7181 :	00001101;
	7180 :	00011101;
	7179 :	00100011;
	7178 :	00100001;
	7177 :	00000101;
	7176 :	00001100;
	7175 :	00000111;
	7174 :	00010011;
	7173 :	00010011;
	7172 :	11111111;
	7171 :	00011011;
	7170 :	00001110;
	7169 :	11110111;
	7168 :	11110000;
	7167 :	11100110;
	7166 :	00000000;
	7165 :	00011001;
	7164 :	11111110;
	7163 :	11110110;
	7162 :	00001010;
	7161 :	11101100;
	7160 :	11111010;
	7159 :	00010000;
	7158 :	11011110;
	7157 :	00100011;
	7156 :	00010000;
	7155 :	11101011;
	7154 :	11110001;
	7153 :	00100011;
	7152 :	00000001;
	7151 :	00011110;
	7150 :	11001101;
	7149 :	00011000;
	7148 :	11010011;
	7147 :	11111011;
	7146 :	11110011;
	7145 :	00011110;
	7144 :	11110011;
	7143 :	00001000;
	7142 :	11111001;
	7141 :	11110000;
	7140 :	00001000;
	7139 :	00101001;
	7138 :	00000101;
	7137 :	11110101;
	7136 :	11000100;
	7135 :	11111010;
	7134 :	00100111;
	7133 :	11111111;
	7132 :	00001001;
	7131 :	11110011;
	7130 :	00011010;
	7129 :	00101010;
	7128 :	00000110;
	7127 :	11110011;
	7126 :	00001001;
	7125 :	11110101;
	7124 :	00011100;
	7123 :	11111110;
	7122 :	00010010;
	7121 :	00101000;
	7120 :	11110010;
	7119 :	11111111;
	7118 :	00000010;
	7117 :	11100011;
	7116 :	11110110;
	7115 :	00010011;
	7114 :	00001101;
	7113 :	00001110;
	7112 :	11110010;
	7111 :	11010100;
	7110 :	00000110;
	7109 :	11101111;
	7108 :	11100100;
	7107 :	11011111;
	7106 :	11100111;
	7105 :	11110100;
	7104 :	00001001;
	7103 :	11110101;
	7102 :	11111100;
	7101 :	11111100;
	7100 :	00011100;
	7099 :	11011110;
	7098 :	00001111;
	7097 :	00000111;
	7096 :	00000111;
	7095 :	11110110;
	7094 :	11110011;
	7093 :	00001101;
	7092 :	11101011;
	7091 :	11101011;
	7090 :	11111101;
	7089 :	00100010;
	7088 :	11111011;
	7087 :	00000011;
	7086 :	00001111;
	7085 :	00001000;
	7084 :	11011111;
	7083 :	00010010;
	7082 :	11101011;
	7081 :	00000111;
	7080 :	00011101;
	7079 :	00001110;
	7078 :	11101000;
	7077 :	00100000;
	7076 :	00001111;
	7075 :	11011011;
	7074 :	00011010;
	7073 :	00010101;
	7072 :	11111001;
	7071 :	11110100;
	7070 :	11110111;
	7069 :	11101001;
	7068 :	11101111;
	7067 :	11101011;
	7066 :	00000110;
	7065 :	01010110;
	7064 :	11111111;
	7063 :	00010100;
	7062 :	00001011;
	7061 :	00011001;
	7060 :	00011011;
	7059 :	11110000;
	7058 :	11011011;
	7057 :	00000010;
	7056 :	00010010;
	7055 :	00000000;
	7054 :	00000000;
	7053 :	00011100;
	7052 :	00010100;
	7051 :	11011110;
	7050 :	11111111;
	7049 :	00001100;
	7048 :	00001010;
	7047 :	00001111;
	7046 :	11110111;
	7045 :	11010011;
	7044 :	00000001;
	7043 :	00011111;
	7042 :	11111100;
	7041 :	00000000;
	7040 :	11111100;
	7039 :	11111101;
	7038 :	00100110;
	7037 :	00101100;
	7036 :	00000111;
	7035 :	00001101;
	7034 :	11111100;
	7033 :	00011101;
	7032 :	00001111;
	7031 :	11100101;
	7030 :	00000010;
	7029 :	11111011;
	7028 :	00000110;
	7027 :	11111100;
	7026 :	00101001;
	7025 :	00000011;
	7024 :	00000010;
	7023 :	11100111;
	7022 :	11111000;
	7021 :	00001001;
	7020 :	11110001;
	7019 :	00011111;
	7018 :	00001010;
	7017 :	11111001;
	7016 :	00000100;
	7015 :	11110111;
	7014 :	11111010;
	7013 :	00010011;
	7012 :	00100100;
	7011 :	11110111;
	7010 :	11011101;
	7009 :	00010010;
	7008 :	00010001;
	7007 :	00011000;
	7006 :	00101010;
	7005 :	11111001;
	7004 :	11110001;
	7003 :	00000110;
	7002 :	00001101;
	7001 :	00000010;
	7000 :	11110101;
	6999 :	00001100;
	6998 :	11010010;
	6997 :	00000001;
	6996 :	00001110;
	6995 :	00000010;
	6994 :	00001110;
	6993 :	00000111;
	6992 :	00001001;
	6991 :	00000010;
	6990 :	00000010;
	6989 :	11110001;
	6988 :	11110110;
	6987 :	00000000;
	6986 :	00011010;
	6985 :	00000100;
	6984 :	11111011;
	6983 :	00001001;
	6982 :	00001100;
	6981 :	00011011;
	6980 :	11101111;
	6979 :	11110100;
	6978 :	11110110;
	6977 :	11000100;
	6976 :	00010001;
	6975 :	00101110;
	6974 :	00011010;
	6973 :	00011110;
	6972 :	11111111;
	6971 :	11110011;
	6970 :	11110010;
	6969 :	11101001;
	6968 :	00011100;
	6967 :	00001100;
	6966 :	00000010;
	6965 :	11100011;
	6964 :	11110100;
	6963 :	11101100;
	6962 :	11111100;
	6961 :	11110010;
	6960 :	00010101;
	6959 :	11111101;
	6958 :	00100100;
	6957 :	11110100;
	6956 :	00000100;
	6955 :	00011111;
	6954 :	11111111;
	6953 :	11111011;
	6952 :	00001000;
	6951 :	11110010;
	6950 :	11110101;
	6949 :	00010111;
	6948 :	11011000;
	6947 :	00001001;
	6946 :	00001001;
	6945 :	00000111;
	6944 :	00000011;
	6943 :	00000011;
	6942 :	11101100;
	6941 :	00011011;
	6940 :	00001011;
	6939 :	11110001;
	6938 :	00010011;
	6937 :	00010101;
	6936 :	00000100;
	6935 :	00000001;
	6934 :	00000101;
	6933 :	00010001;
	6932 :	00011111;
	6931 :	00000101;
	6930 :	00000010;
	6929 :	00001011;
	6928 :	00010111;
	6927 :	00010010;
	6926 :	11111011;
	6925 :	00010111;
	6924 :	00000010;
	6923 :	00011010;
	6922 :	11110110;
	6921 :	11110010;
	6920 :	00010011;
	6919 :	00001010;
	6918 :	00001110;
	6917 :	11110110;
	6916 :	11111001;
	6915 :	00010001;
	6914 :	11101110;
	6913 :	11111000;
	6912 :	11100001;
	6911 :	11100101;
	6910 :	11110111;
	6909 :	00011100;
	6908 :	11110011;
	6907 :	11101001;
	6906 :	11001011;
	6905 :	11101101;
	6904 :	11110100;
	6903 :	00101100;
	6902 :	11111100;
	6901 :	11111110;
	6900 :	00001111;
	6899 :	11110110;
	6898 :	00010111;
	6897 :	00011010;
	6896 :	00011110;
	6895 :	00000100;
	6894 :	11101111;
	6893 :	00010001;
	6892 :	00000100;
	6891 :	00110000;
	6890 :	00100010;
	6889 :	10101110;
	6888 :	00000111;
	6887 :	11110010;
	6886 :	11110101;
	6885 :	00001101;
	6884 :	11011011;
	6883 :	00100011;
	6882 :	00000001;
	6881 :	00000000;
	6880 :	00010010;
	6879 :	11111100;
	6878 :	00010101;
	6877 :	00001001;
	6876 :	00010111;
	6875 :	11110001;
	6874 :	00001101;
	6873 :	11111001;
	6872 :	11111111;
	6871 :	11111010;
	6870 :	00000011;
	6869 :	00001000;
	6868 :	00011001;
	6867 :	00001000;
	6866 :	00100011;
	6865 :	11110111;
	6864 :	00000111;
	6863 :	11110001;
	6862 :	00101101;
	6861 :	00010100;
	6860 :	00000100;
	6859 :	00100011;
	6858 :	11111100;
	6857 :	11110111;
	6856 :	00010010;
	6855 :	11101111;
	6854 :	00001110;
	6853 :	11101010;
	6852 :	11111010;
	6851 :	00000111;
	6850 :	11111010;
	6849 :	00011001;
	6848 :	00010000;
	6847 :	11110100;
	6846 :	00001100;
	6845 :	00001011;
	6844 :	00011000;
	6843 :	11101111;
	6842 :	00011010;
	6841 :	11111101;
	6840 :	00001000;
	6839 :	00001100;
	6838 :	00001111;
	6837 :	00000101;
	6836 :	00010110;
	6835 :	00001000;
	6834 :	11101110;
	6833 :	11111010;
	6832 :	11100010;
	6831 :	11100011;
	6830 :	11101011;
	6829 :	00001111;
	6828 :	00001001;
	6827 :	00011011;
	6826 :	00001010;
	6825 :	11111000;
	6824 :	00000100;
	6823 :	00010100;
	6822 :	11110111;
	6821 :	00001001;
	6820 :	11101010;
	6819 :	11110101;
	6818 :	00111101;
	6817 :	00001111;
	6816 :	11111100;
	6815 :	00010110;
	6814 :	00000001;
	6813 :	00000100;
	6812 :	11010010;
	6811 :	11111010;
	6810 :	11101011;
	6809 :	00000010;
	6808 :	00001001;
	6807 :	11101000;
	6806 :	11101101;
	6805 :	00100111;
	6804 :	11100111;
	6803 :	11100110;
	6802 :	00001101;
	6801 :	00011101;
	6800 :	11100100;
	6799 :	00001000;
	6798 :	11110100;
	6797 :	11010010;
	6796 :	11110101;
	6795 :	00011011;
	6794 :	00001111;
	6793 :	11101000;
	6792 :	00011110;
	6791 :	00011000;
	6790 :	00001010;
	6789 :	00001100;
	6788 :	11111001;
	6787 :	11000111;
	6786 :	00001011;
	6785 :	11100011;
	6784 :	11111101;
	6783 :	00111000;
	6782 :	11110100;
	6781 :	11110001;
	6780 :	11110111;
	6779 :	11111010;
	6778 :	00100101;
	6777 :	11110111;
	6776 :	11101011;
	6775 :	00001001;
	6774 :	00000010;
	6773 :	11101001;
	6772 :	11110011;
	6771 :	11011100;
	6770 :	00100010;
	6769 :	00000001;
	6768 :	11100010;
	6767 :	11100011;
	6766 :	00000000;
	6765 :	00000111;
	6764 :	00011010;
	6763 :	00111100;
	6762 :	00001100;
	6761 :	00010100;
	6760 :	00010001;
	6759 :	00000000;
	6758 :	00001110;
	6757 :	11001111;
	6756 :	00001100;
	6755 :	11101100;
	6754 :	11111110;
	6753 :	00000111;
	6752 :	00011101;
	6751 :	11101000;
	6750 :	11001010;
	6749 :	11111010;
	6748 :	00001111;
	6747 :	11101110;
	6746 :	11100111;
	6745 :	00000100;
	6744 :	00010010;
	6743 :	11101100;
	6742 :	11111111;
	6741 :	00000000;
	6740 :	00010011;
	6739 :	11111001;
	6738 :	00010000;
	6737 :	00011010;
	6736 :	00001100;
	6735 :	11100100;
	6734 :	00000010;
	6733 :	11101001;
	6732 :	00000000;
	6731 :	00011011;
	6730 :	00011010;
	6729 :	00000110;
	6728 :	00000000;
	6727 :	00001011;
	6726 :	11111111;
	6725 :	11101110;
	6724 :	00011000;
	6723 :	11110000;
	6722 :	00010111;
	6721 :	00000001;
	6720 :	11110100;
	6719 :	11111100;
	6718 :	11110000;
	6717 :	11100011;
	6716 :	00001011;
	6715 :	00001100;
	6714 :	00010000;
	6713 :	11110100;
	6712 :	11111100;
	6711 :	11010111;
	6710 :	11111111;
	6709 :	00011011;
	6708 :	00010110;
	6707 :	00010100;
	6706 :	00011001;
	6705 :	11011100;
	6704 :	11110110;
	6703 :	11110011;
	6702 :	11110001;
	6701 :	11110010;
	6700 :	00000001;
	6699 :	11111111;
	6698 :	00111101;
	6697 :	00000101;
	6696 :	11110011;
	6695 :	00000001;
	6694 :	11111010;
	6693 :	00010111;
	6692 :	11101000;
	6691 :	00000010;
	6690 :	00001010;
	6689 :	00011001;
	6688 :	11111010;
	6687 :	00000001;
	6686 :	11111000;
	6685 :	00001100;
	6684 :	11100000;
	6683 :	11110100;
	6682 :	00001101;
	6681 :	00000110;
	6680 :	00010110;
	6679 :	00000001;
	6678 :	11101101;
	6677 :	00000010;
	6676 :	00011110;
	6675 :	00010010;
	6674 :	00001111;
	6673 :	00010110;
	6672 :	11101011;
	6671 :	11111100;
	6670 :	11011111;
	6669 :	00010001;
	6668 :	00000100;
	6667 :	11110011;
	6666 :	00000101;
	6665 :	00000000;
	6664 :	11110110;
	6663 :	00110011;
	6662 :	00000001;
	6661 :	11110000;
	6660 :	00000011;
	6659 :	00010000;
	6658 :	11111101;
	6657 :	11111111;
	6656 :	11110000;
	6655 :	00000011;
	6654 :	00010101;
	6653 :	00010010;
	6652 :	00000011;
	6651 :	11100010;
	6650 :	00011010;
	6649 :	00001100;
	6648 :	11111100;
	6647 :	00000101;
	6646 :	11111100;
	6645 :	00001110;
	6644 :	00101000;
	6643 :	00011010;
	6642 :	11101111;
	6641 :	11101110;
	6640 :	11111010;
	6639 :	00011010;
	6638 :	00010111;
	6637 :	11110011;
	6636 :	11100110;
	6635 :	00001110;
	6634 :	00001111;
	6633 :	11100011;
	6632 :	00010101;
	6631 :	11001111;
	6630 :	00001110;
	6629 :	00001001;
	6628 :	00001010;
	6627 :	11010111;
	6626 :	11100000;
	6625 :	00010111;
	6624 :	11101010;
	6623 :	11100011;
	6622 :	11101010;
	6621 :	00000010;
	6620 :	00100010;
	6619 :	11110100;
	6618 :	00010001;
	6617 :	00111001;
	6616 :	00001010;
	6615 :	11101000;
	6614 :	00000010;
	6613 :	00001101;
	6612 :	00000111;
	6611 :	00001100;
	6610 :	11110000;
	6609 :	00011001;
	6608 :	11111110;
	6607 :	00011001;
	6606 :	00010001;
	6605 :	00011001;
	6604 :	11110111;
	6603 :	11101101;
	6602 :	00000010;
	6601 :	11111101;
	6600 :	00010100;
	6599 :	00000010;
	6598 :	00100010;
	6597 :	11100010;
	6596 :	11101101;
	6595 :	00010010;
	6594 :	11111101;
	6593 :	11101101;
	6592 :	00000001;
	6591 :	00001000;
	6590 :	00010011;
	6589 :	00010110;
	6588 :	11101011;
	6587 :	00100011;
	6586 :	00011000;
	6585 :	11001101;
	6584 :	00010011;
	6583 :	00000110;
	6582 :	00000010;
	6581 :	00000000;
	6580 :	00001100;
	6579 :	00011001;
	6578 :	00000110;
	6577 :	00000011;
	6576 :	00010101;
	6575 :	11011101;
	6574 :	11110001;
	6573 :	11110011;
	6572 :	00100100;
	6571 :	11111100;
	6570 :	00000000;
	6569 :	00000000;
	6568 :	00001101;
	6567 :	11101111;
	6566 :	11101111;
	6565 :	00010001;
	6564 :	00010110;
	6563 :	11111111;
	6562 :	11110110;
	6561 :	00001101;
	6560 :	00011110;
	6559 :	11111111;
	6558 :	11101101;
	6557 :	11111011;
	6556 :	00101100;
	6555 :	11110100;
	6554 :	00010011;
	6553 :	00010010;
	6552 :	00001001;
	6551 :	11101111;
	6550 :	11110001;
	6549 :	00100001;
	6548 :	11111110;
	6547 :	00011101;
	6546 :	11100100;
	6545 :	00011100;
	6544 :	00001000;
	6543 :	00010111;
	6542 :	11101111;
	6541 :	00010111;
	6540 :	00000011;
	6539 :	00001110;
	6538 :	00010010;
	6537 :	11101100;
	6536 :	11101111;
	6535 :	11101110;
	6534 :	00001010;
	6533 :	11101111;
	6532 :	11110100;
	6531 :	11101010;
	6530 :	00001001;
	6529 :	11110001;
	6528 :	11111101;
	6527 :	00011100;
	6526 :	00000000;
	6525 :	00101111;
	6524 :	11110110;
	6523 :	00010101;
	6522 :	11111110;
	6521 :	00010101;
	6520 :	11111000;
	6519 :	00001101;
	6518 :	11110011;
	6517 :	00010100;
	6516 :	00010011;
	6515 :	00001000;
	6514 :	00001010;
	6513 :	00000100;
	6512 :	11101001;
	6511 :	00001011;
	6510 :	00001001;
	6509 :	00010011;
	6508 :	00001011;
	6507 :	11100010;
	6506 :	11010101;
	6505 :	11100000;
	6504 :	11110111;
	6503 :	00000011;
	6502 :	00001000;
	6501 :	00001101;
	6500 :	11100001;
	6499 :	11101100;
	6498 :	11110101;
	6497 :	00010110;
	6496 :	11101010;
	6495 :	11101011;
	6494 :	11111100;
	6493 :	11101101;
	6492 :	00010111;
	6491 :	11110101;
	6490 :	00110010;
	6489 :	11110110;
	6488 :	00010000;
	6487 :	00100110;
	6486 :	11110010;
	6485 :	00011010;
	6484 :	11110111;
	6483 :	11110011;
	6482 :	11011100;
	6481 :	00001111;
	6480 :	00010001;
	6479 :	11111101;
	6478 :	11010010;
	6477 :	11101001;
	6476 :	00100010;
	6475 :	11100010;
	6474 :	11101010;
	6473 :	00001000;
	6472 :	11101000;
	6471 :	11010001;
	6470 :	11101101;
	6469 :	11101101;
	6468 :	11010101;
	6467 :	11010010;
	6466 :	00001001;
	6465 :	11101011;
	6464 :	11111001;
	6463 :	00010101;
	6462 :	11110110;
	6461 :	11110110;
	6460 :	11111100;
	6459 :	11011000;
	6458 :	00010101;
	6457 :	11100100;
	6456 :	11001110;
	6455 :	00011010;
	6454 :	00010110;
	6453 :	00001100;
	6452 :	11010100;
	6451 :	11010000;
	6450 :	00001011;
	6449 :	00000000;
	6448 :	11100001;
	6447 :	11110111;
	6446 :	00100001;
	6445 :	11101101;
	6444 :	11100001;
	6443 :	11101111;
	6442 :	00010001;
	6441 :	00010101;
	6440 :	11110001;
	6439 :	00000101;
	6438 :	00010011;
	6437 :	11100100;
	6436 :	00010000;
	6435 :	00010100;
	6434 :	11110111;
	6433 :	11111110;
	6432 :	11011101;
	6431 :	11010001;
	6430 :	11101100;
	6429 :	11110000;
	6428 :	00010001;
	6427 :	11101101;
	6426 :	00001011;
	6425 :	11110110;
	6424 :	00000010;
	6423 :	00001011;
	6422 :	00010101;
	6421 :	11010000;
	6420 :	00001110;
	6419 :	11111111;
	6418 :	00100010;
	6417 :	00000001;
	6416 :	11111111;
	6415 :	00001010;
	6414 :	11100001;
	6413 :	00000011;
	6412 :	00011101;
	6411 :	00001001;
	6410 :	00000010;
	6409 :	11101111;
	6408 :	11011110;
	6407 :	00011010;
	6406 :	11111100;
	6405 :	11011100;
	6404 :	00000010;
	6403 :	11101100;
	6402 :	00001011;
	6401 :	11110011;
	6400 :	11101110;
	6399 :	00000101;
	6398 :	00100001;
	6397 :	11110000;
	6396 :	00001010;
	6395 :	00000000;
	6394 :	00000001;
	6393 :	00000000;
	6392 :	00010111;
	6391 :	11010100;
	6390 :	11011101;
	6389 :	00001000;
	6388 :	11111011;
	6387 :	11110010;
	6386 :	11110000;
	6385 :	00100001;
	6384 :	00001001;
	6383 :	00101111;
	6382 :	11101000;
	6381 :	00001111;
	6380 :	00000000;
	6379 :	11101111;
	6378 :	00000111;
	6377 :	00000111;
	6376 :	00000001;
	6375 :	11110101;
	6374 :	00000101;
	6373 :	11011101;
	6372 :	00011101;
	6371 :	00001110;
	6370 :	11000111;
	6369 :	00001001;
	6368 :	00000000;
	6367 :	00000101;
	6366 :	11111000;
	6365 :	00010001;
	6364 :	11100111;
	6363 :	11101011;
	6362 :	00000010;
	6361 :	11100001;
	6360 :	11110100;
	6359 :	00100001;
	6358 :	11101110;
	6357 :	11111110;
	6356 :	11101111;
	6355 :	00010010;
	6354 :	11101011;
	6353 :	11101100;
	6352 :	11110101;
	6351 :	11111111;
	6350 :	11101001;
	6349 :	11111100;
	6348 :	00000100;
	6347 :	11111011;
	6346 :	00010010;
	6345 :	11110011;
	6344 :	00000110;
	6343 :	11101000;
	6342 :	00000000;
	6341 :	00011010;
	6340 :	11101000;
	6339 :	00001011;
	6338 :	11100100;
	6337 :	00100000;
	6336 :	00011101;
	6335 :	00010011;
	6334 :	11111100;
	6333 :	00000011;
	6332 :	00000101;
	6331 :	00011011;
	6330 :	00000011;
	6329 :	11110110;
	6328 :	11110011;
	6327 :	00000011;
	6326 :	11111011;
	6325 :	11101010;
	6324 :	00101000;
	6323 :	00000101;
	6322 :	11110100;
	6321 :	00000110;
	6320 :	11101100;
	6319 :	11111000;
	6318 :	11111101;
	6317 :	11111101;
	6316 :	11110000;
	6315 :	00100011;
	6314 :	00100000;
	6313 :	11100111;
	6312 :	00001010;
	6311 :	00110010;
	6310 :	11111110;
	6309 :	11111110;
	6308 :	11111010;
	6307 :	00000010;
	6306 :	00100000;
	6305 :	00001111;
	6304 :	11101000;
	6303 :	11111110;
	6302 :	00010001;
	6301 :	00111010;
	6300 :	00010000;
	6299 :	00000101;
	6298 :	11101110;
	6297 :	11110101;
	6296 :	11101110;
	6295 :	11111110;
	6294 :	00011010;
	6293 :	00001110;
	6292 :	00000111;
	6291 :	00010100;
	6290 :	00000000;
	6289 :	00101100;
	6288 :	11101101;
	6287 :	11111001;
	6286 :	00101111;
	6285 :	11111000;
	6284 :	00001111;
	6283 :	00000111;
	6282 :	11101100;
	6281 :	11111011;
	6280 :	00000010;
	6279 :	11111100;
	6278 :	11111111;
	6277 :	00000000;
	6276 :	00001111;
	6275 :	00010101;
	6274 :	11101110;
	6273 :	00100011;
	6272 :	00000001;
	6271 :	00000001;
	6270 :	11101010;
	6269 :	11110111;
	6268 :	11110000;
	6267 :	00001011;
	6266 :	11011000;
	6265 :	11110000;
	6264 :	00000000;
	6263 :	00001010;
	6262 :	00000000;
	6261 :	00010110;
	6260 :	00000011;
	6259 :	11010001;
	6258 :	00001110;
	6257 :	11100110;
	6256 :	00010101;
	6255 :	00001100;
	6254 :	00000000;
	6253 :	00011000;
	6252 :	11110101;
	6251 :	00000010;
	6250 :	00010111;
	6249 :	00000000;
	6248 :	00001000;
	6247 :	11011011;
	6246 :	00010001;
	6245 :	11110110;
	6244 :	00100110;
	6243 :	11111000;
	6242 :	11101110;
	6241 :	00000101;
	6240 :	00010100;
	6239 :	00000000;
	6238 :	00010011;
	6237 :	11100110;
	6236 :	00000011;
	6235 :	11111011;
	6234 :	00010110;
	6233 :	00010100;
	6232 :	00001110;
	6231 :	11011001;
	6230 :	00100010;
	6229 :	00001010;
	6228 :	11110111;
	6227 :	00011000;
	6226 :	00001100;
	6225 :	11111101;
	6224 :	00010000;
	6223 :	00010001;
	6222 :	00001000;
	6221 :	00000100;
	6220 :	00000100;
	6219 :	11101001;
	6218 :	00101101;
	6217 :	00001001;
	6216 :	11000111;
	6215 :	11101101;
	6214 :	00010011;
	6213 :	00000000;
	6212 :	00000001;
	6211 :	11100110;
	6210 :	11110001;
	6209 :	11110001;
	6208 :	11110011;
	6207 :	00100101;
	6206 :	00011001;
	6205 :	00000100;
	6204 :	11100011;
	6203 :	11110111;
	6202 :	11111110;
	6201 :	00001101;
	6200 :	00011100;
	6199 :	00000000;
	6198 :	11111010;
	6197 :	00011000;
	6196 :	00010010;
	6195 :	00011011;
	6194 :	00000001;
	6193 :	00011110;
	6192 :	11110111;
	6191 :	11001111;
	6190 :	11011100;
	6189 :	11111000;
	6188 :	00010100;
	6187 :	11111000;
	6186 :	11100111;
	6185 :	11101000;
	6184 :	11111110;
	6183 :	00100010;
	6182 :	11110010;
	6181 :	11011001;
	6180 :	00001101;
	6179 :	00010000;
	6178 :	00001001;
	6177 :	11101101;
	6176 :	00000110;
	6175 :	00010001;
	6174 :	00010011;
	6173 :	11111011;
	6172 :	00000001;
	6171 :	00001101;
	6170 :	00100101;
	6169 :	11110111;
	6168 :	00000000;
	6167 :	00100000;
	6166 :	11010010;
	6165 :	00011000;
	6164 :	11011101;
	6163 :	00000010;
	6162 :	00001101;
	6161 :	11101101;
	6160 :	00000010;
	6159 :	11111000;
	6158 :	00010101;
	6157 :	00001101;
	6156 :	00000000;
	6155 :	11101100;
	6154 :	11110001;
	6153 :	11110010;
	6152 :	00000101;
	6151 :	11100100;
	6150 :	00010101;
	6149 :	11101110;
	6148 :	00000111;
	6147 :	11110011;
	6146 :	11111111;
	6145 :	00110000;
	6144 :	00001101;
	6143 :	00011000;
	6142 :	00000100;
	6141 :	00000011;
	6140 :	00101100;
	6139 :	00001001;
	6138 :	00010011;
	6137 :	00001000;
	6136 :	00000111;
	6135 :	00001100;
	6134 :	00000110;
	6133 :	11110000;
	6132 :	00000101;
	6131 :	11110011;
	6130 :	11011110;
	6129 :	00000111;
	6128 :	11101100;
	6127 :	11111011;
	6126 :	00001111;
	6125 :	00100011;
	6124 :	11101001;
	6123 :	00000110;
	6122 :	00010100;
	6121 :	11100101;
	6120 :	00000110;
	6119 :	00001011;
	6118 :	11101101;
	6117 :	11111011;
	6116 :	11110110;
	6115 :	00001011;
	6114 :	00001001;
	6113 :	00000110;
	6112 :	00011000;
	6111 :	00100001;
	6110 :	00110000;
	6109 :	11111010;
	6108 :	00010110;
	6107 :	00001110;
	6106 :	00001100;
	6105 :	00110100;
	6104 :	11101010;
	6103 :	00100010;
	6102 :	00010010;
	6101 :	00001011;
	6100 :	00011000;
	6099 :	11111100;
	6098 :	00001100;
	6097 :	00011010;
	6096 :	11100100;
	6095 :	11111010;
	6094 :	00010000;
	6093 :	11111010;
	6092 :	11111100;
	6091 :	11111111;
	6090 :	00010000;
	6089 :	00000000;
	6088 :	11111110;
	6087 :	00011101;
	6086 :	00100011;
	6085 :	00100111;
	6084 :	11100010;
	6083 :	11111101;
	6082 :	11111001;
	6081 :	11111001;
	6080 :	00010100;
	6079 :	00010000;
	6078 :	00000101;
	6077 :	00000100;
	6076 :	00001000;
	6075 :	00011011;
	6074 :	11111111;
	6073 :	00001000;
	6072 :	11101101;
	6071 :	11101000;
	6070 :	00010101;
	6069 :	11111011;
	6068 :	11110011;
	6067 :	11111011;
	6066 :	11101010;
	6065 :	11110000;
	6064 :	11110100;
	6063 :	00000011;
	6062 :	11101100;
	6061 :	11011000;
	6060 :	11101110;
	6059 :	11110110;
	6058 :	00011001;
	6057 :	11111000;
	6056 :	00110100;
	6055 :	00011001;
	6054 :	00011000;
	6053 :	00010011;
	6052 :	00001011;
	6051 :	00000100;
	6050 :	00001111;
	6049 :	11111110;
	6048 :	11101111;
	6047 :	11110001;
	6046 :	11111101;
	6045 :	00110001;
	6044 :	00001100;
	6043 :	11101110;
	6042 :	00000011;
	6041 :	11111101;
	6040 :	11110100;
	6039 :	00100001;
	6038 :	00011101;
	6037 :	11111010;
	6036 :	11101111;
	6035 :	00000001;
	6034 :	00000110;
	6033 :	11110010;
	6032 :	00011001;
	6031 :	11111111;
	6030 :	00000100;
	6029 :	11100110;
	6028 :	00000011;
	6027 :	00100000;
	6026 :	00001100;
	6025 :	11111111;
	6024 :	11111001;
	6023 :	00000101;
	6022 :	00011100;
	6021 :	11111010;
	6020 :	00101011;
	6019 :	00101100;
	6018 :	00001110;
	6017 :	00001111;
	6016 :	00001011;
	6015 :	00000101;
	6014 :	11111101;
	6013 :	11110001;
	6012 :	00000001;
	6011 :	11101110;
	6010 :	11111001;
	6009 :	11111001;
	6008 :	00010110;
	6007 :	11110101;
	6006 :	00000100;
	6005 :	00000000;
	6004 :	00000111;
	6003 :	11111000;
	6002 :	00101101;
	6001 :	11101110;
	6000 :	00010000;
	5999 :	11010111;
	5998 :	11101010;
	5997 :	11110011;
	5996 :	00001101;
	5995 :	11101000;
	5994 :	11011100;
	5993 :	00010100;
	5992 :	11100010;
	5991 :	11111100;
	5990 :	00000111;
	5989 :	11110101;
	5988 :	00000001;
	5987 :	00000111;
	5986 :	11110100;
	5985 :	11110111;
	5984 :	11100110;
	5983 :	00000000;
	5982 :	00000011;
	5981 :	11100100;
	5980 :	11101000;
	5979 :	00001101;
	5978 :	00000100;
	5977 :	11100001;
	5976 :	11110000;
	5975 :	00000100;
	5974 :	00010100;
	5973 :	11100010;
	5972 :	00000011;
	5971 :	00010001;
	5970 :	11111001;
	5969 :	11111101;
	5968 :	11011111;
	5967 :	11110100;
	5966 :	11011010;
	5965 :	11100000;
	5964 :	11100010;
	5963 :	00000101;
	5962 :	00000111;
	5961 :	11110001;
	5960 :	00000110;
	5959 :	11110010;
	5958 :	11101111;
	5957 :	11101100;
	5956 :	11110011;
	5955 :	11100110;
	5954 :	11111001;
	5953 :	11100000;
	5952 :	11111001;
	5951 :	00001011;
	5950 :	00000000;
	5949 :	00000100;
	5948 :	11010011;
	5947 :	11111100;
	5946 :	00001010;
	5945 :	11110110;
	5944 :	00010001;
	5943 :	11111100;
	5942 :	00001110;
	5941 :	11101111;
	5940 :	11101011;
	5939 :	00010001;
	5938 :	11101110;
	5937 :	11101110;
	5936 :	11111011;
	5935 :	00010100;
	5934 :	11100010;
	5933 :	00010010;
	5932 :	11110011;
	5931 :	00000000;
	5930 :	11100010;
	5929 :	00001000;
	5928 :	11110010;
	5927 :	00000000;
	5926 :	11100111;
	5925 :	00000000;
	5924 :	11101111;
	5923 :	00011110;
	5922 :	11101011;
	5921 :	11110110;
	5920 :	11111001;
	5919 :	00001000;
	5918 :	00001001;
	5917 :	11011101;
	5916 :	11110101;
	5915 :	11111100;
	5914 :	00001111;
	5913 :	11101000;
	5912 :	11101010;
	5911 :	11101111;
	5910 :	11101000;
	5909 :	00010100;
	5908 :	11011011;
	5907 :	11110110;
	5906 :	11110111;
	5905 :	00000010;
	5904 :	11111110;
	5903 :	11110101;
	5902 :	11111010;
	5901 :	11101111;
	5900 :	11011110;
	5899 :	00000110;
	5898 :	11101011;
	5897 :	00001110;
	5896 :	11100111;
	5895 :	11111101;
	5894 :	00010011;
	5893 :	11111000;
	5892 :	11100001;
	5891 :	11110001;
	5890 :	11100011;
	5889 :	11101110;
	5888 :	11110001;
	5887 :	00001101;
	5886 :	00001010;
	5885 :	11101111;
	5884 :	11011010;
	5883 :	00000010;
	5882 :	11110011;
	5881 :	00011000;
	5880 :	11011000;
	5879 :	11111100;
	5878 :	00000100;
	5877 :	11110110;
	5876 :	11111010;
	5875 :	00000110;
	5874 :	00001001;
	5873 :	11111001;
	5872 :	11101011;
	5871 :	11111000;
	5870 :	00001111;
	5869 :	11100111;
	5868 :	00000111;
	5867 :	11110111;
	5866 :	00001010;
	5865 :	11111100;
	5864 :	11110100;
	5863 :	00001101;
	5862 :	00000111;
	5861 :	11101000;
	5860 :	11101001;
	5859 :	11110001;
	5858 :	00000010;
	5857 :	11110010;
	5856 :	11110111;
	5855 :	00000010;
	5854 :	11110001;
	5853 :	11110100;
	5852 :	00000010;
	5851 :	11111010;
	5850 :	11111001;
	5849 :	11111001;
	5848 :	11101001;
	5847 :	11110100;
	5846 :	11110011;
	5845 :	11101101;
	5844 :	11100110;
	5843 :	11111101;
	5842 :	11111101;
	5841 :	11111010;
	5840 :	11110100;
	5839 :	11110101;
	5838 :	00000110;
	5837 :	00001001;
	5836 :	11111000;
	5835 :	00000000;
	5834 :	11111101;
	5833 :	11110111;
	5832 :	11111001;
	5831 :	00010001;
	5830 :	00000000;
	5829 :	00001111;
	5828 :	11111011;
	5827 :	11110111;
	5826 :	11111111;
	5825 :	00001011;
	5824 :	11111000;
	5823 :	11111010;
	5822 :	11111000;
	5821 :	00010011;
	5820 :	11111001;
	5819 :	11111100;
	5818 :	11110010;
	5817 :	00000110;
	5816 :	11100111;
	5815 :	00010001;
	5814 :	11101100;
	5813 :	11111111;
	5812 :	11110101;
	5811 :	00001011;
	5810 :	11110111;
	5809 :	00010000;
	5808 :	11111011;
	5807 :	00001000;
	5806 :	11111000;
	5805 :	11101011;
	5804 :	11111000;
	5803 :	00000101;
	5802 :	11111111;
	5801 :	00000100;
	5800 :	11111100;
	5799 :	11101101;
	5798 :	11110101;
	5797 :	11110100;
	5796 :	00000000;
	5795 :	11111001;
	5794 :	11111111;
	5793 :	11101101;
	5792 :	11111011;
	5791 :	11111010;
	5790 :	11111000;
	5789 :	00000111;
	5788 :	11111010;
	5787 :	00000101;
	5786 :	00001100;
	5785 :	11111111;
	5784 :	00000100;
	5783 :	11111000;
	5782 :	00001001;
	5781 :	11111111;
	5780 :	11101000;
	5779 :	11101111;
	5778 :	00001010;
	5777 :	11110110;
	5776 :	11100110;
	5775 :	00000111;
	5774 :	00000001;
	5773 :	00001010;
	5772 :	11100011;
	5771 :	11101001;
	5770 :	11111101;
	5769 :	00001010;
	5768 :	11101010;
	5767 :	11110001;
	5766 :	00000011;
	5765 :	00001010;
	5764 :	11101000;
	5763 :	11110001;
	5762 :	11111001;
	5761 :	11110110;
	5760 :	00001011;
	5759 :	11101111;
	5758 :	11110000;
	5757 :	11101010;
	5756 :	11100000;
	5755 :	00000100;
	5754 :	11111011;
	5753 :	00010011;
	5752 :	11111001;
	5751 :	00000001;
	5750 :	11100101;
	5749 :	11101001;
	5748 :	00000000;
	5747 :	11110001;
	5746 :	11110001;
	5745 :	11111001;
	5744 :	11110000;
	5743 :	11110011;
	5742 :	00001100;
	5741 :	00001011;
	5740 :	11110010;
	5739 :	11100001;
	5738 :	00000100;
	5737 :	11110001;
	5736 :	11110010;
	5735 :	11110111;
	5734 :	00001001;
	5733 :	11101000;
	5732 :	11110100;
	5731 :	00001001;
	5730 :	11101101;
	5729 :	11111111;
	5728 :	11100111;
	5727 :	11101000;
	5726 :	11111010;
	5725 :	11110110;
	5724 :	11111000;
	5723 :	11101100;
	5722 :	11110001;
	5721 :	00000011;
	5720 :	11101100;
	5719 :	11101011;
	5718 :	11101101;
	5717 :	00000110;
	5716 :	11101010;
	5715 :	11110101;
	5714 :	11101110;
	5713 :	11110101;
	5712 :	11111110;
	5711 :	11110001;
	5710 :	11101101;
	5709 :	11101010;
	5708 :	11110101;
	5707 :	00001101;
	5706 :	11111101;
	5705 :	11100011;
	5704 :	00010000;
	5703 :	11101100;
	5702 :	11110001;
	5701 :	11101011;
	5700 :	11110100;
	5699 :	00000000;
	5698 :	00001001;
	5697 :	00010011;
	5696 :	00000101;
	5695 :	00010001;
	5694 :	00000000;
	5693 :	00001001;
	5692 :	00001001;
	5691 :	00001000;
	5690 :	11101110;
	5689 :	11110010;
	5688 :	11101110;
	5687 :	11111110;
	5686 :	11111001;
	5685 :	11100011;
	5684 :	00001001;
	5683 :	11111011;
	5682 :	11110001;
	5681 :	11110100;
	5680 :	00001010;
	5679 :	11101111;
	5678 :	00000010;
	5677 :	11110010;
	5676 :	11100110;
	5675 :	00000111;
	5674 :	00000000;
	5673 :	11101101;
	5672 :	00000011;
	5671 :	11101101;
	5670 :	11101001;
	5669 :	00000110;
	5668 :	11100000;
	5667 :	00001000;
	5666 :	11111110;
	5665 :	11110110;
	5664 :	00000011;
	5663 :	00001111;
	5662 :	00001111;
	5661 :	11111010;
	5660 :	11110011;
	5659 :	11110101;
	5658 :	11101110;
	5657 :	00000110;
	5656 :	11100111;
	5655 :	11100011;
	5654 :	11110110;
	5653 :	11111111;
	5652 :	00001110;
	5651 :	00001011;
	5650 :	11111010;
	5649 :	11011110;
	5648 :	11111000;
	5647 :	11111010;
	5646 :	11111001;
	5645 :	11111111;
	5644 :	00001010;
	5643 :	00000000;
	5642 :	11110011;
	5641 :	11111110;
	5640 :	11100100;
	5639 :	00000001;
	5638 :	11100000;
	5637 :	11101100;
	5636 :	00001101;
	5635 :	11111010;
	5634 :	11101101;
	5633 :	00001000;
	5632 :	00110000;
	5631 :	11110000;
	5630 :	00010100;
	5629 :	00000110;
	5628 :	11101101;
	5627 :	11101010;
	5626 :	00001010;
	5625 :	00000001;
	5624 :	00001000;
	5623 :	00000111;
	5622 :	00010001;
	5621 :	00010011;
	5620 :	00100000;
	5619 :	00000100;
	5618 :	00000100;
	5617 :	11111101;
	5616 :	11101001;
	5615 :	00001001;
	5614 :	11110110;
	5613 :	11101111;
	5612 :	11101010;
	5611 :	11101011;
	5610 :	00000000;
	5609 :	00001100;
	5608 :	11110010;
	5607 :	11101100;
	5606 :	00000000;
	5605 :	11111010;
	5604 :	11110001;
	5603 :	00001000;
	5602 :	11110010;
	5601 :	00000010;
	5600 :	11101101;
	5599 :	00010101;
	5598 :	11110100;
	5597 :	00010001;
	5596 :	11101000;
	5595 :	00000010;
	5594 :	11111101;
	5593 :	00010100;
	5592 :	00011010;
	5591 :	00001111;
	5590 :	00001001;
	5589 :	00000111;
	5588 :	00000011;
	5587 :	00100011;
	5586 :	11110100;
	5585 :	11110101;
	5584 :	00000000;
	5583 :	00000100;
	5582 :	11110111;
	5581 :	00010111;
	5580 :	00010011;
	5579 :	11101111;
	5578 :	11101010;
	5577 :	00001010;
	5576 :	11110011;
	5575 :	00000011;
	5574 :	00011010;
	5573 :	00010010;
	5572 :	11011110;
	5571 :	11100001;
	5570 :	11111011;
	5569 :	11101110;
	5568 :	00000110;
	5567 :	00001010;
	5566 :	00000000;
	5565 :	11110000;
	5564 :	00000001;
	5563 :	00001110;
	5562 :	11101111;
	5561 :	00000110;
	5560 :	00010001;
	5559 :	00000101;
	5558 :	00001001;
	5557 :	00000000;
	5556 :	11101000;
	5555 :	11100000;
	5554 :	00000000;
	5553 :	11110101;
	5552 :	11110100;
	5551 :	00100010;
	5550 :	11101001;
	5549 :	11101100;
	5548 :	00101010;
	5547 :	11111110;
	5546 :	00000000;
	5545 :	00000010;
	5544 :	00000100;
	5543 :	11100111;
	5542 :	11110000;
	5541 :	11111111;
	5540 :	00010001;
	5539 :	00010101;
	5538 :	11111000;
	5537 :	11011111;
	5536 :	00001001;
	5535 :	11110101;
	5534 :	00010100;
	5533 :	11101111;
	5532 :	11111100;
	5531 :	00010010;
	5530 :	00000000;
	5529 :	11110111;
	5528 :	11101010;
	5527 :	00010110;
	5526 :	00001111;
	5525 :	00010110;
	5524 :	11101100;
	5523 :	11110100;
	5522 :	00011000;
	5521 :	00001101;
	5520 :	11110001;
	5519 :	00100000;
	5518 :	00001111;
	5517 :	00011000;
	5516 :	00011111;
	5515 :	11111110;
	5514 :	00100101;
	5513 :	00001011;
	5512 :	00000110;
	5511 :	00011010;
	5510 :	11111110;
	5509 :	11111001;
	5508 :	11101010;
	5507 :	11111000;
	5506 :	11111110;
	5505 :	00001100;
	5504 :	00001110;
	5503 :	11110100;
	5502 :	00000111;
	5501 :	00011100;
	5500 :	11111010;
	5499 :	00011001;
	5498 :	11111100;
	5497 :	11110111;
	5496 :	00011000;
	5495 :	11110001;
	5494 :	00000010;
	5493 :	00011110;
	5492 :	11111111;
	5491 :	00001100;
	5490 :	11110001;
	5489 :	11101110;
	5488 :	00011101;
	5487 :	00011001;
	5486 :	00010111;
	5485 :	00010011;
	5484 :	11110101;
	5483 :	00100011;
	5482 :	00001011;
	5481 :	11011111;
	5480 :	00001001;
	5479 :	00001111;
	5478 :	11111011;
	5477 :	11100101;
	5476 :	11110110;
	5475 :	00000100;
	5474 :	00001100;
	5473 :	00010101;
	5472 :	11111111;
	5471 :	00101010;
	5470 :	11111011;
	5469 :	00100110;
	5468 :	11101001;
	5467 :	11111101;
	5466 :	00011001;
	5465 :	00010101;
	5464 :	11110110;
	5463 :	00000101;
	5462 :	11111111;
	5461 :	00010010;
	5460 :	11110100;
	5459 :	11110010;
	5458 :	00000110;
	5457 :	00010001;
	5456 :	11010010;
	5455 :	00010000;
	5454 :	00011010;
	5453 :	00000000;
	5452 :	00000101;
	5451 :	00001110;
	5450 :	00001010;
	5449 :	00000011;
	5448 :	11111100;
	5447 :	11111110;
	5446 :	00111110;
	5445 :	11100111;
	5444 :	11110110;
	5443 :	00001110;
	5442 :	00000101;
	5441 :	00011111;
	5440 :	11110100;
	5439 :	00101011;
	5438 :	11100101;
	5437 :	00001100;
	5436 :	11111011;
	5435 :	00001010;
	5434 :	00000111;
	5433 :	00010000;
	5432 :	00000100;
	5431 :	00000100;
	5430 :	00011000;
	5429 :	00000010;
	5428 :	11101111;
	5427 :	00001100;
	5426 :	00000111;
	5425 :	11011100;
	5424 :	00001100;
	5423 :	11100000;
	5422 :	00100011;
	5421 :	00010001;
	5420 :	00001101;
	5419 :	00001100;
	5418 :	00000101;
	5417 :	11101000;
	5416 :	11111100;
	5415 :	11010010;
	5414 :	00000011;
	5413 :	11101011;
	5412 :	00001110;
	5411 :	11101100;
	5410 :	11100101;
	5409 :	00100100;
	5408 :	00001111;
	5407 :	11011011;
	5406 :	00000111;
	5405 :	11101100;
	5404 :	00100000;
	5403 :	11101111;
	5402 :	11111001;
	5401 :	11101100;
	5400 :	00001001;
	5399 :	11100101;
	5398 :	11101101;
	5397 :	11100001;
	5396 :	11100010;
	5395 :	00001001;
	5394 :	00001010;
	5393 :	00001101;
	5392 :	11100011;
	5391 :	00000010;
	5390 :	11110100;
	5389 :	00100001;
	5388 :	11111010;
	5387 :	11110111;
	5386 :	00000101;
	5385 :	00000111;
	5384 :	11100110;
	5383 :	11111111;
	5382 :	11110100;
	5381 :	11110111;
	5380 :	00001101;
	5379 :	11101111;
	5378 :	00001010;
	5377 :	11101110;
	5376 :	11100110;
	5375 :	00000010;
	5374 :	00010000;
	5373 :	11101000;
	5372 :	00000110;
	5371 :	11101001;
	5370 :	00010110;
	5369 :	00001011;
	5368 :	11110000;
	5367 :	00000101;
	5366 :	11101100;
	5365 :	00000001;
	5364 :	11110010;
	5363 :	11100100;
	5362 :	00001000;
	5361 :	11111101;
	5360 :	11110110;
	5359 :	00000001;
	5358 :	11111101;
	5357 :	11101111;
	5356 :	11111010;
	5355 :	00000011;
	5354 :	00010100;
	5353 :	00010000;
	5352 :	00000000;
	5351 :	00000101;
	5350 :	00000000;
	5349 :	11111110;
	5348 :	00001100;
	5347 :	11111101;
	5346 :	11111010;
	5345 :	11101111;
	5344 :	00000000;
	5343 :	11111010;
	5342 :	11111001;
	5341 :	11111001;
	5340 :	00001001;
	5339 :	11100110;
	5338 :	00000000;
	5337 :	11101110;
	5336 :	11110011;
	5335 :	11110100;
	5334 :	11110111;
	5333 :	00010100;
	5332 :	11111011;
	5331 :	00000011;
	5330 :	11111101;
	5329 :	00000001;
	5328 :	00001101;
	5327 :	00000000;
	5326 :	11110000;
	5325 :	00011111;
	5324 :	00001001;
	5323 :	00000100;
	5322 :	11101101;
	5321 :	00001010;
	5320 :	00001000;
	5319 :	00010101;
	5318 :	00000010;
	5317 :	11101101;
	5316 :	11101110;
	5315 :	11100001;
	5314 :	00001011;
	5313 :	11110110;
	5312 :	11100111;
	5311 :	11111010;
	5310 :	11100110;
	5309 :	00001010;
	5308 :	00000001;
	5307 :	11100011;
	5306 :	11110100;
	5305 :	11101100;
	5304 :	11101111;
	5303 :	00000011;
	5302 :	11100111;
	5301 :	11111011;
	5300 :	00000110;
	5299 :	00000011;
	5298 :	00001000;
	5297 :	11100101;
	5296 :	11110111;
	5295 :	00001000;
	5294 :	00010100;
	5293 :	11111111;
	5292 :	00000100;
	5291 :	11110111;
	5290 :	11111011;
	5289 :	11110010;
	5288 :	00000011;
	5287 :	11101101;
	5286 :	00000000;
	5285 :	11101101;
	5284 :	11111100;
	5283 :	00000000;
	5282 :	11110000;
	5281 :	00001000;
	5280 :	11100000;
	5279 :	00010011;
	5278 :	00000001;
	5277 :	11110011;
	5276 :	11111000;
	5275 :	00011000;
	5274 :	11110100;
	5273 :	00000000;
	5272 :	00011000;
	5271 :	00011100;
	5270 :	00011100;
	5269 :	00001101;
	5268 :	11100100;
	5267 :	11111110;
	5266 :	11101001;
	5265 :	11110000;
	5264 :	00000011;
	5263 :	00100001;
	5262 :	00010010;
	5261 :	11111001;
	5260 :	00010111;
	5259 :	00001000;
	5258 :	00001101;
	5257 :	11101110;
	5256 :	00100001;
	5255 :	11111011;
	5254 :	11110101;
	5253 :	11111010;
	5252 :	00001101;
	5251 :	00010110;
	5250 :	11111100;
	5249 :	00001111;
	5248 :	11111001;
	5247 :	11111011;
	5246 :	00011010;
	5245 :	11101001;
	5244 :	11011111;
	5243 :	11110011;
	5242 :	11111111;
	5241 :	11110011;
	5240 :	00011010;
	5239 :	11101101;
	5238 :	00010100;
	5237 :	00101001;
	5236 :	11111010;
	5235 :	11101110;
	5234 :	00010010;
	5233 :	00010011;
	5232 :	11011101;
	5231 :	11111101;
	5230 :	00001111;
	5229 :	11101110;
	5228 :	00000001;
	5227 :	00001110;
	5226 :	11110001;
	5225 :	00011010;
	5224 :	00000110;
	5223 :	11110011;
	5222 :	11111101;
	5221 :	11101001;
	5220 :	11101101;
	5219 :	00100001;
	5218 :	00000011;
	5217 :	00000100;
	5216 :	11001010;
	5215 :	00001011;
	5214 :	11101101;
	5213 :	00001001;
	5212 :	00001010;
	5211 :	00011011;
	5210 :	00000011;
	5209 :	00010010;
	5208 :	00100000;
	5207 :	11111110;
	5206 :	11111010;
	5205 :	11100110;
	5204 :	11111101;
	5203 :	11011100;
	5202 :	00000000;
	5201 :	00010111;
	5200 :	11110101;
	5199 :	11101000;
	5198 :	11111101;
	5197 :	00010110;
	5196 :	00000111;
	5195 :	00000011;
	5194 :	11111010;
	5193 :	00011001;
	5192 :	11110010;
	5191 :	11101100;
	5190 :	00100101;
	5189 :	00001100;
	5188 :	00000000;
	5187 :	00000010;
	5186 :	00100000;
	5185 :	00101001;
	5184 :	00000000;
	5183 :	11110111;
	5182 :	00001100;
	5181 :	00001101;
	5180 :	00001010;
	5179 :	11111111;
	5178 :	00100010;
	5177 :	11010010;
	5176 :	00011011;
	5175 :	00011111;
	5174 :	00000111;
	5173 :	00001001;
	5172 :	11110010;
	5171 :	00000001;
	5170 :	11010001;
	5169 :	11110001;
	5168 :	00000110;
	5167 :	11111110;
	5166 :	00000111;
	5165 :	00010111;
	5164 :	00001101;
	5163 :	11111101;
	5162 :	00000001;
	5161 :	11101110;
	5160 :	00010111;
	5159 :	11100101;
	5158 :	00011110;
	5157 :	00010110;
	5156 :	11010110;
	5155 :	00001110;
	5154 :	00010001;
	5153 :	00000011;
	5152 :	11111110;
	5151 :	00001010;
	5150 :	00010011;
	5149 :	00011011;
	5148 :	00011010;
	5147 :	11111100;
	5146 :	11111111;
	5145 :	11010011;
	5144 :	00010111;
	5143 :	11111010;
	5142 :	11111001;
	5141 :	00010100;
	5140 :	00000011;
	5139 :	11110011;
	5138 :	11100000;
	5137 :	00010000;
	5136 :	11111100;
	5135 :	11101100;
	5134 :	00001001;
	5133 :	11101110;
	5132 :	00001010;
	5131 :	11101111;
	5130 :	11110010;
	5129 :	00011001;
	5128 :	00011001;
	5127 :	11111011;
	5126 :	11100101;
	5125 :	00000000;
	5124 :	00100001;
	5123 :	11110010;
	5122 :	00001100;
	5121 :	00011101;
	5120 :	00001000;
	5119 :	00000111;
	5118 :	00100000;
	5117 :	11110101;
	5116 :	00010111;
	5115 :	11111111;
	5114 :	11101101;
	5113 :	00000110;
	5112 :	11111001;
	5111 :	00000110;
	5110 :	00010101;
	5109 :	11100010;
	5108 :	00011011;
	5107 :	00000000;
	5106 :	00101000;
	5105 :	11110011;
	5104 :	11101111;
	5103 :	00000001;
	5102 :	00010001;
	5101 :	00001011;
	5100 :	11110100;
	5099 :	11111111;
	5098 :	11110101;
	5097 :	11111111;
	5096 :	00101100;
	5095 :	00001001;
	5094 :	11100110;
	5093 :	00000000;
	5092 :	11101001;
	5091 :	00011010;
	5090 :	11100111;
	5089 :	11010100;
	5088 :	00001101;
	5087 :	00000100;
	5086 :	00000000;
	5085 :	00101001;
	5084 :	11111011;
	5083 :	00001100;
	5082 :	11101101;
	5081 :	11011100;
	5080 :	00001100;
	5079 :	00000011;
	5078 :	00010101;
	5077 :	00100111;
	5076 :	00001110;
	5075 :	11101011;
	5074 :	11110001;
	5073 :	11110010;
	5072 :	00100001;
	5071 :	00110001;
	5070 :	00010001;
	5069 :	00000111;
	5068 :	00011000;
	5067 :	00100011;
	5066 :	00001110;
	5065 :	00001100;
	5064 :	11110100;
	5063 :	00000011;
	5062 :	11101101;
	5061 :	11111000;
	5060 :	00000000;
	5059 :	00000100;
	5058 :	11110110;
	5057 :	11111101;
	5056 :	00000111;
	5055 :	00101100;
	5054 :	11101101;
	5053 :	00011010;
	5052 :	00100001;
	5051 :	11111010;
	5050 :	00101001;
	5049 :	11011010;
	5048 :	00010010;
	5047 :	00011001;
	5046 :	11111010;
	5045 :	00001011;
	5044 :	00000101;
	5043 :	00000111;
	5042 :	11111011;
	5041 :	00100000;
	5040 :	00010011;
	5039 :	11100100;
	5038 :	11111011;
	5037 :	11101001;
	5036 :	11011110;
	5035 :	00100001;
	5034 :	00010110;
	5033 :	11101111;
	5032 :	11111001;
	5031 :	11101011;
	5030 :	11100100;
	5029 :	11111111;
	5028 :	00100011;
	5027 :	00011001;
	5026 :	00010100;
	5025 :	11100011;
	5024 :	00000100;
	5023 :	00011110;
	5022 :	00001010;
	5021 :	11111000;
	5020 :	00000001;
	5019 :	11110110;
	5018 :	00100111;
	5017 :	00100100;
	5016 :	11100001;
	5015 :	00010111;
	5014 :	00000011;
	5013 :	11101001;
	5012 :	00011001;
	5011 :	11110011;
	5010 :	11111101;
	5009 :	00000000;
	5008 :	00001111;
	5007 :	00001001;
	5006 :	11111001;
	5005 :	00100110;
	5004 :	00011110;
	5003 :	11001100;
	5002 :	11101100;
	5001 :	11111010;
	5000 :	00011101;
	4999 :	00000100;
	4998 :	11100100;
	4997 :	11110011;
	4996 :	00010011;
	4995 :	11110100;
	4994 :	00001101;
	4993 :	00010111;
	4992 :	00000010;
	4991 :	11110010;
	4990 :	00000010;
	4989 :	11111011;
	4988 :	00001101;
	4987 :	00000000;
	4986 :	00000011;
	4985 :	11100011;
	4984 :	00010001;
	4983 :	00010111;
	4982 :	11110010;
	4981 :	00000010;
	4980 :	11110100;
	4979 :	11100000;
	4978 :	00010001;
	4977 :	00011011;
	4976 :	00001111;
	4975 :	00010100;
	4974 :	00000000;
	4973 :	11110001;
	4972 :	11010011;
	4971 :	11110111;
	4970 :	00001111;
	4969 :	11111011;
	4968 :	11111111;
	4967 :	00001011;
	4966 :	00001011;
	4965 :	00110110;
	4964 :	00011010;
	4963 :	00000110;
	4962 :	00010000;
	4961 :	11110100;
	4960 :	00001000;
	4959 :	00100100;
	4958 :	00001110;
	4957 :	11111011;
	4956 :	00001100;
	4955 :	00000000;
	4954 :	00000111;
	4953 :	11101011;
	4952 :	00001001;
	4951 :	00000100;
	4950 :	00011001;
	4949 :	11101000;
	4948 :	00001011;
	4947 :	11101010;
	4946 :	11110110;
	4945 :	00000100;
	4944 :	00001011;
	4943 :	00001010;
	4942 :	11111100;
	4941 :	00000111;
	4940 :	00001110;
	4939 :	00010111;
	4938 :	00001000;
	4937 :	00011100;
	4936 :	11110011;
	4935 :	00001011;
	4934 :	11111110;
	4933 :	11111101;
	4932 :	11111000;
	4931 :	00000011;
	4930 :	00011111;
	4929 :	11111111;
	4928 :	00010011;
	4927 :	11110100;
	4926 :	00001001;
	4925 :	00010010;
	4924 :	11110100;
	4923 :	11110011;
	4922 :	00000001;
	4921 :	00000010;
	4920 :	11101011;
	4919 :	00001111;
	4918 :	11111001;
	4917 :	11111011;
	4916 :	00000100;
	4915 :	00000000;
	4914 :	11100100;
	4913 :	00001000;
	4912 :	00000011;
	4911 :	00011111;
	4910 :	11110110;
	4909 :	00000001;
	4908 :	00001011;
	4907 :	00000111;
	4906 :	11111010;
	4905 :	11010001;
	4904 :	00001001;
	4903 :	00000010;
	4902 :	11101100;
	4901 :	00010001;
	4900 :	11101001;
	4899 :	00011010;
	4898 :	11110000;
	4897 :	00001110;
	4896 :	00101101;
	4895 :	00001110;
	4894 :	00000010;
	4893 :	00001000;
	4892 :	11110111;
	4891 :	00011011;
	4890 :	11100100;
	4889 :	11110110;
	4888 :	11110110;
	4887 :	11111000;
	4886 :	00011000;
	4885 :	11101001;
	4884 :	00001101;
	4883 :	00101001;
	4882 :	11110011;
	4881 :	00010100;
	4880 :	00000100;
	4879 :	11110111;
	4878 :	00001110;
	4877 :	00011100;
	4876 :	11110001;
	4875 :	11111000;
	4874 :	11110010;
	4873 :	11111001;
	4872 :	00000000;
	4871 :	00001101;
	4870 :	11011000;
	4869 :	00000000;
	4868 :	00001001;
	4867 :	11101101;
	4866 :	00011110;
	4865 :	11111111;
	4864 :	00000000;
	4863 :	11110100;
	4862 :	00000000;
	4861 :	00000000;
	4860 :	00001101;
	4859 :	00000100;
	4858 :	11111000;
	4857 :	00000000;
	4856 :	11001111;
	4855 :	00000011;
	4854 :	00011011;
	4853 :	11110101;
	4852 :	00011110;
	4851 :	00000000;
	4850 :	00001011;
	4849 :	00100110;
	4848 :	00010100;
	4847 :	11111100;
	4846 :	11101111;
	4845 :	00000001;
	4844 :	11110011;
	4843 :	11101011;
	4842 :	11110000;
	4841 :	00100011;
	4840 :	00001000;
	4839 :	00000000;
	4838 :	11101000;
	4837 :	00000101;
	4836 :	00010000;
	4835 :	00110001;
	4834 :	00001101;
	4833 :	00101010;
	4832 :	00001010;
	4831 :	00000010;
	4830 :	00010101;
	4829 :	00001010;
	4828 :	11110111;
	4827 :	11110010;
	4826 :	11100101;
	4825 :	00000111;
	4824 :	11110100;
	4823 :	11111011;
	4822 :	00000000;
	4821 :	11111110;
	4820 :	11111100;
	4819 :	11010000;
	4818 :	00011010;
	4817 :	11101001;
	4816 :	00001010;
	4815 :	11101010;
	4814 :	11110101;
	4813 :	00010010;
	4812 :	11111010;
	4811 :	00000100;
	4810 :	00001110;
	4809 :	00010110;
	4808 :	00010000;
	4807 :	00000110;
	4806 :	00001000;
	4805 :	00001111;
	4804 :	00000111;
	4803 :	00010000;
	4802 :	00000111;
	4801 :	00011111;
	4800 :	00000110;
	4799 :	00010011;
	4798 :	11110001;
	4797 :	00010000;
	4796 :	00110100;
	4795 :	11111001;
	4794 :	00011110;
	4793 :	11110100;
	4792 :	00010101;
	4791 :	00000001;
	4790 :	11111111;
	4789 :	11110010;
	4788 :	11101110;
	4787 :	00000001;
	4786 :	11110110;
	4785 :	00111010;
	4784 :	00001000;
	4783 :	00000011;
	4782 :	11101111;
	4781 :	00010000;
	4780 :	00100001;
	4779 :	11100011;
	4778 :	11100001;
	4777 :	11100111;
	4776 :	00000000;
	4775 :	00011111;
	4774 :	00000010;
	4773 :	00010001;
	4772 :	11011000;
	4771 :	11011111;
	4770 :	00011101;
	4769 :	11110001;
	4768 :	11110100;
	4767 :	00010000;
	4766 :	00010011;
	4765 :	11010110;
	4764 :	11011000;
	4763 :	00001001;
	4762 :	11101100;
	4761 :	00000101;
	4760 :	00000000;
	4759 :	11111110;
	4758 :	00100011;
	4757 :	00001100;
	4756 :	00001010;
	4755 :	00000101;
	4754 :	11111010;
	4753 :	00011000;
	4752 :	00000101;
	4751 :	11101100;
	4750 :	11110001;
	4749 :	00000100;
	4748 :	00000110;
	4747 :	00000111;
	4746 :	00010001;
	4745 :	11110000;
	4744 :	11111011;
	4743 :	11101111;
	4742 :	11110110;
	4741 :	00010101;
	4740 :	00001001;
	4739 :	00000111;
	4738 :	11111101;
	4737 :	11111001;
	4736 :	11100001;
	4735 :	00001001;
	4734 :	11111001;
	4733 :	11111011;
	4732 :	00100011;
	4731 :	11111100;
	4730 :	11110100;
	4729 :	00001010;
	4728 :	00001101;
	4727 :	00101000;
	4726 :	11101110;
	4725 :	10110110;
	4724 :	00001011;
	4723 :	11011110;
	4722 :	11110110;
	4721 :	11111110;
	4720 :	11110110;
	4719 :	11110100;
	4718 :	11110110;
	4717 :	00010011;
	4716 :	00010100;
	4715 :	11111001;
	4714 :	11101011;
	4713 :	00101111;
	4712 :	00000011;
	4711 :	11111111;
	4710 :	00001011;
	4709 :	00001101;
	4708 :	11111100;
	4707 :	11110000;
	4706 :	00011111;
	4705 :	00011001;
	4704 :	00000110;
	4703 :	00010010;
	4702 :	11101111;
	4701 :	11110010;
	4700 :	00011101;
	4699 :	00010011;
	4698 :	00100011;
	4697 :	11011101;
	4696 :	00100001;
	4695 :	00011010;
	4694 :	11110011;
	4693 :	00011110;
	4692 :	11111011;
	4691 :	00001100;
	4690 :	11001100;
	4689 :	11110100;
	4688 :	00000100;
	4687 :	00010000;
	4686 :	00000111;
	4685 :	00000000;
	4684 :	11111100;
	4683 :	11101000;
	4682 :	00011001;
	4681 :	11101101;
	4680 :	00010000;
	4679 :	00001100;
	4678 :	11101100;
	4677 :	00001010;
	4676 :	00100000;
	4675 :	11100111;
	4674 :	00100000;
	4673 :	00000000;
	4672 :	11111001;
	4671 :	11100001;
	4670 :	11101101;
	4669 :	00010101;
	4668 :	00001100;
	4667 :	00000100;
	4666 :	00000001;
	4665 :	01000001;
	4664 :	11101101;
	4663 :	00000000;
	4662 :	00000011;
	4661 :	00010101;
	4660 :	00010000;
	4659 :	11010110;
	4658 :	00001101;
	4657 :	00000000;
	4656 :	11100011;
	4655 :	11111001;
	4654 :	11110011;
	4653 :	00000001;
	4652 :	11110010;
	4651 :	11101001;
	4650 :	00000010;
	4649 :	00010110;
	4648 :	00011000;
	4647 :	11110011;
	4646 :	00000010;
	4645 :	00000110;
	4644 :	00001100;
	4643 :	11100101;
	4642 :	00010011;
	4641 :	00001111;
	4640 :	11111011;
	4639 :	00001111;
	4638 :	00011111;
	4637 :	11111001;
	4636 :	00010010;
	4635 :	00001101;
	4634 :	11111100;
	4633 :	11101101;
	4632 :	00100000;
	4631 :	00001011;
	4630 :	11101110;
	4629 :	00000101;
	4628 :	11111000;
	4627 :	11100001;
	4626 :	11110000;
	4625 :	11100110;
	4624 :	00000101;
	4623 :	00001011;
	4622 :	11110100;
	4621 :	11100110;
	4620 :	00001111;
	4619 :	11101011;
	4618 :	00101011;
	4617 :	11100110;
	4616 :	00100000;
	4615 :	00000110;
	4614 :	00001110;
	4613 :	11111100;
	4612 :	00011001;
	4611 :	11111101;
	4610 :	00001011;
	4609 :	00010101;
	4608 :	11110011;
	4607 :	00001011;
	4606 :	11111110;
	4605 :	11100110;
	4604 :	11111011;
	4603 :	00101101;
	4602 :	00000000;
	4601 :	11100110;
	4600 :	00000110;
	4599 :	00001100;
	4598 :	00101000;
	4597 :	11101001;
	4596 :	00001101;
	4595 :	11101011;
	4594 :	11111111;
	4593 :	11010000;
	4592 :	00101000;
	4591 :	00000101;
	4590 :	11110001;
	4589 :	11110000;
	4588 :	00010101;
	4587 :	11110010;
	4586 :	00000100;
	4585 :	11111110;
	4584 :	00000001;
	4583 :	11111111;
	4582 :	11111010;
	4581 :	11110000;
	4580 :	11101111;
	4579 :	00101001;
	4578 :	11111010;
	4577 :	00000011;
	4576 :	11101111;
	4575 :	00011010;
	4574 :	00010100;
	4573 :	00001010;
	4572 :	00001001;
	4571 :	00001011;
	4570 :	00001101;
	4569 :	00000000;
	4568 :	00000001;
	4567 :	00001111;
	4566 :	00000110;
	4565 :	00000100;
	4564 :	00000100;
	4563 :	11110110;
	4562 :	00000110;
	4561 :	11101010;
	4560 :	11111000;
	4559 :	00000011;
	4558 :	11100111;
	4557 :	11111010;
	4556 :	00010000;
	4555 :	00010111;
	4554 :	00001111;
	4553 :	11110111;
	4552 :	00000011;
	4551 :	11101111;
	4550 :	00010111;
	4549 :	00010100;
	4548 :	00100000;
	4547 :	11101001;
	4546 :	11111010;
	4545 :	00111001;
	4544 :	11110110;
