-- begin_signature
-- layer2_weight_rom(CHANNEL_ID
-- 15)
-- end_signature
WIDTH=8;
DEPTH=150;

ADDRESS_RADIX=UNS;
DATA_RADIX=BIN;

CONTENT BEGIN
	149 :	11110010;
	148 :	00100111;
	147 :	00111011;
	146 :	11111010;
	145 :	11000001;
	144 :	00001110;
	143 :	01010010;
	142 :	01001010;
	141 :	10111011;
	140 :	10110110;
	139 :	00011100;
	138 :	01001110;
	137 :	00011110;
	136 :	10001110;
	135 :	11111011;
	134 :	00101110;
	133 :	01001001;
	132 :	11110100;
	131 :	10110100;
	130 :	00100000;
	129 :	00110111;
	128 :	00101100;
	127 :	11011010;
	126 :	11011000;
	125 :	00010111;
	124 :	11011010;
	123 :	00010000;
	122 :	00110011;
	121 :	00001110;
	120 :	00001001;
	119 :	11001101;
	118 :	00010101;
	117 :	00101101;
	116 :	00011011;
	115 :	11010110;
	114 :	11011111;
	113 :	00010101;
	112 :	00101101;
	111 :	00001110;
	110 :	11001111;
	109 :	11111100;
	108 :	00101110;
	107 :	00000010;
	106 :	11101110;
	105 :	11100010;
	104 :	00010000;
	103 :	00010100;
	102 :	00001111;
	101 :	11101011;
	100 :	11111011;
	99 :	11101101;
	98 :	00000001;
	97 :	00000001;
	96 :	00000100;
	95 :	00010000;
	94 :	11110110;
	93 :	11101000;
	92 :	11111111;
	91 :	11111101;
	90 :	11100101;
	89 :	11110000;
	88 :	11111001;
	87 :	00001011;
	86 :	11101101;
	85 :	11010001;
	84 :	11100101;
	83 :	00010101;
	82 :	00011011;
	81 :	11100101;
	80 :	11111001;
	79 :	00011100;
	78 :	00010011;
	77 :	00010001;
	76 :	00001000;
	75 :	11110111;
	74 :	00000101;
	73 :	00001000;
	72 :	00011011;
	71 :	11110000;
	70 :	11100011;
	69 :	00001100;
	68 :	00100100;
	67 :	11111001;
	66 :	11101000;
	65 :	11011011;
	64 :	00000100;
	63 :	00001011;
	62 :	11110100;
	61 :	11001101;
	60 :	11011110;
	59 :	00010010;
	58 :	00001010;
	57 :	00001111;
	56 :	11110011;
	55 :	00000000;
	54 :	00001110;
	53 :	00011000;
	52 :	00011010;
	51 :	11110011;
	50 :	11110011;
	49 :	00001010;
	48 :	11100110;
	47 :	11001000;
	46 :	11011001;
	45 :	00010101;
	44 :	11000110;
	43 :	10100011;
	42 :	10100011;
	41 :	11001011;
	40 :	00110000;
	39 :	10101011;
	38 :	10011011;
	37 :	10111001;
	36 :	11110110;
	35 :	00110100;
	34 :	10111100;
	33 :	10110010;
	32 :	11000000;
	31 :	11101010;
	30 :	11111101;
	29 :	11011010;
	28 :	11011011;
	27 :	11001101;
	26 :	11011000;
	25 :	11101111;
	24 :	00000001;
	23 :	00001100;
	22 :	00000110;
	21 :	11110001;
	20 :	11110011;
	19 :	00000101;
	18 :	00011101;
	17 :	00000011;
	16 :	11000110;
	15 :	11100010;
	14 :	00010000;
	13 :	00010100;
	12 :	11001010;
	11 :	11011011;
	10 :	00010010;
	9 :	00010010;
	8 :	00000001;
	7 :	11101100;
	6 :	00001100;
	5 :	00011101;
	4 :	11110110;
	3 :	00000000;
	2 :	11111011;
	1 :	11111101;
	0 :	00001010;
END;
