-- begin_signature
-- layer2_weight_rom(CHANNEL_ID
-- 4)
-- end_signature
WIDTH=8;
DEPTH=150;

ADDRESS_RADIX=UNS;
DATA_RADIX=BIN;

CONTENT BEGIN
	149 :	11111010;
	148 :	11010000;
	147 :	11010111;
	146 :	11110001;
	145 :	00001011;
	144 :	10111010;
	143 :	10110000;
	142 :	10101100;
	141 :	10101010;
	140 :	11010100;
	139 :	11011100;
	138 :	11110010;
	137 :	00000101;
	136 :	11010110;
	135 :	11010100;
	134 :	11100110;
	133 :	11111111;
	132 :	00001011;
	131 :	00000111;
	130 :	00001011;
	129 :	11111101;
	128 :	11011001;
	127 :	11111010;
	126 :	00100100;
	125 :	00011100;
	124 :	00000001;
	123 :	00010101;
	122 :	11110001;
	121 :	11111010;
	120 :	00001101;
	119 :	00000011;
	118 :	11110100;
	117 :	11011011;
	116 :	10111011;
	115 :	11010001;
	114 :	11100100;
	113 :	11011011;
	112 :	11110101;
	111 :	11111001;
	110 :	11001111;
	109 :	00001001;
	108 :	00001001;
	107 :	00010011;
	106 :	00000000;
	105 :	11101010;
	104 :	00101011;
	103 :	00001000;
	102 :	00001011;
	101 :	11111000;
	100 :	00001110;
	99 :	00101001;
	98 :	00101110;
	97 :	00101100;
	96 :	00101111;
	95 :	00110001;
	94 :	11111001;
	93 :	11111000;
	92 :	11100010;
	91 :	11011010;
	90 :	00001111;
	89 :	11000011;
	88 :	11000000;
	87 :	11110010;
	86 :	11001001;
	85 :	10100110;
	84 :	00000011;
	83 :	00001101;
	82 :	00010110;
	81 :	00001000;
	80 :	00001000;
	79 :	00000101;
	78 :	00000111;
	77 :	00001010;
	76 :	00010000;
	75 :	00001001;
	74 :	00000101;
	73 :	00001001;
	72 :	11101010;
	71 :	11110110;
	70 :	00011100;
	69 :	00000010;
	68 :	11111011;
	67 :	11001011;
	66 :	10110101;
	65 :	11010111;
	64 :	11100000;
	63 :	11011100;
	62 :	11110100;
	61 :	11111001;
	60 :	11100010;
	59 :	11101010;
	58 :	00000011;
	57 :	00001011;
	56 :	00100101;
	55 :	11110111;
	54 :	00011011;
	53 :	00010100;
	52 :	00001010;
	51 :	11110101;
	50 :	00100001;
	49 :	11110011;
	48 :	00001011;
	47 :	00100111;
	46 :	00010100;
	45 :	11111111;
	44 :	11110100;
	43 :	00110110;
	42 :	01100111;
	41 :	01011010;
	40 :	00111101;
	39 :	01001100;
	38 :	01000010;
	37 :	01010100;
	36 :	01011010;
	35 :	01111111;
	34 :	00011000;
	33 :	00000100;
	32 :	00000100;
	31 :	00000011;
	30 :	11111110;
	29 :	11110110;
	28 :	00011110;
	27 :	00011001;
	26 :	00001011;
	25 :	00000001;
	24 :	00001010;
	23 :	11010110;
	22 :	10111110;
	21 :	11000011;
	20 :	11110101;
	19 :	10111101;
	18 :	11011000;
	17 :	11010010;
	16 :	10110110;
	15 :	10110011;
	14 :	00100010;
	13 :	00100100;
	12 :	00101001;
	11 :	00010001;
	10 :	11111100;
	9 :	00110100;
	8 :	00010010;
	7 :	00000000;
	6 :	00001010;
	5 :	00101011;
	4 :	00001010;
	3 :	11110001;
	2 :	11101110;
	1 :	00000000;
	0 :	11110110;
END;
