-- begin_signature
-- layer1_weight_rom(CHANNEL_ID
-- 3)
-- end_signature
WIDTH=8;
DEPTH=32;

ADDRESS_RADIX=UNS;
DATA_RADIX=BIN;

CONTENT BEGIN
	31 :	XXXXXXXX;
	30 :	XXXXXXXX;
	29 :	XXXXXXXX;
	28 :	XXXXXXXX;
	27 :	XXXXXXXX;
	26 :	XXXXXXXX;
	25 :	XXXXXXXX;
	24 :	00100010;
	23 :	01001101;
	22 :	00101111;
	21 :	11101010;
	20 :	11010010;
	19 :	00011110;
	18 :	11111000;
	17 :	00101010;
	16 :	00000010;
	15 :	00111010;
	14 :	00100001;
	13 :	00011101;
	12 :	11111110;
	11 :	01001101;
	10 :	11111111;
	9 :	00011011;
	8 :	00010000;
	7 :	00001111;
	6 :	00110001;
	5 :	00010001;
	4 :	10101010;
	3 :	10000110;
	2 :	10111011;
	1 :	11000000;
	0 :	00000010;
END;
