-- begin_signature
-- layer2_weight_rom(CHANNEL_ID
-- 1)
-- end_signature
WIDTH=8;
DEPTH=150;

ADDRESS_RADIX=UNS;
DATA_RADIX=BIN;

CONTENT BEGIN
	149 :	00000110;
	148 :	00000000;
	147 :	11111110;
	146 :	00001110;
	145 :	00000110;
	144 :	11101111;
	143 :	00000011;
	142 :	00001011;
	141 :	00010111;
	140 :	11100000;
	139 :	11101010;
	138 :	00000011;
	137 :	00000110;
	136 :	11111001;
	135 :	11100010;
	134 :	00010100;
	133 :	11111111;
	132 :	00000111;
	131 :	11100001;
	130 :	11001100;
	129 :	00001111;
	128 :	11110001;
	127 :	11100101;
	126 :	11001111;
	125 :	11110101;
	124 :	11001011;
	123 :	11001110;
	122 :	11100101;
	121 :	00000010;
	120 :	00000010;
	119 :	11010000;
	118 :	11100100;
	117 :	11111100;
	116 :	11111000;
	115 :	00011000;
	114 :	11100111;
	113 :	11101111;
	112 :	00001101;
	111 :	00100111;
	110 :	00000011;
	109 :	11011001;
	108 :	00000100;
	107 :	00100000;
	106 :	00001011;
	105 :	11111000;
	104 :	00001011;
	103 :	00011110;
	102 :	00001000;
	101 :	11110101;
	100 :	11100001;
	99 :	00000010;
	98 :	11111101;
	97 :	00000000;
	96 :	11110101;
	95 :	11101101;
	94 :	11111110;
	93 :	11111000;
	92 :	11101100;
	91 :	11101110;
	90 :	00000111;
	89 :	11101010;
	88 :	11011011;
	87 :	00000101;
	86 :	00001101;
	85 :	00011011;
	84 :	00000011;
	83 :	11110000;
	82 :	00001110;
	81 :	00100000;
	80 :	00000011;
	79 :	11110001;
	78 :	11111010;
	77 :	00100101;
	76 :	00000111;
	75 :	11111111;
	74 :	11101011;
	73 :	11110111;
	72 :	00001000;
	71 :	00001110;
	70 :	00000000;
	69 :	11101101;
	68 :	11111100;
	67 :	00010001;
	66 :	11111001;
	65 :	00000111;
	64 :	11111110;
	63 :	00011001;
	62 :	00001110;
	61 :	11101000;
	60 :	00000000;
	59 :	00010111;
	58 :	11111100;
	57 :	00001001;
	56 :	00001111;
	55 :	11101101;
	54 :	00001011;
	53 :	00001101;
	52 :	11110001;
	51 :	11111000;
	50 :	00000000;
	49 :	00110001;
	48 :	00111000;
	47 :	00101000;
	46 :	00001001;
	45 :	11110110;
	44 :	00111010;
	43 :	00011110;
	42 :	11100101;
	41 :	11100111;
	40 :	11001111;
	39 :	00101100;
	38 :	00010111;
	37 :	10111111;
	36 :	10100100;
	35 :	11001001;
	34 :	00001101;
	33 :	11100110;
	32 :	10101001;
	31 :	11010100;
	30 :	00010100;
	29 :	11101011;
	28 :	11011010;
	27 :	11110100;
	26 :	00001111;
	25 :	00011011;
	24 :	11101101;
	23 :	00000000;
	22 :	00001001;
	21 :	00000000;
	20 :	00010111;
	19 :	11110010;
	18 :	11111000;
	17 :	00011000;
	16 :	00100000;
	15 :	11101000;
	14 :	00000101;
	13 :	00001010;
	12 :	00010001;
	11 :	11111110;
	10 :	11110100;
	9 :	00011010;
	8 :	00011000;
	7 :	11101010;
	6 :	11011011;
	5 :	11101100;
	4 :	00010001;
	3 :	11100100;
	2 :	11101001;
	1 :	11110100;
	0 :	00010111;
END;
