-- begin_signature
-- layer2_weight_rom(CHANNEL_ID
-- 12)
-- end_signature
WIDTH=8;
DEPTH=150;

ADDRESS_RADIX=UNS;
DATA_RADIX=BIN;

CONTENT BEGIN
	149 :	00010011;
	148 :	00100110;
	147 :	11100110;
	146 :	11010000;
	145 :	10110011;
	144 :	00010001;
	143 :	00110001;
	142 :	00001101;
	141 :	11110111;
	140 :	10110111;
	139 :	00001111;
	138 :	00101111;
	137 :	00111101;
	136 :	00110000;
	135 :	11100101;
	134 :	00000110;
	133 :	11100000;
	132 :	00001111;
	131 :	00101110;
	130 :	11011101;
	129 :	00000100;
	128 :	11101101;
	127 :	11011110;
	126 :	11111111;
	125 :	11111100;
	124 :	11010000;
	123 :	00001011;
	122 :	00000010;
	121 :	00001001;
	120 :	11100010;
	119 :	11100011;
	118 :	11110100;
	117 :	00000110;
	116 :	00010111;
	115 :	11111111;
	114 :	11011110;
	113 :	11011010;
	112 :	11110010;
	111 :	00011100;
	110 :	00100111;
	109 :	11101110;
	108 :	11000001;
	107 :	11010101;
	106 :	11110010;
	105 :	00010101;
	104 :	11111101;
	103 :	11111001;
	102 :	11010110;
	101 :	00001001;
	100 :	00000001;
	99 :	11111011;
	98 :	00001010;
	97 :	11010001;
	96 :	11010001;
	95 :	11010110;
	94 :	11111011;
	93 :	00111001;
	92 :	01000011;
	91 :	00011000;
	90 :	11000101;
	89 :	11010001;
	88 :	00000010;
	87 :	00100001;
	86 :	00011000;
	85 :	00000001;
	84 :	11001001;
	83 :	11001011;
	82 :	00010010;
	81 :	00001011;
	80 :	00100110;
	79 :	11111110;
	78 :	11101011;
	77 :	11011100;
	76 :	00001101;
	75 :	00000011;
	74 :	00001100;
	73 :	00011001;
	72 :	00011100;
	71 :	11011110;
	70 :	11011011;
	69 :	00000001;
	68 :	00111001;
	67 :	01000100;
	66 :	00011001;
	65 :	00000000;
	64 :	11110000;
	63 :	11110000;
	62 :	00111111;
	61 :	01000110;
	60 :	00101110;
	59 :	11011101;
	58 :	11100110;
	57 :	11101101;
	56 :	00101011;
	55 :	00100111;
	54 :	11111001;
	53 :	11101010;
	52 :	11101010;
	51 :	11101001;
	50 :	00001010;
	49 :	11101110;
	48 :	11110011;
	47 :	00011100;
	46 :	00011111;
	45 :	00001110;
	44 :	11011010;
	43 :	11101010;
	42 :	00000100;
	41 :	00110100;
	40 :	00011101;
	39 :	00110000;
	38 :	00110001;
	37 :	11101100;
	36 :	10110010;
	35 :	11110111;
	34 :	00000000;
	33 :	00111000;
	32 :	01010111;
	31 :	00011111;
	30 :	00000110;
	29 :	11010000;
	28 :	11100001;
	27 :	00001010;
	26 :	00001111;
	25 :	11111001;
	24 :	00000010;
	23 :	00011101;
	22 :	00011100;
	21 :	00010100;
	20 :	11100101;
	19 :	11100101;
	18 :	00000000;
	17 :	00010011;
	16 :	00010011;
	15 :	11110101;
	14 :	11000000;
	13 :	10111100;
	12 :	11110111;
	11 :	00001010;
	10 :	00010010;
	9 :	11101100;
	8 :	11100010;
	7 :	11011011;
	6 :	11101011;
	5 :	11110010;
	4 :	00001110;
	3 :	00000011;
	2 :	11110101;
	1 :	11110110;
	0 :	11011101;
END;
