-- begin_signature
-- layer2_weight_rom(CHANNEL_ID
-- 5)
-- end_signature
WIDTH=8;
DEPTH=150;

ADDRESS_RADIX=UNS;
DATA_RADIX=BIN;

CONTENT BEGIN
	149 :	11110100;
	148 :	11010011;
	147 :	11111100;
	146 :	11101001;
	145 :	11101001;
	144 :	11011110;
	143 :	11100011;
	142 :	11110101;
	141 :	11011001;
	140 :	11011000;
	139 :	00100110;
	138 :	11011011;
	137 :	11100100;
	136 :	11110000;
	135 :	11110101;
	134 :	00000001;
	133 :	11010011;
	132 :	11011000;
	131 :	11011001;
	130 :	00011011;
	129 :	11000100;
	128 :	11011010;
	127 :	00000001;
	126 :	00000011;
	125 :	11111011;
	124 :	11111101;
	123 :	00000011;
	122 :	11110000;
	121 :	11101111;
	120 :	11110000;
	119 :	11111101;
	118 :	11011000;
	117 :	11010101;
	116 :	11011010;
	115 :	11011000;
	114 :	00010011;
	113 :	00001011;
	112 :	00010000;
	111 :	11111001;
	110 :	00001000;
	109 :	11111001;
	108 :	00011111;
	107 :	00010011;
	106 :	11110011;
	105 :	11111100;
	104 :	11101000;
	103 :	00000110;
	102 :	00000010;
	101 :	11111000;
	100 :	00000000;
	99 :	11100101;
	98 :	00000110;
	97 :	00100010;
	96 :	00000000;
	95 :	11101110;
	94 :	11110000;
	93 :	11101000;
	92 :	11100001;
	91 :	11101111;
	90 :	11010000;
	89 :	00011011;
	88 :	00100000;
	87 :	00001101;
	86 :	00000001;
	85 :	00000110;
	84 :	00101101;
	83 :	00001011;
	82 :	00010110;
	81 :	00001101;
	80 :	00001011;
	79 :	00000000;
	78 :	00000010;
	77 :	00000100;
	76 :	11111110;
	75 :	00011000;
	74 :	11010001;
	73 :	00000000;
	72 :	00001011;
	71 :	11111011;
	70 :	11011110;
	69 :	11110110;
	68 :	11110001;
	67 :	11111010;
	66 :	00000111;
	65 :	11101011;
	64 :	00100001;
	63 :	00001110;
	62 :	00001001;
	61 :	00101010;
	60 :	00100010;
	59 :	00001000;
	58 :	00011010;
	57 :	00001000;
	56 :	00000111;
	55 :	00011101;
	54 :	11101100;
	53 :	11100110;
	52 :	11111001;
	51 :	11100111;
	50 :	11110010;
	49 :	11111110;
	48 :	00011000;
	47 :	00110001;
	46 :	00100011;
	45 :	11111000;
	44 :	01010010;
	43 :	01100100;
	42 :	01100000;
	41 :	00110000;
	40 :	00110000;
	39 :	00110011;
	38 :	00110101;
	37 :	00101000;
	36 :	00100101;
	35 :	00101011;
	34 :	00100110;
	33 :	00001000;
	32 :	00011000;
	31 :	00101000;
	30 :	00001100;
	29 :	00110000;
	28 :	00110110;
	27 :	00100100;
	26 :	00001100;
	25 :	11100111;
	24 :	11100111;
	23 :	11010101;
	22 :	11001101;
	21 :	11100010;
	20 :	11100000;
	19 :	00000011;
	18 :	00001010;
	17 :	00100010;
	16 :	00011011;
	15 :	11111010;
	14 :	00100110;
	13 :	00010101;
	12 :	00101111;
	11 :	00000011;
	10 :	00010101;
	9 :	11111100;
	8 :	11101100;
	7 :	00001001;
	6 :	11101111;
	5 :	00010000;
	4 :	11100000;
	3 :	11110110;
	2 :	11101111;
	1 :	11100011;
	0 :	11110000;
END;
