-- begin_signature
-- layer1_weight_rom(CHANNEL_ID
-- 1)
-- end_signature
WIDTH=8;
DEPTH=32;

ADDRESS_RADIX=UNS;
DATA_RADIX=BIN;

CONTENT BEGIN
	31 :	XXXXXXXX;
	30 :	XXXXXXXX;
	29 :	XXXXXXXX;
	28 :	XXXXXXXX;
	27 :	XXXXXXXX;
	26 :	XXXXXXXX;
	25 :	XXXXXXXX;
	24 :	00100101;
	23 :	00100111;
	22 :	01000010;
	21 :	01001111;
	20 :	00111001;
	19 :	10111101;
	18 :	11001001;
	17 :	11000111;
	16 :	10111101;
	15 :	11100101;
	14 :	11110100;
	13 :	10111111;
	12 :	10001101;
	11 :	11010101;
	10 :	11000000;
	9 :	11111100;
	8 :	00010110;
	7 :	11110000;
	6 :	11110011;
	5 :	00110011;
	4 :	01001111;
	3 :	00110011;
	2 :	01011100;
	1 :	00000000;
	0 :	11111001;
END;
