-- begin_signature
-- layer2_weight_rom(CHANNEL_ID
-- 6)
-- end_signature
WIDTH=8;
DEPTH=150;

ADDRESS_RADIX=UNS;
DATA_RADIX=BIN;

CONTENT BEGIN
	149 :	00001110;
	148 :	00000101;
	147 :	11001100;
	146 :	00001011;
	145 :	01000111;
	144 :	11010000;
	143 :	11101101;
	142 :	11000010;
	141 :	11100001;
	140 :	00101010;
	139 :	10110100;
	138 :	10110111;
	137 :	10111101;
	136 :	11110010;
	135 :	00011000;
	134 :	00001101;
	133 :	11111010;
	132 :	11110110;
	131 :	11110001;
	130 :	00111000;
	129 :	00011110;
	128 :	00010100;
	127 :	00011010;
	126 :	00001001;
	125 :	00111010;
	124 :	00101000;
	123 :	00101011;
	122 :	00001101;
	121 :	11001010;
	120 :	00000000;
	119 :	00000110;
	118 :	00010001;
	117 :	11110010;
	116 :	11011011;
	115 :	00001010;
	114 :	11011000;
	113 :	11011001;
	112 :	11010001;
	111 :	11001001;
	110 :	00000011;
	109 :	11010001;
	108 :	11101100;
	107 :	11011001;
	106 :	11001110;
	105 :	00001100;
	104 :	00000011;
	103 :	00001101;
	102 :	11111001;
	101 :	11110100;
	100 :	00010100;
	99 :	00110111;
	98 :	00100011;
	97 :	00010100;
	96 :	11101010;
	95 :	11111111;
	94 :	00100110;
	93 :	00100111;
	92 :	00000000;
	91 :	11111001;
	90 :	00001100;
	89 :	11101110;
	88 :	11010010;
	87 :	11010001;
	86 :	11011100;
	85 :	11110101;
	84 :	11010101;
	83 :	11001110;
	82 :	11010111;
	81 :	11010010;
	80 :	00000110;
	79 :	00000011;
	78 :	00000100;
	77 :	00001010;
	76 :	00001011;
	75 :	11111111;
	74 :	00100000;
	73 :	00101111;
	72 :	11101110;
	71 :	11100000;
	70 :	00001011;
	69 :	00001100;
	68 :	00001010;
	67 :	11100111;
	66 :	11010101;
	65 :	00011000;
	64 :	11100101;
	63 :	11010111;
	62 :	11001000;
	61 :	11101011;
	60 :	00010101;
	59 :	11101000;
	58 :	11101010;
	57 :	11100111;
	56 :	00000111;
	55 :	00010001;
	54 :	11101101;
	53 :	11111111;
	52 :	00001001;
	51 :	00001010;
	50 :	11110011;
	49 :	01101110;
	48 :	01010110;
	47 :	00101010;
	46 :	11101011;
	45 :	10011100;
	44 :	01000100;
	43 :	01000000;
	42 :	11011111;
	41 :	10011111;
	40 :	10000110;
	39 :	00111001;
	38 :	01011100;
	37 :	00011011;
	36 :	11100011;
	35 :	11110110;
	34 :	00101100;
	33 :	00110001;
	32 :	00100001;
	31 :	01000001;
	30 :	00100011;
	29 :	00010010;
	28 :	11101010;
	27 :	11011101;
	26 :	11100111;
	25 :	11000101;
	24 :	00011010;
	23 :	00010101;
	22 :	11011100;
	21 :	11110010;
	20 :	00001110;
	19 :	11100100;
	18 :	11100111;
	17 :	11011001;
	16 :	11100101;
	15 :	00001101;
	14 :	11110010;
	13 :	11100101;
	12 :	11011110;
	11 :	11011101;
	10 :	00001010;
	9 :	00100100;
	8 :	00001110;
	7 :	00001100;
	6 :	00010101;
	5 :	00101010;
	4 :	00011111;
	3 :	00001000;
	2 :	11111010;
	1 :	00101101;
	0 :	00100011;
END;
