-- begin_signature
-- layer2_weight_rom(CHANNEL_ID
-- 14)
-- end_signature
WIDTH=8;
DEPTH=150;

ADDRESS_RADIX=UNS;
DATA_RADIX=BIN;

CONTENT BEGIN
	149 :	00000000;
	148 :	11111110;
	147 :	11110111;
	146 :	11100110;
	145 :	11111011;
	144 :	00110101;
	143 :	00011011;
	142 :	11001011;
	141 :	00010010;
	140 :	00011000;
	139 :	00101001;
	138 :	00110000;
	137 :	00000110;
	136 :	00100110;
	135 :	00011111;
	134 :	11100001;
	133 :	00101110;
	132 :	00010011;
	131 :	00000101;
	130 :	11110101;
	129 :	11010011;
	128 :	11101101;
	127 :	00011001;
	126 :	00001100;
	125 :	00010101;
	124 :	00001000;
	123 :	11110010;
	122 :	00000000;
	121 :	11101011;
	120 :	11110110;
	119 :	11101010;
	118 :	00000010;
	117 :	00000110;
	116 :	11111100;
	115 :	00001100;
	114 :	11100110;
	113 :	11101110;
	112 :	11111001;
	111 :	00010101;
	110 :	11110110;
	109 :	11101101;
	108 :	11101110;
	107 :	00011000;
	106 :	00100000;
	105 :	00000000;
	104 :	11110000;
	103 :	11111001;
	102 :	00100011;
	101 :	00010010;
	100 :	11010111;
	99 :	11111011;
	98 :	11101101;
	97 :	00001101;
	96 :	00100001;
	95 :	00000011;
	94 :	00000111;
	93 :	00001101;
	92 :	11100011;
	91 :	11101100;
	90 :	00001111;
	89 :	11101001;
	88 :	00010110;
	87 :	00000100;
	86 :	11100111;
	85 :	00001000;
	84 :	11111001;
	83 :	11110010;
	82 :	00001010;
	81 :	00000011;
	80 :	00000000;
	79 :	00001010;
	78 :	00001011;
	77 :	00010111;
	76 :	00010010;
	75 :	11100111;
	74 :	00011011;
	73 :	00000111;
	72 :	11111001;
	71 :	00011001;
	70 :	00011100;
	69 :	00100010;
	68 :	00011100;
	67 :	11111100;
	66 :	11100110;
	65 :	00000110;
	64 :	11111100;
	63 :	00101000;
	62 :	00010111;
	61 :	11110001;
	60 :	11100010;
	59 :	11110110;
	58 :	11110110;
	57 :	00100000;
	56 :	11101010;
	55 :	11011011;
	54 :	11110111;
	53 :	11111101;
	52 :	00001100;
	51 :	11101111;
	50 :	11110101;
	49 :	00001101;
	48 :	00111100;
	47 :	00101101;
	46 :	11101000;
	45 :	11010010;
	44 :	00010110;
	43 :	00100111;
	42 :	01000000;
	41 :	00000010;
	40 :	11010111;
	39 :	00110011;
	38 :	11010111;
	37 :	11010100;
	36 :	11110100;
	35 :	11110100;
	34 :	00011110;
	33 :	00000000;
	32 :	10101001;
	31 :	11011010;
	30 :	11111100;
	29 :	11101111;
	28 :	11001100;
	27 :	11000010;
	26 :	10110100;
	25 :	11110111;
	24 :	11111100;
	23 :	00000011;
	22 :	11111000;
	21 :	11110010;
	20 :	11111101;
	19 :	11101110;
	18 :	11101111;
	17 :	11110011;
	16 :	11100101;
	15 :	11100101;
	14 :	11011010;
	13 :	11111110;
	12 :	11111110;
	11 :	11101110;
	10 :	11101101;
	9 :	11111010;
	8 :	11101111;
	7 :	00000000;
	6 :	11100011;
	5 :	11111101;
	4 :	00000101;
	3 :	00001001;
	2 :	11011010;
	1 :	11101101;
	0 :	11111001;
END;
