-- begin_signature
-- layer1_weight_rom(CHANNEL_ID
-- 4)
-- end_signature
WIDTH=8;
DEPTH=32;

ADDRESS_RADIX=UNS;
DATA_RADIX=BIN;

CONTENT BEGIN
	31 :	XXXXXXXX;
	30 :	XXXXXXXX;
	29 :	XXXXXXXX;
	28 :	XXXXXXXX;
	27 :	XXXXXXXX;
	26 :	XXXXXXXX;
	25 :	XXXXXXXX;
	24 :	00110010;
	23 :	11100110;
	22 :	00110001;
	21 :	00000101;
	20 :	11100001;
	19 :	00100000;
	18 :	01010010;
	17 :	00101001;
	16 :	00100111;
	15 :	11011110;
	14 :	00101101;
	13 :	00000000;
	12 :	00000001;
	11 :	11100011;
	10 :	11010001;
	9 :	00111000;
	8 :	00111001;
	7 :	00100101;
	6 :	11001001;
	5 :	10111101;
	4 :	11111110;
	3 :	11101001;
	2 :	00100110;
	1 :	00000000;
	0 :	11101011;
END;
