-- begin_signature
-- layer2_weight_rom(CHANNEL_ID
-- 10)
-- end_signature
WIDTH=8;
DEPTH=150;

ADDRESS_RADIX=UNS;
DATA_RADIX=BIN;

CONTENT BEGIN
	149 :	11011101;
	148 :	00000001;
	147 :	00011110;
	146 :	00011001;
	145 :	00001010;
	144 :	11110010;
	143 :	00101100;
	142 :	00100001;
	141 :	00101100;
	140 :	10111010;
	139 :	11100101;
	138 :	00101101;
	137 :	00100001;
	136 :	11110110;
	135 :	11000101;
	134 :	11110110;
	133 :	00001111;
	132 :	00010110;
	131 :	11010100;
	130 :	10110000;
	129 :	11110000;
	128 :	11111011;
	127 :	11111101;
	126 :	11001011;
	125 :	10110010;
	124 :	10110000;
	123 :	11001010;
	122 :	11110010;
	121 :	00010001;
	120 :	00001101;
	119 :	10111110;
	118 :	11011101;
	117 :	00011001;
	116 :	00011010;
	115 :	11111010;
	114 :	11001010;
	113 :	11101000;
	112 :	00100101;
	111 :	00100001;
	110 :	11011011;
	109 :	11111100;
	108 :	11111100;
	107 :	00010100;
	106 :	00000000;
	105 :	11011101;
	104 :	11111100;
	103 :	00011001;
	102 :	11111001;
	101 :	00000001;
	100 :	00001100;
	99 :	11011100;
	98 :	11100011;
	97 :	11011000;
	96 :	11100000;
	95 :	00010011;
	94 :	10110111;
	93 :	11100101;
	92 :	11101010;
	91 :	11111110;
	90 :	00000110;
	89 :	11000011;
	88 :	11011010;
	87 :	11111110;
	86 :	11111010;
	85 :	10111101;
	84 :	11110010;
	83 :	00000100;
	82 :	00011001;
	81 :	11110000;
	80 :	11010100;
	79 :	00000101;
	78 :	00101011;
	77 :	00110001;
	76 :	00011000;
	75 :	00001110;
	74 :	11011000;
	73 :	00000001;
	72 :	11110110;
	71 :	11101101;
	70 :	11001011;
	69 :	11001101;
	68 :	00000101;
	67 :	00001100;
	66 :	11011001;
	65 :	11101010;
	64 :	11101011;
	63 :	11101110;
	62 :	11110101;
	61 :	11110000;
	60 :	11100100;
	59 :	00000100;
	58 :	11111010;
	57 :	00010100;
	56 :	00011011;
	55 :	11100011;
	54 :	00100011;
	53 :	00000101;
	52 :	00101000;
	51 :	00010101;
	50 :	00011101;
	49 :	11110000;
	48 :	00001110;
	47 :	00010000;
	46 :	11100000;
	45 :	10011011;
	44 :	11111010;
	43 :	11100111;
	42 :	10111100;
	41 :	10011001;
	40 :	10110010;
	39 :	11111000;
	38 :	11011010;
	37 :	11010011;
	36 :	11110100;
	35 :	11101111;
	34 :	00000111;
	33 :	00010111;
	32 :	00111001;
	31 :	00101100;
	30 :	00011101;
	29 :	11001010;
	28 :	11110001;
	27 :	11101100;
	26 :	00010010;
	25 :	00001111;
	24 :	11011001;
	23 :	00011001;
	22 :	00010000;
	21 :	11111000;
	20 :	11010010;
	19 :	11110011;
	18 :	11111010;
	17 :	00010011;
	16 :	11011000;
	15 :	11001001;
	14 :	00000111;
	13 :	11111111;
	12 :	11101000;
	11 :	11001110;
	10 :	11111001;
	9 :	00100101;
	8 :	00010000;
	7 :	00010001;
	6 :	00100001;
	5 :	00010111;
	4 :	00100010;
	3 :	11111010;
	2 :	00010110;
	1 :	00011001;
	0 :	11110000;
END;
