-- begin_signature
-- layer2_weight_rom(CHANNEL_ID
-- 9)
-- end_signature
WIDTH=8;
DEPTH=150;

ADDRESS_RADIX=UNS;
DATA_RADIX=BIN;

CONTENT BEGIN
	149 :	11011111;
	148 :	10111000;
	147 :	10011100;
	146 :	11010111;
	145 :	11011110;
	144 :	00011010;
	143 :	00000001;
	142 :	10011111;
	141 :	11000010;
	140 :	11100000;
	139 :	00110110;
	138 :	00111011;
	137 :	11111101;
	136 :	11100100;
	135 :	11100000;
	134 :	11111001;
	133 :	00101110;
	132 :	00001010;
	131 :	00000111;
	130 :	11110110;
	129 :	11001001;
	128 :	00001110;
	127 :	00010100;
	126 :	11111000;
	125 :	00010110;
	124 :	11110111;
	123 :	11110010;
	122 :	11011101;
	121 :	11101110;
	120 :	11100011;
	119 :	00000010;
	118 :	00001001;
	117 :	11111101;
	116 :	11011001;
	115 :	11000000;
	114 :	11101111;
	113 :	00011000;
	112 :	00011001;
	111 :	00000000;
	110 :	11101111;
	109 :	11010000;
	108 :	00000010;
	107 :	00001101;
	106 :	11101111;
	105 :	00000000;
	104 :	11100100;
	103 :	11101100;
	102 :	00001111;
	101 :	11110010;
	100 :	00000000;
	99 :	11100001;
	98 :	11001001;
	97 :	11111101;
	96 :	00010001;
	95 :	00000101;
	94 :	00011000;
	93 :	11111111;
	92 :	10100101;
	91 :	10101010;
	90 :	11100001;
	89 :	00100010;
	88 :	00010000;
	87 :	11101000;
	86 :	11010011;
	85 :	11011100;
	84 :	11011111;
	83 :	00000000;
	82 :	11110001;
	81 :	00001100;
	80 :	11101001;
	79 :	11111010;
	78 :	11100111;
	77 :	11110011;
	76 :	11110101;
	75 :	11110010;
	74 :	00010000;
	73 :	11011111;
	72 :	11000001;
	71 :	11101000;
	70 :	11101011;
	69 :	01000000;
	68 :	00100101;
	67 :	11110001;
	66 :	11000001;
	65 :	11010010;
	64 :	00100001;
	63 :	01000100;
	62 :	00011101;
	61 :	11101011;
	60 :	11100101;
	59 :	11100111;
	58 :	00010011;
	57 :	00011010;
	56 :	00011001;
	55 :	00001110;
	54 :	11011110;
	53 :	11100011;
	52 :	00000111;
	51 :	00000100;
	50 :	11111011;
	49 :	01101110;
	48 :	01101111;
	47 :	01010010;
	46 :	00101101;
	45 :	00010100;
	44 :	00101110;
	43 :	01001110;
	42 :	00111110;
	41 :	00110000;
	40 :	00001111;
	39 :	00101001;
	38 :	11101111;
	37 :	11110110;
	36 :	00000100;
	35 :	00011001;
	34 :	01000101;
	33 :	00000110;
	32 :	11010011;
	31 :	11011010;
	30 :	00000010;
	29 :	11010111;
	28 :	11101010;
	27 :	11010110;
	26 :	11110010;
	25 :	00000001;
	24 :	00001011;
	23 :	00001010;
	22 :	11000110;
	21 :	11001111;
	20 :	11001110;
	19 :	00100001;
	18 :	00100000;
	17 :	00001011;
	16 :	11110010;
	15 :	11111110;
	14 :	11110001;
	13 :	00000110;
	12 :	11110110;
	11 :	11110110;
	10 :	00000100;
	9 :	11110100;
	8 :	11111111;
	7 :	11111001;
	6 :	00000011;
	5 :	00000110;
	4 :	00000110;
	3 :	11110100;
	2 :	11101011;
	1 :	11111100;
	0 :	11111110;
END;
